{"version":"1.0","truncation":null,"padding":null,"added_tokens":[{"id":0,"special":true,"content":"[PAD]","single_word":false,"lstrip":false,"rstrip":false,"normalized":false},{"id":1,"special":true,"content":"[UNK]","single_word":false,"lstrip":false,"rstrip":false,"normalized":false},{"id":2,"special":true,"content":"[WHAT/]","single_word":false,"lstrip":false,"rstrip":false,"normalized":false},{"id":3,"special":true,"content":"[/WHAT]","single_word":false,"lstrip":false,"rstrip":false,"normalized":false},{"id":4,"special":true,"content":"[WHY/]","single_word":false,"lstrip":false,"rstrip":false,"normalized":false},{"id":5,"special":true,"content":"[/WHY]","single_word":false,"lstrip":false,"rstrip":false,"normalized":false},{"id":6,"special":true,"content":"[USAGE/]","single_word":false,"lstrip":false,"rstrip":false,"normalized":false},{"id":7,"special":true,"content":"[/USAGE]","single_word":false,"lstrip":false,"rstrip":false,"normalized":false},{"id":8,"special":true,"content":"[DONE/]","single_word":false,"lstrip":false,"rstrip":false,"normalized":false},{"id":9,"special":true,"content":"[/DONE]","single_word":false,"lstrip":false,"rstrip":false,"normalized":false},{"id":10,"special":true,"content":"[PROP/]","single_word":false,"lstrip":false,"rstrip":false,"normalized":false},{"id":11,"special":true,"content":"[/PROP]","single_word":false,"lstrip":false,"rstrip":false,"normalized":false},{"id":12,"special":true,"content":"[EOS]","single_word":false,"lstrip":false,"rstrip":false,"normalized":false}],"normalizer":null,"pre_tokenizer":{"type":"WhitespaceSplit"},"post_processor":null,"decoder":{"type":"BPEDecoder","suffix":"</w>"},"model":{"type":"BPE","dropout":null,"unk_token":"[UNK]","continuing_subword_prefix":null,"end_of_word_suffix":"</w>","fuse_unk":false,"vocab":{"[PAD]":0,"[UNK]":1,"[WHAT/]":2,"[/WHAT]":3,"[WHY/]":4,"[/WHY]":5,"[USAGE/]":6,"[/USAGE]":7,"[DONE/]":8,"[/DONE]":9,"[PROP/]":10,"[/PROP]":11,"[EOS]":12,"!":13,"\"":14,"#":15,"$":16,"%":17,"&":18,"'":19,"(":20,")":21,"*":22,"+":23,",":24,"-":25,".":26,"/":27,"0":28,"1":29,"2":30,"3":31,"4":32,"5":33,"6":34,"7":35,"8":36,"9":37,":":38,";":39,"<":40,"=":41,">":42,"?":43,"@":44,"A":45,"B":46,"C":47,"D":48,"E":49,"F":50,"G":51,"H":52,"I":53,"J":54,"K":55,"L":56,"M":57,"N":58,"O":59,"P":60,"Q":61,"R":62,"S":63,"T":64,"U":65,"V":66,"W":67,"X":68,"Y":69,"Z":70,"[":71,"\\":72,"]":73,"^":74,"_":75,"`":76,"a":77,"b":78,"c":79,"d":80,"e":81,"f":82,"g":83,"h":84,"i":85,"j":86,"k":87,"l":88,"m":89,"n":90,"o":91,"p":92,"q":93,"r":94,"s":95,"t":96,"u":97,"v":98,"w":99,"x":100,"y":101,"z":102,"{":103,"|":104,"}":105,"~":106,"r</w>":107,"n</w>":108,"s</w>":109,"g</w>":110,"e</w>":111,"l</w>":112,"E</w>":113,"w</w>":114,"d</w>":115,"y</w>":116,"t</w>":117,"9</w>":118,"m</w>":119,"h</w>":120,"P</w>":121,"p</w>":122,"S</w>":123,"k</w>":124,"v</w>":125,"M</w>":126,"c</w>":127,"1</w>":128,"N</w>":129,"i</w>":130,"f</w>":131,"L</w>":132,"D</w>":133,"o</w>":134,"A</w>":135,"5</w>":136,"O</w>":137,"a</w>":138,"j</w>":139,"x</w>":140,"I</w>":141,"4</w>":142,"q</w>":143,"K</w>":144,"Y</w>":145,"R</w>":146,"T</w>":147,"b</w>":148,"=</w>":149,"C</w>":150,"Z</w>":151,"X</w>":152,"F</w>":153,"u</w>":154,"2</w>":155,"V</w>":156,"z</w>":157,"3</w>":158,"G</w>":159,"H</w>":160,"6</w>":161,"B</w>":162,"W</w>":163,"U</w>":164,"7</w>":165,"0</w>":166,"!</w>":167,"~</w>":168,"(</w>":169,"8</w>":170,",</w>":171,"Q</w>":172,"#</w>":173,"_</w>":174,"'</w>":175,"J</w>":176,")</w>":177,"^</w>":178,"$</w>":179,"+</w>":180,".</w>":181,"/</w>":182,"<</w>":183,"></w>":184,"*</w>":185,"%</w>":186,"&</w>":187,"[</w>":188,"`</w>":189,"]</w>":190,"-</w>":191,"|</w>":192,"\"</w>":193,"\\</w>":194,"?</w>":195,";</w>":196,":</w>":197,"}</w>":198,"@</w>":199,"{</w>":200,"in":201,"re":202,"at":203,"en":204,"er</w>":205,"tr":206,"ti":207,"et</w>":208,"th":209,"on</w>":210,"UM":211,"NUM":212,"NUM_</w>":213,"er":214,"ing</w>":215,"ur":216,"on":217,"al":218,"ro":219,"st":220,"le</w>":221,"ar":222,"ne":223,"if</w>":224,"ST":225,"le":226,"or":227,"an":228,"STR":229,"STR_</w>":230,"tring</w>":231,"get</w>":232,"li":233,"ul":234,"tion</w>":235,"se</w>":236,"te":237,"int</w>":238,"String</w>":239,"pu":240,"st</w>":241,"new</w>":242,"de":243,"or</w>":244,"tur":245,"ou":246,"retur":247,"ce":248,"ec":249,"am":250,"al</w>":251,"lo":252,"return</w>":253,"the</w>":254,"ac":255,"ate</w>":256,"is</w>":257,"ad":258,"it":259,"fi":260,"ent</w>":261,"ati":262,"es</w>":263,"si":264,"ull</w>":265,"In":266,"ue</w>":267,"null</w>":268,"Ex":269,"as":270,"ed</w>":271,"co":272,"ch":273,"ption</w>":274,"ble</w>":275,"bli":276,"blic</w>":277,"public</w>":278,"el":279,"ra":280,"ame</w>":281,"ception</w>":282,"th</w>":283,"id</w>":284,"St":285,"ma":286,"Exception</w>":287,"to</w>":288,"ts</w>":289,"rea":290,"set</w>":291,"de</w>":292,"ri":293,"ge</w>":294,"fin":295,"Re":296,"==</w>":297,"ce</w>":298,"an</w>":299,"te</w>":300,"bu":301,"Li":302,"con":303,"res":304,"xt</w>":305,"in</w>":306,"vo":307,"um":308,"nt</w>":309,"il":310,"alue</w>":311,"Co":312,"add</w>":313,"for</w>":314,"qu":315,"eng":316,"ation</w>":317,"di":318,"ff":319,"ength</w>":320,"oo":321,"ch</w>":322,"put</w>":323,"yp":324,"mp":325,"void</w>":326,"Fi":327,"thro":328,"final</w>":329,"List</w>":330,"ze</w>":331,"ap":332,"ar</w>":333,"Con":334,"!=</w>":335,"ath</w>":336,"jec":337,"en</w>":338,"this</w>":339,"Name</w>":340,"else</w>":341,"es":342,"length</w>":343,"ata</w>":344,"ype</w>":345,"pro":346,"ter":347,"bjec":348,"la":349,"dex</w>":350,"ment</w>":351,"ve</w>":352,"po":353,"Ar":354,"ter</w>":355,"ouble</w>":356,"Bu":357,"ult</w>":358,"of</w>":359,"able</w>":360,"vi":361,"try</w>":362,"age</w>":363,"ig":364,"mo":365,"bject</w>":366,"un":367,"ex":368,"ds</w>":369,"end</w>":370,"at</w>":371,"ted</w>":372,"im":373,"Ch":374,"En":375,"der</w>":376,"ty</w>":377,"ode</w>":378,"ase</w>":379,"lean</w>":380,"sp":381,"ray</w>":382,"ey</w>":383,"File</w>":384,"atic</w>":385,"las":386,"su":387,"oolean</w>":388,"static</w>":389,"ction</w>":390,"par":391,"it</w>":392,"yte</w>":393,"rit":394,"per":395,"cre":396,"id":397,"++</w>":398,"Lo":399,"value</w>":400,"double</w>":401,"ver":402,"Po":403,"ger</w>":404,"Pro":405,"boolean</w>":406,"se":407,"ws</w>":408,"stan":409,"rent</w>":410,"loc":411,"pri":412,"lass</w>":413,"tri":414,"ream</w>":415,"Type</w>":416,"atch</w>":417,"ol":418,"and</w>":419,"ta":420,"ine</w>":421,"&&</w>":422,"Ma":423,"true</w>":424,"ffer</w>":425,"fal":426,"Object</w>":427,"vate</w>":428,"false</w>":429,"app":430,"ons</w>":431,"me":432,"for":433,"art</w>":434,"ount</w>":435,"size</w>":436,"gi":437,"private</w>":438,"ab":439,"hi":440,"cur":441,"out</w>":442,"read</w>":443,"text</w>":444,"throw</w>":445,"ser":446,"as</w>":447,"to":448,"our":449,"sion</w>":450,"Value</w>":451,"rom</w>":452,"Array</w>":453,"To</w>":454,"ht</w>":455,"tes</w>":456,"ator</w>":457,"throws</w>":458,"name</w>":459,"ess":460,"Id</w>":461,"byte</w>":462,"writ":463,"no":464,"Math</w>":465,"up":466,"file</w>":467,"result</w>":468,"ong</w>":469,"do":470,"est</w>":471,"Di":472,"Col":473,"De":474,"ize</w>":475,"ort</w>":476,"Se":477,"string</w>":478,"data</w>":479,"ace</w>":480,"Stream</w>":481,"Set</w>":482,"Tim":483,"index</w>":484,"essage</w>":485,"Map</w>":486,"append</w>":487,"cal":488,"sh":489,"tho":490,"ource</w>":491,"Data</w>":492,"ory</w>":493,"ader</w>":494,"ste":495,"lement</w>":496,"gs</w>":497,"catch</w>":498,"Index</w>":499,"tor</w>":500,"||</w>":501,"val":502,"oun":503,"sten":504,"remo":505,"red</w>":506,"um</w>":507,"from</w>":508,"iz":509,"thod</w>":510,"create</w>":511,"IN":512,"Me":513,"ll</w>":514,"Node</w>":515,"ight</w>":516,"el</w>":517,"ext</w>":518,"he":519,"key</w>":520,"ith</w>":521,"Par":522,"current</w>":523,"ad</w>":524,"IO</w>":525,"case</w>":526,"ents</w>":527,"Sy":528,"fo</w>":529,"tribu":530,"char</w>":531,"us":532,"write</w>":533,"Size</w>":534,"als</w>":535,"tions</w>":536,"log</w>":537,"Of</w>":538,"tput</w>":539,"start</w>":540,"list</w>":541,"cted</w>":542,"ces":543,"ly</w>":544,"pa":545,"ven</w>":546,"flo":547,"Class</w>":548,"next</w>":549,"tt":550,"ates</w>":551,"ffset</w>":552,"ack</w>":553,"str":554,"He":555,"ber</w>":556,"Time</w>":557,"ew</w>":558,"ls</w>":559,"given</w>":560,"rec":561,"stem</w>":562,"Key</w>":563,"mat</w>":564,"ror</w>":565,"ns</w>":566,"ers</w>":567,"Pa":568,"Res":569,"whi":570,"tem</w>":571,"ran":572,"equ":573,"ore</w>":574,"idth</w>":575,"Uti":576,"ild</w>":577,"vent</w>":578,"up</w>":579,"eld</w>":580,"Mo":581,"lock</w>":582,"An":583,"Buffer</w>":584,"date</w>":585,"me</w>":586,"max</w>":587,"pre":588,"mp</w>":589,"per</w>":590,"brea":591,"long</w>":592,"Vi":593,"stener</w>":594,"ilder</w>":595,"wor":596,"chec":597,"ity</w>":598,"remove</w>":599,"break</w>":600,"ues</w>":601,"ack":602,"Path</w>":603,"ces</w>":604,"and":605,"stance</w>":606,"fa":607,"les</w>":608,"ding</w>":609,"Count</w>":610,"umber</w>":611,"ytes</w>":612,"Ou":613,"AT":614,"line</w>":615,"sc":616,"quest</w>":617,"tain":618,"equals</w>":619,"ded</w>":620,"type</w>":621,"float</w>":622,"System</w>":623,"Ser":624,"us</w>":625,"sy":626,"comp":627,"ument</w>":628,"ash</w>":629,"tory</w>":630,"sition</w>":631,"oc":632,"ot</w>":633,"Element</w>":634,"teger</w>":635,"col":636,"ver</w>":637,"while</w>":638,"UR":639,"To":640,"ER":641,"cop":642,"buffer</w>":643,"pr":644,"led</w>":645,"State</w>":646,"class</w>":647,"com":648,"+=</w>":649,"rap":650,"av":651,"sub":652,"ure</w>":653,"ID</w>":654,"Integer</w>":655,"map</w>":656,"node</w>":657,"ifi":658,"Text</w>":659,"Message</w>":660,"ys</w>":661,"method</w>":662,"ER</w>":663,"CO":664,"Le":665,"LO":666,"ress</w>":667,"mage</w>":668,"Sp":669,"Qu":670,"RE":671,"vice</w>":672,"ren":673,"all</w>":674,"with</w>":675,"clo":676,"min</w>":677,"Proper":678,"cation</w>":679,"tent</w>":680,"ang":681,"Rec":682,"ft</w>":683,"ken</w>":684,"lection</w>":685,"contain":686,"count</w>":687,"len</w>":688,"returns</w>":689,"Comp":690,"has</w>":691,"Builder</w>":692,"At":693,"EN":694,"one</w>":695,"spec":696,"ach":697,"ON</w>":698,"cess</w>":699,"code</w>":700,"tribute</w>":701,"nel</w>":702,"rep":703,"mat":704,"array</w>":705,"Input</w>":706,"Ad":707,"is":708,"ery</w>":709,"del</w>":710,"Th":711,"enti":712,"lu":713,"Un":714,"At</w>":715,"bug</w>":716,"bo":717,"that</w>":718,"ties</w>":719,"Int</w>":720,"mpty</w>":721,"La":722,"Stat":723,"prote":724,"op":725,"check</w>":726,"ct</w>":727,"Byte</w>":728,"ks</w>":729,"ff</w>":730,"leg":731,"time</w>":732,"path</w>":733,"copy</w>":734,"Info</w>":735,"Val":736,"For":737,"fault</w>":738,"its</w>":739,"rst</w>":740,"Ac":741,"exp":742,"ener":743,"protected</w>":744,"Line</w>":745,"ame":746,"last</w>":747,"offset</w>":748,"table</w>":749,"ask</w>":750,"roup</w>":751,"parse</w>":752,"be":753,"ser</w>":754,"gger</w>":755,"ized</w>":756,">=</w>":757,"ated</w>":758,"Output</w>":759,"specifi":760,"ms</w>":761,"ree</w>":762,"ler</w>":763,"TI":764,"object</w>":765,"ments</w>":766,"ag":767,"Event</w>":768,"Pre":769,"Item</w>":770,"format</w>":771,"val</w>":772,"ange</w>":773,"umn</w>":774,"message</w>":775,"input</w>":776,"iti":777,"Confi":778,"Sh":779,"close</w>":780,"are</w>":781,"du":782,"ther</w>":783,"Double</w>":784,"ings</w>":785,"ron":786,"Utils</w>":787,"fe":788,"Width</w>":789,"ints</w>":790,"Length</w>":791,"str</w>":792,"arget</w>":793,"sb</w>":794,"Listener</w>":795,"ten":796,"Over":797,"ary</w>":798,"ta</w>":799,"end":800,"lient</w>":801,"Point</w>":802,"pp":803,"ector</w>":804,"num</w>":805,"View</w>":806,"syn":807,"cs</w>":808,"ster</w>":809,"Ta":810,"RO":811,"des</w>":812,"ow</w>":813,"Su":814,"Er":815,"fix</w>":816,"values</w>":817,"buf</w>":818,"Writ":819,"DE":820,"specified</w>":821,"ke</w>":822,"error</w>":823,"ride</w>":824,"load</w>":825,"stream</w>":826,"onse</w>":827,"res</w>":828,"pos</w>":829,"Man":830,"legal</w>":831,"nection</w>":832,"arac":833,"MA":834,"ound</w>":835,"old</w>":836,"SI":837,"gn":838,"Log</w>":839,"Entry</w>":840,"Il":841,"Illegal</w>":842,"Height</w>":843,"gument</w>":844,"All</w>":845,"contains</w>":846,"output</w>":847,"Fac":848,"Override</w>":849,"Empty</w>":850,"Inter":851,"dra":852,"tran":853,"tation</w>":854,"Date</w>":855,"Hash</w>":856,"sed</w>":857,"ard</w>":858,"vel</w>":859,"Long</w>":860,"AR":861,"Sc":862,"Context</w>":863,"info</w>":864,"field</w>":865,"ames</w>":866,"ache</w>":867,"Color</w>":868,"sert</w>":869,"AL":870,"source</w>":871,"ph":872,"entry</w>":873,"Error</w>":874,"update</w>":875,"Field</w>":876,"ters</w>":877,"sec":878,"Tran":879,"<=</w>":880,"Number</w>":881,"Bytes</w>":882,"cle":883,"ager</w>":884,"che":885,"cale</w>":886,"Offset</w>":887,"ml</w>":888,"inter":889,"be</w>":890,"lete</w>":891,"first</w>":892,"ec</w>":893,"In</w>":894,"ke":895,"Request</w>":896,"min":897,"Attribute</w>":898,"Null</w>":899,"Com":900,"au":901,"child</w>":902,"Result</w>":903,"Property</w>":904,"Method</w>":905,"AC":906,"dress</w>":907,"Loc":908,"creates</w>":909,"Argument</w>":910,"Code</w>":911,"Format</w>":912,"Char</w>":913,"number</w>":914,"row</w>":915,"width</w>":916,"debug</w>":917,"logger</w>":918,"ob":919,"Image</w>":920,"stru":921,"With</w>":922,"Vector</w>":923,"bytes</w>":924,"request</w>":925,"cont":926,"Tr":927,"print</w>":928,"Not</w>":929,"sts</w>":930,"chron":931,"fil":932,"lic":933,"Table</w>":934,"sor</w>":935,"Op":936,"ord</w>":937,"Start</w>":938,"by</w>":939,"position</w>":940,"substring</w>":941,"lay":942,"parent</w>":943,"item</w>":944,"Model</w>":945,"instan":946,"sg</w>":947,"ams</w>":948,"target</w>":949,"SE":950,"And</w>":951,"default</w>":952,"arra":953,"abled</w>":954,"OR":955,"uration</w>":956,"form</w>":957,"element</w>":958,"word</w>":959,"ecu":960,"hand":961,"Ver":962,"ip</w>":963,"tu":964,"ir":965,"action</w>":966,"proper":967,"Manager</w>":968,"Constan":969,"rip":970,"tifi":971,"ic":972,"state</w>":973,"For</w>":974,"user</w>":975,"atter":976,"synchron":977,"port</w>":978,"os</w>":979,"Lab":980,"il</w>":981,"onent</w>":982,"URI</w>":983,"ate":984,"Al":985,"tal</w>":986,"wn</w>":987,"confi":988,"Mat":989,"act</w>":990,"lements</w>":991,"Instance</w>":992,"context</w>":993,"feren":994,"event</w>":995,"Lay":996,"Cal":997,"ies</w>":998,"ps</w>":999,"initi":1000,"aracter</w>":1001,"Values</w>":1002,"url</w>":1003,"listener</w>":1004,"gener":1005,"ght</w>":1006,"height</w>":1007,"rectory</w>":1008,"Iter":1009,"Token</w>":1010,"point</w>":1011,"ex</w>":1012,"nal</w>":1013,"ses</w>":1014,"Hand":1015,"Position</w>":1016,"From</w>":1017,"trans":1018,"synchronized</w>":1019,"find</w>":1020,"Enti":1021,"dom</w>":1022,"ume</w>":1023,"am</w>":1024,"ass":1025,"TA":1026,"iter":1027,"wa":1028,"ru":1029,"conver":1030,"Factory</w>":1031,"clear</w>":1032,"lec":1033,"array":1034,"ket</w>":1035,"FI":1036,"Service</w>":1037,"Trans":1038,"Next</w>":1039,"ava</w>":1040,"rc</w>":1041,"ic</w>":1042,"Stack</w>":1043,"ner</w>":1044,"Pos</w>":1045,"order</w>":1046,"Bo":1047,"Constants</w>":1048,"orage</w>":1049,"temp</w>":1050,"attern</w>":1051,"Action</w>":1052,"rs</w>":1053,"Writer</w>":1054,"Config</w>":1055,"view</w>":1056,"arraycopy</w>":1057,"ool</w>":1058,"iter</w>":1059,"ars</w>":1060,"men":1061,"ors</w>":1062,"clu":1063,"lected</w>":1064,"ations</w>":1065,"LE":1066,"Up":1067,"Cur":1068,"regi":1069,"gin</w>":1070,"Enabled</w>":1071,"ameter</w>":1072,"esc":1073,"ature</w>":1074,"Group</w>":1075,"not</w>":1076,"AM":1077,"Status</w>":1078,"Lin":1079,"ma</w>":1080,"ari":1081,"instance":1082,"ked</w>":1083,"mit</w>":1084,"ret</w>":1085,"instanceof</w>":1086,"Client</w>":1087,"Util</w>":1088,"tion":1089,"ence</w>":1090,"dat":1091,"Level</w>":1092,"ally</w>":1093,"ession</w>":1094,"No":1095,"Entity</w>":1096,"left</w>":1097,"Dec":1098,"wh":1099,"amp":1100,"Query</w>":1101,"LE</w>":1102,"ounds</w>":1103,"do</w>":1104,"star":1105,"Block</w>":1106,"eue</w>":1107,"tive</w>":1108,"sq":1109,"match":1110,"we":1111,"query</w>":1112,"cu":1113,"token</w>":1114,"ost</w>":1115,"Label</w>":1116,"Do":1117,"into</w>":1118,"ker</w>":1119,"Be":1120,"Grap":1121,"Ur":1122,"hash</w>":1123,"sto":1124,"ffe":1125,"Run":1126,"fy</w>":1127,"image</w>":1128,"Iterator</w>":1129,"sin":1130,"arch</w>":1131,"writer</w>":1132,"wer</w>":1133,"dge</w>":1134,"Id":1135,"read":1136,"Child</w>":1137,"mand</w>":1138,"other</w>":1139,"Reader</w>":1140,"late</w>":1141,"tmp</w>":1142,"IT":1143,"rix</w>":1144,"Fil":1145,"Thread</w>":1146,"resp":1147,"adi":1148,"AN":1149,"ave</w>":1150,"ite</w>":1151,"base</w>":1152,"imp":1153,"tems</w>":1154,"super</w>":1155,"back</w>":1156,"gment</w>":1157,"adds</w>":1158,"lay</w>":1159,"tributes</w>":1160,"ative</w>":1161,"inter</w>":1162,"Option</w>":1163,"illi":1164,"block</w>":1165,"Resource</w>":1166,"ge":1167,"UN":1168,"son</w>":1169,"roun":1170,"Exp":1171,"right</w>":1172,"draw</w>":1173,"Header</w>":1174,"End</w>":1175,"ML</w>":1176,"lace</w>":1177,"exi":1178,"Column</w>":1179,"dis":1180,"Names</w>":1181,"Per":1182,"Tag</w>":1183,"content</w>":1184,"Resp":1185,"ting</w>":1186,"instance</w>":1187,"Cache</w>":1188,"Wor":1189,"ip":1190,"Properties</w>":1191,"delete</w>":1192,"ape</w>":1193,"PE</w>":1194,"Panel</w>":1195,"tton</w>":1196,"obj</w>":1197,"ING</w>":1198,"ith":1199,"Case</w>":1200,"msg</w>":1201,"ference</w>":1202,"unction</w>":1203,"form":1204,"Response</w>":1205,"Mode</w>":1206,"guration</w>":1207,"column</w>":1208,"Layout</w>":1209,"angle</w>":1210,"rays</w>":1211,"ap</w>":1212,"older</w>":1213,"exten":1214,"Arrays</w>":1215,"AS":1216,"difi":1217,"can":1218,"execu":1219,"entity</w>":1220,"Source</w>":1221,"Collection</w>":1222,"Oper":1223,"Au":1224,"Sec":1225,"abs</w>":1226,"tr</w>":1227,"lin":1228,"mar":1229,"Connection</w>":1230,"Tree</w>":1231,"Sup":1232,"enco":1233,"bin":1234,"process</w>":1235,"valid</w>":1236,"ken":1237,"ypes</w>":1238,"ail":1239,"ved</w>":1240,"orted</w>":1241,"ocket</w>":1242,"Max</w>":1243,"sible</w>":1244,"sw":1245,"illis</w>":1246,"tual</w>":1247,"server</w>":1248,"group</w>":1249,"col</w>":1250,"ning</w>":1251,"ED</w>":1252,"gle</w>":1253,"Address</w>":1254,"requ":1255,"ild":1256,"CON":1257,"contin":1258,"URL</w>":1259,"lab":1260,"root</w>":1261,"valid":1262,"ement</w>":1263,"ir</w>":1264,"ves</w>":1265,"By</w>":1266,"endar</w>":1267,"ffered</w>":1268,"Imp":1269,"Te":1270,"elds</w>":1271,"alo":1272,"TY":1273,"ay</w>":1274,"round</w>":1275,"ON":1276,"mis":1277,"rame</w>":1278,"enter</w>":1279,"continue</w>":1280,"src</w>":1281,"uri</w>":1282,"Handler</w>":1283,"sets</w>":1284,"iterator</w>":1285,"tag</w>":1286,"ont</w>":1287,"finally</w>":1288,"tries</w>":1289,"ial":1290,"sig":1291,"quence</w>":1292,"wable</w>":1293,"tic":1294,"Ne":1295,"roll</w>":1296,"vider</w>":1297,"UT":1298,"lit</w>":1299,"Flo":1300,"Spec</w>":1301,"Gr":1302,"itmap</w>":1303,"work</w>":1304,"Change</w>":1305,"resource</w>":1306,"sing</w>":1307,"tro":1308,"args</w>":1309,"assert</w>":1310,"Millis</w>":1311,"itch</w>":1312,"UL":1313,"dy</w>":1314,"java</w>":1315,"Doc":1316,"annel</w>":1317,"ture</w>":1318,"Dir</w>":1319,"User</w>":1320,"ttp</w>":1321,"TYPE</w>":1322,"itor</w>":1323,"alog</w>":1324,"Content</w>":1325,"--</w>":1326,"indo":1327,"stra":1328,"sign":1329,"top</w>":1330,"Desc":1331,"ig</w>":1332,"Dig":1333,"We":1334,"connection</w>":1335,"stat":1336,"Gener":1337,"space</w>":1338,"XML</w>":1339,"sche":1340,"tx</w>":1341,"tom</w>":1342,"Vol":1343,"main</w>":1344,"fill</w>":1345,"ss</w>":1346,"nor":1347,"Rect</w>":1348,"gg":1349,"sub</w>":1350,"dic":1351,"enc":1352,"ject</w>":1353,"rea</w>":1354,"idx</w>":1355,"af":1356,"response</w>":1357,"supp":1358,"attribute</w>":1359,"LOG</w>":1360,"izer</w>":1361,"pack":1362,"amp</w>":1363,"Row</w>":1364,"sum</w>":1365,"use</w>":1366,"<<</w>":1367,"replace</w>":1368,"Ab":1369,"Read</w>":1370,"steners</w>":1371,"Character</w>":1372,"Buffered</w>":1373,"EX":1374,"cul":1375,"model</w>":1376,"builder</w>":1377,"dule</w>":1378,"inal</w>":1379,"ES":1380,"prefix</w>":1381,"igh":1382,"Ru":1383,"TAG</w>":1384,"Server</w>":1385,"man":1386,"Bin":1387,"Trace</w>":1388,"db</w>":1389,"Version</w>":1390,"ttom</w>":1391,"ren</w>":1392,"version</w>":1393,"As":1394,"Boolean</w>":1395,"assword</w>":1396,"Str</w>":1397,"ameters</w>":1398,"umer":1399,"Chec":1400,"Or":1401,"Len</w>":1402,"tiv":1403,"TION</w>":1404,"lity</w>":1405,"ned</w>":1406,"property</w>":1407,"starts</w>":1408,"init</w>":1409,"using</w>":1410,"cl":1411,"Left</w>":1412,"total</w>":1413,"DI":1414,"struc":1415,"Regi":1416,"Location</w>":1417,"local</w>":1418,"compu":1419,"VAL":1420,"sions</w>":1421,"Component</w>":1422,"mt</w>":1423,"reader</w>":1424,"Range</w>":1425,"cor":1426,"Ke":1427,"used</w>":1428,"Num</w>":1429,"Rep":1430,"ateg":1431,"ample</w>":1432,"Debug</w>":1433,"ane</w>":1434,"elper</w>":1435,"ign":1436,"Bounds</w>":1437,"prin":1438,"NAM":1439,"Document</w>":1440,"random</w>":1441,"xml</w>":1442,"fl":1443,"war":1444,"store</w>":1445,"desc":1446,"DE</w>":1447,"Parameter</w>":1448,"KE":1449,"Sche":1450,"ression</w>":1451,"client</w>":1452,"scale</w>":1453,"params</w>":1454,"Base</w>":1455,"acity</w>":1456,"lback</w>":1457,"ATI":1458,"header</w>":1459,"label</w>":1460,"Runtime</w>":1461,"rect</w>":1462,"Out</w>":1463,"switch</w>":1464,"LI":1465,"elements</w>":1466,"ildren</w>":1467,"ill</w>":1468,"layer</w>":1469,"nam":1470,"Graphi":1471,"bjects</w>":1472,"xis</w>":1473,"cep":1474,"Button</w>":1475,"ast</w>":1476,"ttings</w>":1477,"Statement</w>":1478,"Pri":1479,"Pack":1480,"Default</w>":1481,"config</w>":1482,"grap":1483,"ere</w>":1484,"Paint</w>":1485,"Time":1486,"tific":1487,"Mar":1488,"ous</w>":1489,"no</w>":1490,"Matrix</w>":1491,"split</w>":1492,"service</w>":1493,"time":1494,"whe":1495,"indow</w>":1496,"io":1497,"Task</w>":1498,"ENT</w>":1499,"Current</w>":1500,"let</w>":1501,"ected</w>":1502,"zz</w>":1503,"MI":1504,"rer</w>":1505,"Directory</w>":1506,"op</w>":1507,"Collec":1508,"ln</w>":1509,"Store</w>":1510,"reg":1511,"my</w>":1512,"convert</w>":1513,"Lock</w>":1514,"Port</w>":1515,"re</w>":1516,"cur</w>":1517,"TR":1518,"apacity</w>":1519,"Dis":1520,"calcul":1521,"UE</w>":1522,"Calendar</w>":1523,"Dat":1524,"SIZ":1525,"location</w>":1526,"ailable</w>":1527,"Cer":1528,"yle</w>":1529,"ed":1530,"Grid</w>":1531,"host</w>":1532,"secon":1533,"ute</w>":1534,"off</w>":1535,"Ro":1536,"temp":1537,"Men":1538,"sting</w>":1539,"sti":1540,"del":1541,"items</w>":1542,"tree</w>":1543,"initial":1544,"Dra":1545,"DO":1546,"generate</w>":1547,"move</w>":1548,"task</w>":1549,"Float</w>":1550,"CH":1551,"VER":1552,"ord":1553,"sql</w>":1554,"whether</w>":1555,"fini":1556,"No</w>":1557,"On</w>":1558,"compare</w>":1559,"ults</w>":1560,"anged</w>":1561,"Storage</w>":1562,"oper":1563,"fac":1564,"MAX</w>":1565,"can</w>":1566,"files</w>":1567,"els</w>":1568,"jo":1569,"handle</w>":1570,"Menu</w>":1571,"AL</w>":1572,"vol":1573,"doc":1574,"Found</w>":1575,"pi":1576,"Impl</w>":1577,"lem</w>":1578,"Files</w>":1579,"checks</w>":1580,"lot</w>":1581,"Ign":1582,"imum</w>":1583,"send</w>":1584,"stamp</w>":1585,"Filter</w>":1586,"Mem":1587,"so":1588,"Configuration</w>":1589,"orig":1590,"entation</w>":1591,"Edge</w>":1592,"ription</w>":1593,"points</w>":1594,"range</w>":1595,"abase</w>":1596,"Selection</w>":1597,"Pattern</w>":1598,"low</w>":1599,"Parser</w>":1600,"NAME</w>":1601,"filter</w>":1602,"Pr":1603,"run</w>":1604,"licy</w>":1605,"splay</w>":1606,"notation</w>":1607,"ages</w>":1608,"thread</w>":1609,"delta</w>":1610,"rapper</w>":1611,"NO":1612,"status</w>":1613,"ename</w>":1614,"lect</w>":1615,"ess</w>":1616,"back":1617,"Vari":1618,"ending</w>":1619,"Supp":1620,"directory</w>":1621,"Collections</w>":1622,"Unit</w>":1623,"cher</w>":1624,"paint</w>":1625,"SA":1626,"Types</w>":1627,"ci":1628,"sho":1629,"build</w>":1630,"SIZE</w>":1631,"Val</w>":1632,"cache</w>":1633,"ources</w>":1634,"sol":1635,"tional</w>":1636,"SQ":1637,"First</w>":1638,"pos":1639,"match</w>":1640,"Min</w>":1641,"riptor</w>":1642,"face</w>":1643,"tangle</w>":1644,"will</w>":1645,"oot</w>":1646,"parator</w>":1647,"Is</w>":1648,"validate</w>":1649,"ends</w>":1650,"Selected</w>":1651,"sk":1652,"Volume</w>":1653,"unk</w>":1654,"pattern</w>":1655,"ant</w>":1656,"fs</w>":1657,"dig":1658,"Last</w>":1659,"esp":1660,"stack</w>":1661,"exception</w>":1662,"Session</w>":1663,"Area</w>":1664,"queue</w>":1665,"FA":1666,"Http</w>":1667,"wo</w>":1668,"any</w>":1669,"rup":1670,"dest</w>":1671,"ance</w>":1672,"address</w>":1673,"color</w>":1674,"MO":1675,"ep</w>":1676,"espace</w>":1677,"system</w>":1678,"ans</w>":1679,"properties</w>":1680,"ok":1681,"Bean</w>":1682,"search</w>":1683,"tivity</w>":1684,"nodes</w>":1685,"show</w>":1686,"execute</w>":1687,"mul":1688,"main":1689,"dle</w>":1690,"ATE</w>":1691,"removes</w>":1692,"prev</w>":1693,"bas":1694,"attr</w>":1695,"ords</w>":1696,"cla":1697,"Ali":1698,"Or</w>":1699,"Enco":1700,"PO":1701,"Socket</w>":1702,"mem":1703,"storage</w>":1704,"derer</w>":1705,"when</w>":1706,"exists</w>":1707,"tim":1708,"extr":1709,"register</w>":1710,"adding</w>":1711,"expected</w>":1712,"conne":1713,"Update</w>":1714,"FIN":1715,"sort</w>":1716,"Pane</w>":1717,"session</w>":1718,"PRO":1719,"Url</w>":1720,"Sequence</w>":1721,"selected</w>":1722,"xy</w>":1723,"Bitmap</w>":1724,"ES</w>":1725,"Modifi":1726,"gress</w>":1727,"ush</w>":1728,"entifi":1729,"keys</w>":1730,"print":1731,"dep":1732,"mal":1733,"Radi":1734,"ut":1735,"which</w>":1736,"Attributes</w>":1737,"Page</w>":1738,"imal</w>":1739,"function</w>":1740,"con</w>":1741,"Constra":1742,"tificate</w>":1743,"the":1744,"SQL</w>":1745,"twork</w>":1746,"Queue</w>":1747,"GE</w>":1748,"Pool</w>":1749,"ges</w>":1750,"Short</w>":1751,"cer":1752,"BU":1753,"Graphics</w>":1754,"VALUE</w>":1755,"hs</w>":1756,"New</w>":1757,"cei":1758,"Scroll</w>":1759,"tification</w>":1760,"doc</w>":1761,"Cre":1762,"Box</w>":1763,"insert</w>":1764,"Params</w>":1765,"tad":1766,"sted</w>":1767,"Match</w>":1768,"ounter</w>":1769,"Rectangle</w>":1770,"mon":1771,"ach</w>":1772,"serial":1773,"command</w>":1774,"Options</w>":1775,"compute</w>":1776,"Nodes</w>":1777,"OR</w>":1778,"64</w>":1779,"dx</w>":1780,"reads</w>":1781,"Elements</w>":1782,"empty</w>":1783,"tify</w>":1784,"decode</w>":1785,"ek</w>":1786,"pe":1787,"character</w>":1788,"Sub":1789,"uld</w>":1790,"EC":1791,"provi":1792,"Scale</w>":1793,"gor":1794,"short</w>":1795,"-=</w>":1796,"AD":1797,"tadata</w>":1798,"ell</w>":1799,"gorith":1800,"Provider</w>":1801,"TH</w>":1802,"Fe":1803,"fields</w>":1804,"curr</w>":1805,"SH":1806,"rel":1807,"clas":1808,"Loader</w>":1809,"LOG":1810,"Keys</w>":1811,"ordin":1812,"ULT</w>":1813,"lat":1814,"open</w>":1815,"Font</w>":1816,"test</w>":1817,"Ap":1818,"md</w>":1819,"Access</w>":1820,"lication</w>":1821,"Target</w>":1822,"ram</w>":1823,"make</w>":1824,"Ob":1825,"ATION</w>":1826,"options</w>":1827,"component</w>":1828,"ript</w>":1829,"run":1830,"fla":1831,"ling</w>":1832,"JS":1833,"ility</w>":1834,"Ren":1835,"actual</w>":1836,"Nam":1837,"ss":1838,"ouse</w>":1839,"ust</w>":1840,"Dep":1841,"Big</w>":1842,"available</w>":1843,"On":1844,"pha</w>":1845,"repres":1846,"println</w>":1847,"Idx</w>":1848,"cursor</w>":1849,"two</w>":1850,"gorithm</w>":1851,"matcher</w>":1852,"Frame</w>":1853,"Right</w>":1854,"uni":1855,"our</w>":1856,"document</w>":1857,"JSON</w>":1858,"Thro":1859,"encode</w>":1860,"Ref</w>":1861,"umns</w>":1862,"vious</w>":1863,"Pi":1864,"attributes</w>":1865,"dr</w>":1866,"condi":1867,"Border</w>":1868,"fore</w>":1869,"extends</w>":1870,"Search</w>":1871,"Mapp":1872,"Non</w>":1873,"FAULT</w>":1874,"Helper</w>":1875,"sum":1876,"aset</w>":1877,"Clo":1878,"volume</w>":1879,"Token":1880,"save</w>":1881,"flow</w>":1882,"Att":1883,"reset</w>":1884,"Reference</w>":1885,"GER</w>":1886,"Contain":1887,"ryp":1888,"raw</w>":1889,"Local</w>":1890,"siness</w>":1891,"Syn":1892,"Equ":1893,"SS":1894,"Parent</w>":1895,"Param</w>":1896,"Ignore</w>":1897,"essages</w>":1898,"Operation</w>":1899,"ategory</w>":1900,"found</w>":1901,"invo":1902,"Ran":1903,"AD</w>":1904,"sure</w>":1905,"Points</w>":1906,"encoded</w>":1907,"As</w>":1908,"level</w>":1909,"low":1910,"gr":1911,"Command</w>":1912,"gl</w>":1913,"vari":1914,"wn":1915,"bottom</w>":1916,"Prefix</w>":1917,"ROR</w>":1918,"Wrapper</w>":1919,"wait</w>":1920,"Rule</w>":1921,"Str":1922,"Jo":1923,"ly":1924,"Pair</w>":1925,"Linked</w>":1926,"over":1927,"DEFAULT</w>":1928,"sc</w>":1929,"rt</w>":1930,"MP":1931,"names</w>":1932,"Space</w>":1933,"Parse</w>":1934,"menu</w>":1935,"War":1936,"lan":1937,"page</w>":1938,"deter":1939,"finition</w>":1940,"VE</w>":1941,"ERROR</w>":1942,"Axis</w>":1943,"inclu":1944,"json</w>":1945,"ld</w>":1946,"upd":1947,"dir</w>":1948,"Dim":1949,"Sign":1950,"flush</w>":1951,"chars</w>":1952,"ain</w>":1953,"collection</w>":1954,"Temp":1955,"Root</w>":1956,"distance</w>":1957,"original</w>":1958,"df</w>":1959,"mon</w>":1960,"param</w>":1961,"Host</w>":1962,"pas":1963,"ie</w>":1964,"Schema</w>":1965,"asure</w>":1966,"Channel</w>":1967,"token":1968,"ired</w>":1969,"Order</w>":1970,"ndle</w>":1971,"AM</w>":1972,"trol</w>":1973,"Listeners</w>":1974,"Ba":1975,"ire</w>":1976,"der":1977,"shi":1978,"entifier</w>":1979,"entries</w>":1980,"Uri</w>":1981,"Record</w>":1982,"Dimen":1983,"Ter":1984,"et":1985,"Top</w>":1986,"cal</w>":1987,"Policy</w>":1988,"Fla":1989,"ind</w>":1990,"rupted</w>":1991,"Initi":1992,"cle</w>":1993,"parameter</w>":1994,"PI</w>":1995,"notify</w>":1996,"Visible</w>":1997,"pher</w>":1998,"Can":1999,"Ra":2000,"wri":2001,"center</w>":2002,"ial</w>":2003,"lim":2004,"LA":2005,"max":2006,"Process</w>":2007,"Icon</w>":2008,"Pu":2009,"ffix</w>":2010,"ME":2011,"ear</w>":2012,"App":2013,"Rel":2014,"urity</w>":2015,"local":2016,"children</w>":2017,"py</w>":2018,"work":2019,"CE</w>":2020,"Dialog</w>":2021,"dit</w>":2022,"lace":2023,"Bits</w>":2024,"ables</w>":2025,"maining</w>":2026,"Json</w>":2027,"new":2028,"Ed":2029,"TO":2030,"ared</w>":2031,"lex</w>":2032,"Descriptor</w>":2033,"bb</w>":2034,"vents</w>":2035,"Changed</w>":2036,"itu":2037,"Meta</w>":2038,"Execu":2039,"stmt</w>":2040,"mer":2041,"orts</w>":2042,"creen</w>":2043,"apter</w>":2044,"Random</w>":2045,"Xml</w>":2046,"Back":2047,"password</w>":2048,"Tab</w>":2049,"TER</w>":2050,"sh</w>":2051,"QU":2052,"matches</w>":2053,"Ids</w>":2054,"Mon":2055,"parameters</w>":2056,"umeration</w>":2057,"calculate</w>":2058,"Valid</w>":2059,"down</w>":2060,"Function</w>":2061,"mission</w>":2062,"LOGGER</w>":2063,"Buf</w>":2064,"container</w>":2065,"Clas":2066,"handler</w>":2067,"tition</w>":2068,"visi":2069,"Variable</w>":2070,"trace</w>":2071,"stin":2072,"stop</w>":2073,"Mask</w>":2074,"ward</w>":2075,"Get</w>":2076,"modifi":2077,"Settings</w>":2078,"tab</w>":2079,"skip</w>":2080,"Container</w>":2081,"SION</w>":2082,"should</w>":2083,"PRE":2084,"cy</w>":2085,"Check</w>":2086,"PAR":2087,"RA":2088,"Valid":2089,"Conne":2090,"Throwable</w>":2091,"ile</w>":2092,"resol":2093,"previous</w>":2094,"aders</w>":2095,"itude</w>":2096,"arg</w>":2097,"proces":2098,"Del":2099,"frame</w>":2100,"mbo":2101,"record</w>":2102,"Add</w>":2103,"KEY</w>":2104,"solute</w>":2105,"roup":2106,"writes</w>":2107,"SO":2108,"Tra":2109,"rop</w>":2110,"Var</w>":2111,"Logger</w>":2112,"channel</w>":2113,"..":2114,"signed</w>":2115,"...</w>":2116,"Signature</w>":2117,"TY</w>":2118,"tit":2119,"Certificate</w>":2120,"Segment</w>":2121,"Annotation</w>":2122,"aracters</w>":2123,"IG":2124,"ali":2125,"so</w>":2126,"change</w>":2127,"nap":2128,"Exten":2129,"Sub</w>":2130,"ground</w>":2131,"sqrt</w>":2132,"Deta":2133,"clazz</w>":2134,"box</w>":2135,"Graph</w>":2136,"Capacity</w>":2137,"bounds</w>":2138,"project</w>":2139,"radi":2140,"part</w>":2141,"Hex</w>":2142,"state":2143,"ached</w>":2144,"Zone</w>":2145,"ctx</w>":2146,"filename</w>":2147,"Java</w>":2148,"out":2149,"ash":2150,"Style</w>":2151,"ause</w>":2152,"ators</w>":2153,"graph</w>":2154,"Hi":2155,"Interrupted</w>":2156,"ID":2157,"Items</w>":2158,"lip</w>":2159,"construc":2160,"not":2161,"Msg</w>":2162,"ization</w>":2163,"anges</w>":2164,"xes</w>":2165,"Remo":2166,"Instan":2167,"bits</w>":2168,"mode</w>":2169,"Pointer</w>":2170,"normal":2171,"Fields</w>":2172,"based</w>":2173,"loc</w>":2174,"Window</w>":2175,"selection</w>":2176,"bit</w>":2177,"xed</w>":2178,"ref</w>":2179,"Template</w>":2180,"rule</w>":2181,"formation</w>":2182,"Objects</w>":2183,"br":2184,"BO":2185,"Ge":2186,"PER":2187,"limit</w>":2188,"req</w>":2189,"rection</w>":2190,"crement</w>":2191,"ITY</w>":2192,"Simp":2193,"Internal</w>":2194,"mbol</w>":2195,"Cont":2196,"BLE</w>":2197,"lines</w>":2198,"Definition</w>":2199,"arch":2200,"lities</w>":2201,"format":2202,"Write</w>":2203,"Bar</w>":2204,"tex</w>":2205,"call</w>":2206,"sic</w>":2207,"matrix</w>":2208,"Dimension</w>":2209,"pool</w>":2210,"provided</w>":2211,"Op</w>":2212,"ST</w>":2213,"rap</w>":2214,"Copy</w>":2215,"vas</w>":2216,"nings</w>":2217,"uments</w>":2218,"Sen":2219,"with":2220,"cp</w>":2221,"second</w>":2222,"rest</w>":2223,"verse</w>":2224,"ality</w>":2225,"active</w>":2226,"struction</w>":2227,"cope</w>":2228,"trol":2229,"mx</w>":2230,"socket</w>":2231,"vector</w>":2232,"now</w>":2233,"shape</w>":2234,"rows</w>":2235,"icon</w>":2236,"LOC":2237,"factory</w>":2238,"internal</w>":2239,"Pl":2240,"SP":2241,"ressed</w>":2242,"after</w>":2243,"Part</w>":2244,"tip":2245,"hex</w>":2246,"Clu":2247,"ils</w>":2248,"HE":2249,"Simple</w>":2250,"AR</w>":2251,"FF":2252,"OF</w>":2253,"IN</w>":2254,"ve":2255,"Cell</w>":2256,"recei":2257,"ating</w>":2258,"title</w>":2259,"uture</w>":2260,"dia</w>":2261,"Digit</w>":2262,"gets</w>":2263,"Ste":2264,"diff</w>":2265,"tocol</w>":2266,"font</w>":2267,"Anim":2268,"Test</w>":2269,"gu":2270,"Logg":2271,"step</w>":2272,"dec":2273,"Invalid</w>":2274,"Decimal</w>":2275,"Uni":2276,"Mul":2277,"edge</w>":2278,"schema</w>":2279,"ency</w>":2280,"Timeout</w>":2281,"SC":2282,"arset</w>":2283,"Password</w>":2284,"converts</w>":2285,"cel</w>":2286,"dices</w>":2287,"produ":2288,"configuration</w>":2289,"initial</w>":2290,"Suppress</w>":2291,"Constraints</w>":2292,"curren":2293,"Parameters</w>":2294,"side</w>":2295,"mapp":2296,"Af":2297,"Work":2298,"dst</w>":2299,"listeners</w>":2300,"sin</w>":2301,"Args</w>":2302,"onents</w>":2303,"ids</w>":2304,"we</w>":2305,"Warnings</w>":2306,"Enum</w>":2307,"database</w>":2308,"ti</w>":2309,"props</w>":2310,"Des":2311,"ragment</w>":2312,"mask</w>":2313,"accep":2314,"Min":2315,"stract</w>":2316,"Shape</w>":2317,"parser</w>":2318,"struct</w>":2319,"ho":2320,"lon</w>":2321,"que</w>":2322,"single</w>":2323,"warn</w>":2324,"timeout</w>":2325,"Profile</w>":2326,"Intent</w>":2327,"app</w>":2328,"izes</w>":2329,"gram</w>":2330,"ading</w>":2331,"cos</w>":2332,"separator</w>":2333,"Center</w>":2334,"Folder</w>":2335,"mary</w>":2336,"Whi":2337,"ba":2338,"ify</w>":2339,"nable</w>":2340,"Lower</w>":2341,"alm</w>":2342,"fine</w>":2343,"Tit":2344,"Callback</w>":2345,"ready</w>":2346,"Progress</w>":2347,"Expression</w>":2348,"only</w>":2349,"select</w>":2350,"ick</w>":2351,"twe":2352,"layout</w>":2353,"Bit</w>":2354,"SE</w>":2355,"TE</w>":2356,"cell</w>":2357,"Words</w>":2358,"Timestamp</w>":2359,"uti":2360,"Distance</w>":2361,"Print</w>":2362,"Renderer</w>":2363,"roups</w>":2364,"supported</w>":2365,"initialize</w>":2366,"pow</w>":2367,"section</w>":2368,"Word</w>":2369,"locks</w>":2370,"series</w>":2371,"existing</w>":2372,"fer":2373,"have</w>":2374,"encoding</w>":2375,"characters</w>":2376,"objects</w>":2377,"module</w>":2378,"trics</w>":2379,"remaining</w>":2380,"alpha</w>":2381,"asks</w>":2382,"locale</w>":2383,"exp</w>":2384,"bers</w>":2385,"Display</w>":2386,"Na</w>":2387,"VI":2388,"pul":2389,"valu":2390,"cess":2391,"oci":2392,"transform</w>":2393,"reference</w>":2394,"Fa":2395,"ctions</w>":2396,"lease</w>":2397,"rtual</w>":2398,"stination</w>":2399,"lable</w>":2400,"lector</w>":2401,"clone</w>":2402,"constructs</w>":2403,"types</w>":2404,"Project</w>":2405,"contents</w>":2406,"MS</w>":2407,"tly</w>":2408,"tors</w>":2409,"nown</w>":2410,"CL":2411,"window</w>":2412,"GL</w>":2413,"Ori":2414,"var</w>":2415,"ads</w>":2416,"Chars</w>":2417,"Locale</w>":2418,"dataset</w>":2419,"deco":2420,"shot</w>":2421,"SU":2422,"arg":2423,"fer</w>":2424,"chor</w>":2425,"Network</w>":2426,"TER":2427,"sen":2428,"Binding</w>":2429,"Sw":2430,"Packet</w>":2431,"Angle</w>":2432,"Algorithm</w>":2433,"If</w>":2434,"aths</w>":2435,"results</w>":2436,"unit</w>":2437,"sync</w>":2438,"day</w>":2439,"mu":2440,"Activity</w>":2441,"mark</w>":2442,"More</w>":2443,"sequence</w>":2444,"50":2445,"sample</w>":2446,"ures</w>":2447,"ouch</w>":2448,"EST</w>":2449,"native</w>":2450,"rol":2451,"leted</w>":2452,"operation</w>":2453,"tween</w>":2454,"elem</w>":2455,"each</w>":2456,"trim</w>":2457,"head</w>":2458,"DA":2459,"NE":2460,"US</w>":2461,"tter</w>":2462,"segment</w>":2463,"before</w>":2464,"namespace</w>":2465,"job</w>":2466,"ins</w>":2467,"buff</w>":2468,"full</w>":2469,"elf</w>":2470,"SAX</w>":2471,"bitmap</w>":2472,"panel</w>":2473,"viron":2474,"Transaction</w>":2475,"TH":2476,"TO</w>":2477,"igh</w>":2478,"counter</w>":2479,"called</w>":2480,"limiter</w>":2481,"mb":2482,"Absolute</w>":2483,"Obj</w>":2484,"Title</w>":2485,"chunk</w>":2486,"settings</w>":2487,"statement</w>":2488,"okie</w>":2489,"suc":2490,"apply</w>":2491,"Interval</w>":2492,"Radius</w>":2493,"BUG</w>":2494,"napshot</w>":2495,"Cursor</w>":2496,"Abstract</w>":2497,"wnload</w>":2498,"Job</w>":2499,"Day</w>":2500,"gre":2501,"lat</w>":2502,"fire</w>":2503,"ternal</w>":2504,"Bottom</w>":2505,"display</w>":2506,"pup</w>":2507,"Encoding</w>":2508,"added</w>":2509,"LIN":2510,"ews</w>":2511,"DEBUG</w>":2512,"PA":2513,"vlet</w>":2514,"thods</w>":2515,"sn</w>":2516,"site</w>":2517,"Bundle</w>":2518,"Exi":2519,"tical</w>":2520,"Package</w>":2521,"UI</w>":2522,"Measure</w>":2523,"quo":2524,"expression</w>":2525,"auth":2526,"conditions</w>":2527,"conn</w>":2528,"resh":2529,"Resol":2530,"non</w>":2531,"cessor</w>":2532,"Factor</w>":2533,"log":2534,"sitions</w>":2535,"vironment</w>":2536,"uid</w>":2537,"button</w>":2538,"Ph":2539,"aged</w>":2540,"king</w>":2541,"story</w>":2542,"cen":2543,"Score</w>":2544,"extension</w>":2545,"Description</w>":2546,"CI":2547,"device</w>":2548,"arr</w>":2549,"construct</w>":2550,"Children</w>":2551,"sign</w>":2552,"style</w>":2553,"sib":2554,"Matcher</w>":2555,"dimen":2556,"post</w>":2557,"posit":2558,"Entries</w>":2559,"lugin</w>":2560,"scroll</w>":2561,"ferences</w>":2562,"graphi":2563,"capacity</w>":2564,"oom</w>":2565,"Metadata</w>":2566,"DAT":2567,"tra":2568,"Device</w>":2569,"cluster</w>":2570,"afe</w>":2571,"Sin":2572,"Database</w>":2573,"Cluster</w>":2574,"Loo":2575,"TS</w>":2576,"key":2577,"inst</w>":2578,"begin</w>":2579,"trs</w>":2580,"troller</w>":2581,"ero</w>":2582,"ority</w>":2583,"idget</w>":2584,"package</w>":2585,"Category</w>":2586,"im</w>":2587,"sp</w>":2588,"|=</w>":2589,"lied</w>":2590,"provider</w>":2591,"Attr</w>":2592,"stri":2593,"coordin":2594,"suffix</w>":2595,"bs</w>":2596,"tex":2597,"ENG":2598,"Mapping</w>":2599,"br</w>":2600,"same</w>":2601,"lower</w>":2602,"umes</w>":2603,"atio</w>":2604,"Enumeration</w>":2605,"vals</w>":2606,"DB</w>":2607,"passed</w>":2608,"Link</w>":2609,"DS</w>":2610,"best</w>":2611,"desc</w>":2612,"UR</w>":2613,"inner</w>":2614,"ACTION</w>":2615,"Mis":2616,"signature</w>":2617,"FOR":2618,"Chunk</w>":2619,"Compar":2620,"realm</w>":2621,"Security</w>":2622,"Requ":2623,"DB":2624,"Stro":2625,"dent</w>":2626,"ches</w>":2627,"warning</w>":2628,"pository</w>":2629,"Open</w>":2630,"bar</w>":2631,"err</w>":2632,"Proxy</w>":2633,"Generator</w>":2634,"Step</w>":2635,"Messages</w>":2636,"ime</w>":2637,"template</w>":2638,"Sig":2639,"aded</w>":2640,"Per</w>":2641,"aly":2642,"Padding</w>":2643,"been</w>":2644,"visit</w>":2645,"wner</w>":2646,"ation":2647,"Painter</w>":2648,"Predic":2649,"Namespace</w>":2650,"Columns</w>":2651,"Notification</w>":2652,"Stroke</w>":2653,"Cu":2654,"ect</w>":2655,"io</w>":2656,"pare</w>":2657,"Instances</w>":2658,"tribution</w>":2659,"stom</w>":2660,"Temp</w>":2661,"Invo":2662,"constra":2663,"cket</w>":2664,"iled</w>":2665,"flags</w>":2666,"representation</w>":2667,"Such</w>":2668,"Secon":2669,"Adapter</w>":2670,"Layer</w>":2671,"Upper</w>":2672,"wi":2673,"Lines</w>":2674,"Region</w>":2675,"was</w>":2676,"Active</w>":2677,"export</w>":2678,"ten</w>":2679,"Resources</w>":2680,"Down</w>":2681,"pts</w>":2682,"uple</w>":2683,"MIN</w>":2684,"description</w>":2685,"Create</w>":2686,"Span</w>":2687,"where</w>":2688,"Doc</w>":2689,"Auth</w>":2690,"GRO":2691,"Nor":2692,"updates</w>":2693,"IT</w>":2694,"nee":2695,"Equals</w>":2696,"sav":2697,"user":2698,"alloc":2699,"dialog</w>":2700,"INT</w>":2701,"Stats</w>":2702,"lacement</w>":2703,"SER":2704,"ensure</w>":2705,"push</w>":2706,"Mouse</w>":2707,"lemen":2708,"ump</w>":2709,"vm</w>":2710,"TEX":2711,"ref":2712,"AP":2713,"Delete</w>":2714,"Separator</w>":2715,"Classes</w>":2716,"om</w>":2717,"pe</w>":2718,"dist</w>":2719,"Native</w>":2720,"Control</w>":2721,"Ci":2722,"zone</w>":2723,"Rows</w>":2724,"Wa":2725,"timestamp</w>":2726,"CH</w>":2727,"atures</w>":2728,"sha":2729,"packet</w>":2730,"editor</w>":2731,"invoke</w>":2732,"Holder</w>":2733,"tic</w>":2734,"FILE</w>":2735,"Format":2736,"ights</w>":2737,"509</w>":2738,"PAT":2739,"sive</w>":2740,"fos</w>":2741,"Digest</w>":2742,"Raw</w>":2743,"ular</w>":2744,"tting</w>":2745,"Domain</w>":2746,"formed</w>":2747,"ME</w>":2748,"http</w>":2749,"lob":2750,"loader</w>":2751,"Memory</w>":2752,"angu":2753,"Script</w>":2754,"connect</w>":2755,"seconds</w>":2756,"lowed</w>":2757,"oriz":2758,"business</w>":2759,"Pix":2760,"org</w>":2761,"resent</w>":2762,"domain</w>":2763,"Tokenizer</w>":2764,"ferred</w>":2765,"LD</w>":2766,"lp</w>":2767,"RD":2768,"axis</w>":2769,"helper</w>":2770,"Limit</w>":2771,"prepare</w>":2772,"canvas</w>":2773,"digest</w>":2774,"known</w>":2775,"parts</w>":2776,"Diff</w>":2777,"ONE</w>":2778,"strings</w>":2779,"maximum</w>":2780,"thing</w>":2781,"alifi":2782,"cel":2783,"very</w>":2784,"bean</w>":2785,"Member</w>":2786,"Bound</w>":2787,"Extension</w>":2788,"ced</w>":2789,"Rate</w>":2790,"dio</w>":2791,"multip":2792,"Off</w>":2793,"Delta</w>":2794,"plot</w>":2795,"zip</w>":2796,"less</w>":2797,"anim":2798,"reque":2799,"bc</w>":2800,"Serial":2801,"eri":2802,"adj":2803,"Export</w>":2804,"associ":2805,"dim</w>":2806,"Produ":2807,"notification</w>":2808,"comment</w>":2809,"App</w>":2810,"iod</w>":2811,"spec</w>":2812,"merge</w>":2813,"increment</w>":2814,"ories</w>":2815,"remote</w>":2816,"between</w>":2817,"DOM</w>":2818,"translate</w>":2819,"radius</w>":2820,"Fin":2821,"resh</w>":2822,"Support</w>":2823,"orizon":2824,"Db</w>":2825,"bo</w>":2826,"self</w>":2827,"rors</w>":2828,"ori":2829,"tokens</w>":2830,"prob":2831,"tml</w>":2832,"if":2833,"forward</w>":2834,"determin":2835,"^=</w>":2836,"require</w>":2837,"Editor</w>":2838,"cancel</w>":2839,"integer</w>":2840,"shed</w>":2841,"SET</w>":2842,"ability</w>":2843,"Transform</w>":2844,"Identifier</w>":2845,"extract</w>":2846,"After</w>":2847,"Av":2848,"FS</w>":2849,"FIX</w>":2850,"screen</w>":2851,"ircle</w>":2852,"parses</w>":2853,"Remote</w>":2854,"reshold</w>":2855,"pt</w>":2856,"access</w>":2857,"Rest</w>":2858,"Module</w>":2859,"OP":2860,"ong":2861,"metadata</w>":2862,"tionary</w>":2863,"Out":2864,"Tri":2865,"padding</w>":2866,"Conver":2867,"utdown</w>":2868,"tain</w>":2869,"Eng":2870,"CR":2871,"Car":2872,"NO</w>":2873,"UT</w>":2874,"Remove</w>":2875,"popul":2876,"tax</w>":2877,"Servlet</w>":2878,"drawable</w>":2879,"join</w>":2880,"ENGTH</w>":2881,"deo</w>":2882,"HT</w>":2883,"Sample</w>":2884,"look":2885,"disp":2886,"Future</w>":2887,"Ho":2888,"option</w>":2889,"ases</w>":2890,"Batch</w>":2891,"lier</w>":2892,"Extr":2893,"span</w>":2894,"Total</w>":2895,"Binary</w>":2896,"verify</w>":2897,"calendar</w>":2898,"ATOR</w>":2899,"Marker</w>":2900,"Auth":2901,"orizontal</w>":2902,"den":2903,"player</w>":2904,"rot":2905,"Sol":2906,"Permission</w>":2907,"destination</w>":2908,"simp":2909,"words</w>":2910,"respon":2911,"member</w>":2912,"One</w>":2913,"Instruction</w>":2914,"tric</w>":2915,"Quo":2916,"Cl":2917,"UTF</w>":2918,"VERSION</w>":2919,"LENGTH</w>":2920,"renderer</w>":2921,"Operator</w>":2922,"MODE</w>":2923,"mine</w>":2924,"tespace</w>":2925,"wap</w>":2926,"Details</w>":2927,"Loggable</w>":2928,"lobal</w>":2929,"resources</w>":2930,"LED</w>":2931,"script</w>":2932,"Touch</w>":2933,"divi":2934,"Cipher</w>":2935,"Use</w>":2936,"loads</w>":2937,"Business</w>":2938,"region</w>":2939,"10</w>":2940,"prop</w>":2941,"Condi":2942,"Interface</w>":2943,"States</w>":2944,"stro":2945,"Feature</w>":2946,"Basic</w>":2947,"Counter</w>":2948,"cent</w>":2949,"STATE</w>":2950,"IP</w>":2951,"MENT</w>":2952,"pc</w>":2953,"score</w>":2954,"UND</w>":2955,"stics</w>":2956,"Only</w>":2957,"Relation</w>":2958,"folder</w>":2959,"lation</w>":2960,"DATA</w>":2961,"Nul":2962,"coun":2963,"changed</w>":2964,"removed</w>":2965,"Media</w>":2966,"Tokens</w>":2967,"ae</w>":2968,"interval</w>":2969,"mapping</w>":2970,"Optional</w>":2971,"notations</w>":2972,"turn</w>":2973,"report</w>":2974,"leep</w>":2975,"Col</w>":2976,"callback</w>":2977,"Background</w>":2978,"gments</w>":2979,"kes</w>":2980,"changes</w>":2981,"compar":2982,"Da":2983,"Duration</w>":2984,"Scope</w>":2985,"Player</w>":2986,"columns</w>":2987,"ops</w>":2988,"scan</w>":2989,"Preconditions</w>":2990,"Body</w>":2991,"intent</w>":2992,"amount</w>":2993,"fined</w>":2994,"forms</w>":2995,"does</w>":2996,"Move</w>":2997,"former</w>":2998,"BY":2999,"Load</w>":3000,"ocus</w>":3001,"network</w>":3002,"Zip</w>":3003,"argument</w>":3004,"CONT":3005,"sisten":3006,"Partition</w>":3007,"required</w>":3008,"cert</w>":3009,"determine</w>":3010,"anguage</w>":3011,"bl":3012,"da":3013,"zy</w>":3014,"sters</w>":3015,"equal</w>":3016,"tch</w>":3017,"ook</w>":3018,"cause</w>":3019,"ACE</w>":3020,"binary</w>":3021,"gging</w>":3022,"TED</w>":3023,"mi":3024,"vices</w>":3025,"ACK":3026,"link</w>":3027,"Engine</w>":3028,"MIN":3029,"NS</w>":3030,"sumer</w>":3031,"bin</w>":3032,"HT":3033,"ca</w>":3034,"pending</w>":3035,"there</w>":3036,"addr</w>":3037,"jection</w>":3038,"progress</w>":3039,"mid</w>":3040,"proxy</w>":3041,"upper</w>":3042,"dary</w>":3043,"tab":3044,"CODE</w>":3045,"Compo":3046,"bind</w>":3047,"FO":3048,"wrap</w>":3049,"indic":3050,"feature</w>":3051,"Comment</w>":3052,"Weight</w>":3053,"events</w>":3054,"information</w>":3055,"actions</w>":3056,"Results</w>":3057,"Spec":3058,"UTE</w>":3059,"Cap":3060,"cip":3061,"ok</w>":3062,"pl":3063,"ing":3064,"att":3065,"generates</w>":3066,"area</w>":3067,"delimiter</w>":3068,"FT</w>":3069,"Generic</w>":3070,"cmd</w>":3071,"candi":3072,"already</w>":3073,"mail</w>":3074,"OM</w>":3075,"ice</w>":3076,"un</w>":3077,"inser":3078,"ully</w>":3079,"Indices</w>":3080,"img</w>":3081,"Digits</w>":3082,"Lat</w>":3083,"TRI":3084,"evalu":3085,"comp</w>":3086,"digit</w>":3087,"Nullable</w>":3088,"miti":3089,"sx</w>":3090,"ution</w>":3091,"ely</w>":3092,"appro":3093,"SSO</w>":3094,"TP</w>":3095,"Env</w>":3096,"missions</w>":3097,"supplied</w>":3098,"*=</w>":3099,"EL</w>":3100,"SK</w>":3101,"ORT</w>":3102,"ca":3103,"ering</w>":3104,"marker</w>":3105,"cr":3106,"ep":3107,"annotation</w>":3108,"cipher</w>":3109,"serialize</w>":3110,"EMP":3111,"messages</w>":3112,"pstmt</w>":3113,"release</w>":3114,"auth</w>":3115,"encryp":3116,"shift</w>":3117,"resolve</w>":3118,"Up</w>":3119,"Coun":3120,"Core</w>":3121,"Sort</w>":3122,"classes</w>":3123,"Month</w>":3124,"api</w>":3125,"Coordin":3126,"track</w>":3127,"Labels</w>":3128,"pay":3129,"Common</w>":3130,"UID</w>":3131,"ders</w>":3132,"fol":3133,"weight</w>":3134,"Call</w>":3135,"cls</w>":3136,"tail</w>":3137,"Series</w>":3138,"Rou":3139,"unlock</w>":3140,"meta</w>":3141,"ADER</w>":3142,"then</w>":3143,"pointer</w>":3144,"END</w>":3145,"gr</w>":3146,"Vertex</w>":3147,"ical</w>":3148,"Desc</w>":3149,"Lat":3150,"XY</w>":3151,"nan":3152,"ece</w>":3153,"lang</w>":3154,"cl</w>":3155,"ULL</w>":3156,"relation</w>":3157,"include</w>":3158,"card</w>":3159,"safe</w>":3160,"Virtual</w>":3161,"Cert</w>":3162,"TEXT</w>":3163,"pic</w>":3164,"sm":3165,"anner</w>":3166,"mac</w>":3167,"umeric</w>":3168,"UM</w>":3169,"gh":3170,"tered</w>":3171,"identifier</w>":3172,"depend":3173,"Pe":3174,"uses</w>":3175,"Unsupported</w>":3176,"amples</w>":3177,"PROPER":3178,"Flags</w>":3179,"Events</w>":3180,"IGHT</w>":3181,"determines</w>":3182,"af</w>":3183,"ets</w>":3184,"another</w>":3185,"over</w>":3186,"duration</w>":3187,"ffi":3188,"mal</w>":3189,"tp</w>":3190,"til</w>":3191,"cols</w>":3192,"direc":3193,"seed</w>":3194,"ish</w>":3195,"minimum</w>":3196,"disk</w>":3197,"ignore</w>":3198,"jar</w>":3199,"Inet</w>":3200,"Assign":3201,"cipal</w>":3202,"HO":3203,"category</w>":3204,"clip</w>":3205,"vers</w>":3206,"board</w>":3207,"Close</w>":3208,"body</w>":3209,"sleep</w>":3210,"manager</w>":3211,"Mer":3212,"Si":3213,"Sur":3214,"pop</w>":3215,"mitive</w>":3216,"tup</w>":3217,"wing</w>":3218,"tices</w>":3219,"Constraint</w>":3220,"Gu":3221,"alf</w>":3222,"alias</w>":3223,"sig</w>":3224,"Sum</w>":3225,"fg</w>":3226,"go":3227,"Controller</w>":3228,"AST</w>":3229,"variable</w>":3230,"CLAS":3231,"32</w>":3232,"WN</w>":3233,"ert</w>":3234,"Insets</w>":3235,"umb</w>":3236,"General</w>":3237,"sa":3238,"stand":3239,"accept</w>":3240,"dele":3241,"Sync</w>":3242,"CEN":3243,"STAR":3244,"application</w>":3245,"Modified</w>":3246,"containing</w>":3247,"Handle</w>":3248,"Us":3249,"car":3250,"rd</w>":3251,"put":3252,"ak</w>":3253,"ven":3254,"sitive</w>":3255,"spa":3256,"Local":3257,"Motion</w>":3258,"need</w>":3259,"lob</w>":3260,"Metrics</w>":3261,"Symbol</w>":3262,"Am":3263,"LUM":3264,"bro":3265,"off":3266,"light</w>":3267,"Account</w>":3268,"latform</w>":3269,"arguments</w>":3270,"fu":3271,"high</w>":3272,"Headers</w>":3273,"check":3274,"calculates</w>":3275,"Api</w>":3276,"Executor</w>":3277,"Alias</w>":3278,"cb</w>":3279,"cap":3280,"partition</w>":3281,"term</w>":3282,"pose</w>":3283,"locity</w>":3284,"Ds</w>":3285,"NOT</w>":3286,"depth</w>":3287,"done</w>":3288,"fr":3289,"env</w>":3290,"loaded</w>":3291,"Protocol</w>":3292,"stered</w>":3293,"DN</w>":3294,"Im":3295,"UP</w>":3296,"lar":3297,"Utilities</w>":3298,"Deco":3299,"flag</w>":3300,"PREFIX</w>":3301,"ome":3302,"let":3303,"exclu":3304,"om":3305,"but</w>":3306,"way</w>":3307,"AN</w>":3308,"SS</w>":3309,"groups</w>":3310,"sm</w>":3311,"Flag</w>":3312,"Plot</w>":3313,"hash":3314,"inde":3315,"lash</w>":3316,"Cor":3317,"allow</w>":3318,"control</w>":3319,"implemen":3320,"ASE</w>":3321,"sibility</w>":3322,"Free</w>":3323,"ade</w>":3324,"Public</w>":3325,"Fragment</w>":3326,"policy</w>":3327,"commit</w>":3328,"escape</w>":3329,"running</w>":3330,"lock":3331,"shutdown</w>":3332,"more</w>":3333,"anchor</w>":3334,"eline</w>":3335,"under":3336,"starting</w>":3337,"stored</w>":3338,"norm</w>":3339,"algorithm</w>":3340,"extra</w>":3341,"Animation</w>":3342,"all":3343,"den</w>":3344,"dered</w>":3345,"within</w>":3346,"activity</w>":3347,"External</w>":3348,"ason</w>":3349,"methods</w>":3350,"symbol</w>":3351,"Workflow</w>":3352,"cc</w>":3353,"gh</w>":3354,"ycle</w>":3355,"lev":3356,"atistics</w>":3357,"some</w>":3358,"Full</w>":3359,"ynam":3360,"STRING</w>":3361,"vot</w>":3362,"specific</w>":3363,"LINE</w>":3364,"associated</w>":3365,"real</w>":3366,"comm":3367,"SECON":3368,"Screen</w>":3369,"mean</w>":3370,"force</w>":3371,"SSL</w>":3372,"Clic":3373,"visible</w>":3374,"pix":3375,"Term</w>":3376,"Depend":3377,"Timer</w>":3378,"Assert</w>":3379,"boun":3380,"Strings</w>":3381,"Missing</w>":3382,"RI":3383,"ii</w>":3384,"si</w>":3385,"Components</w>":3386,"Show</w>":3387,"descriptor</w>":3388,"iv</w>":3389,"ilities</w>":3390,"INFIN":3391,"Tex":3392,"sorted</w>":3393,"coords</w>":3394,"Views</w>":3395,"Fr":3396,"Sn":3397,"faces</w>":3398,"TIVE</w>":3399,"Managed</w>":3400,"irror</w>":3401,"Before</w>":3402,"Bag</w>":3403,"mouse</w>":3404,"trig":3405,"ours</w>":3406,"Direction</w>":3407,"Margin</w>":3408,"Hel":3409,"LL</w>":3410,"Repository</w>":3411,"verage</w>":3412,"FINE</w>":3413,"Paths</w>":3414,"Charset</w>":3415,"COMP":3416,"Form</w>":3417,"Stru":3418,"ped</w>":3419,"indent</w>":3420,"Unsigned</w>":3421,"expand</w>":3422,"stats</w>":3423,"shake</w>":3424,"game</w>":3425,"net</w>":3426,"without</w>":3427,"bon</w>":3428,"utes</w>":3429,"anti":3430,"charset</w>":3431,"MASK</w>":3432,"Run</w>":3433,"Be</w>":3434,"mime</w>":3435,"inst":3436,"OP</w>":3437,"mod</w>":3438,"pair</w>":3439,"updated</w>":3440,"Cla":3441,"grid</w>":3442,"cat":3443,"da</w>":3444,"dap</w>":3445,"year</w>":3446,"ret":3447,"tom":3448,"Alpha</w>":3449,"Runnable</w>":3450,"decimal</w>":3451,"cessary</w>":3452,"Available</w>":3453,"Mu":3454,"dis</w>":3455,"pla":3456,"Insn</w>":3457,"ool":3458,"TIME</w>":3459,"lying</w>":3460,"Lon</w>":3461,"tl</w>":3462,"normalize</w>":3463,"HEADER</w>":3464,"Recei":3465,"Prin":3466,"peek</w>":3467,"INFINITY</w>":3468,"Final</w>":3469,"num":3470,"ATTRI":3471,"standard</w>":3472,"memory</w>":3473,"unique</w>":3474,"AB":3475,"GB</w>":3476,"pw</w>":3477,"att</w>":3478,"analy":3479,"perform</w>":3480,"Supported</w>":3481,"avi":3482,"Arg</w>":3483,"lyg":3484,"success</w>":3485,"CENTER</w>":3486,"ATTRIB":3487,"blocks</w>":3488,"ournal</w>":3489,"Spe":3490,"pped</w>":3491,"Dataset</w>":3492,"Application</w>":3493,"recur":3494,"defined</w>":3495,"cookie</w>":3496,"Return</w>":3497,"scri":3498,"attrs</w>":3499,"puts</w>":3500,"adow</w>":3501,"regex</w>":3502,"LOCK</w>":3503,"sired</w>":3504,"engine</w>":3505,"complete</w>":3506,"them</w>":3507,"rotate</w>":3508,"Tuple</w>":3509,"ater</w>":3510,"Graphic</w>":3511,"stitu":3512,"Depth</w>":3513,"Usage</w>":3514,"yc":3515,"components</w>":3516,"EMPTY</w>":3517,"Ratio</w>":3518,"attemp":3519,"parti":3520,"ongitude</w>":3521,"Net</w>":3522,"abilities</w>":3523,"WAR":3524,"ort":3525,"Star":3526,"protocol</w>":3527,"Register</w>":3528,"ioe</w>":3529,"Draw</w>":3530,"Radians</w>":3531,"peer</w>":3532,"Geo</w>":3533,"CE":3534,"SAM":3535,"WOR":3536,"dates</w>":3537,"kup</w>":3538,"Build</w>":3539,"created</w>":3540,"Matches</w>":3541,"structions</w>":3542,"ECT</w>":3543,"quote</w>":3544,"Composite</w>":3545,"tmp":3546,"ooser</w>":3547,"Pla</w>":3548,"Plugin</w>":3549,"amer":3550,"coe":3551,"Resolver</w>":3552,"Formatter</w>":3553,"Pending</w>":3554,"Tick</w>":3555,"asu":3556,"codes</w>":3557,"pared</w>":3558,"History</w>":3559,"stry</w>":3560,"insets</w>":3561,"desired</w>":3562,"bucket</w>":3563,"Chart</w>":3564,"gic</w>":3565,"tence</w>":3566,"scal":3567,"than</w>":3568,"gin":3569,"Program</w>":3570,"fail</w>":3571,"irs</w>":3572,"normalized</w>":3573,"brary</w>":3574,"IZ":3575,"Save</w>":3576,"Tool</w>":3577,"compile</w>":3578,"arrays</w>":3579,"Encoded</w>":3580,"simple</w>":3581,"Condition</w>":3582,"reg</w>":3583,"iting</w>":3584,"Prote":3585,"trie":3586,"Lazy</w>":3587,"background</w>":3588,"orig</w>":3589,"termin":3590,"unc":3591,"identity</w>":3592,"Shared</w>":3593,"Filename</w>":3594,"dimension</w>":3595,"lookup</w>":3596,"clean</w>":3597,"gb</w>":3598,"STAT":3599,"dot</w>":3600,"floor</w>":3601,"Exists</w>":3602,"Product</w>":3603,"DER</w>":3604,"MP</w>":3605,"deleg":3606,"sion":3607,"Brea":3608,"av</w>":3609,"Static</w>":3610,"Processor</w>":3611,"Sets</w>":3612,"BUFF":3613,"Kind</w>":3614,"amb":3615,"apse</w>":3616,"Popup</w>":3617,"sertion</w>":3618,"Pay":3619,"Tags</w>":3620,"initiator</w>":3621,"Transformer</w>":3622,"START</w>":3623,"dlet</w>":3624,"free</w>":3625,"fragment</w>":3626,"ql</w>":3627,"seq</w>":3628,"download</w>":3629,"scheme</w>":3630,"VER</w>":3631,"bound</w>":3632,"dump</w>":3633,"rp</w>":3634,"ths</w>":3635,"Arr</w>":3636,"Comple":3637,"sistency</w>":3638,"VM</w>":3639,"environment</w>":3640,"SAGE</w>":3641,"OK</w>":3642,"ceil</w>":3643,"Auto</w>":3644,"possible</w>":3645,"Amount</w>":3646,"Hash":3647,"ision</w>":3648,"lo</w>":3649,"oth":3650,"pi</w>":3651,"dec</w>":3652,"resses</w>":3653,"direction</w>":3654,"Dic":3655,"sn":3656,"Transfer</w>":3657,"dp</w>":3658,"gate</w>":3659,"medi":3660,"Private</w>":3661,"Detail</w>":3662,"BACK":3663,"Liter":3664,"acing</w>":3665,"Coord</w>":3666,"headers</w>":3667,"Suc":3668,"Web</w>":3669,"Raster</w>":3670,"Tile</w>":3671,"gn</w>":3672,"amera</w>":3673,"CT</w>":3674,"PH":3675,"dc</w>":3676,"rb</w>":3677,"rec</w>":3678,"allocate</w>":3679,"Ctx</w>":3680,"UUID</w>":3681,"ving</w>":3682,"oudlet</w>":3683,"ign</w>":3684,"Ag":3685,"sity</w>":3686,"def</w>":3687,"pivot</w>":3688,"Pixel</w>":3689,"Elem</w>":3690,"MES":3691,"owner</w>":3692,"Section</w>":3693,"labels</w>":3694,"origin</w>":3695,"NODE</w>":3696,"certificate</w>":3697,"retval</w>":3698,"OFF":3699,"PP":3700,"cached</w>":3701,"swap</w>":3702,"ditional</w>":3703,"Invocation</w>":3704,"tre":3705,"reser":3706,"aped</w>":3707,"Multi</w>":3708,"ifest</w>":3709,"reverse</w>":3710,"Ref":3711,"Reg</w>":3712,"Report</w>":3713,"Codes</w>":3714,"Async</w>":3715,"cnt</w>":3716,"ctor</w>":3717,"apsed</w>":3718,"see</w>":3719,"tags</w>":3720,"sole</w>":3721,"Extra</w>":3722,"Dictionary</w>":3723,"DING</w>":3724,"pp</w>":3725,"snapshot</w>":3726,"adapter</w>":3727,"mutable</w>":3728,"BYTE</w>":3729,"EM</w>":3730,"NG</w>":3731,"half</w>":3732,"Inde":3733,"DAY</w>":3734,"candidate</w>":3735,"AT</w>":3736,"Focus</w>":3737,"bundle</w>":3738,"keep</w>":3739,"Iter</w>":3740,"Jar</w>":3741,"cs":3742,"atcher</w>":3743,"nored</w>":3744,"paces</w>":3745,"Records</w>":3746,"Single</w>":3747,"BUFFER</w>":3748,"fis</w>":3749,"accor":3750,"cores</w>":3751,"finish</w>":3752,"igr":3753,"SEPAR":3754,"Identity</w>":3755,"missing</w>":3756,"pk":3757,"debu":3758,"POSI":3759,"month</w>":3760,"PROPERTY</w>":3761,"GE":3762,"Snapshot</w>":3763,"bg</w>":3764,"acts</w>":3765,"Dist</w>":3766,"COM":3767,"condition</w>":3768,"decoded</w>":3769,"ICO":3770,"cat</w>":3771,"ged</w>":3772,"ive</w>":3773,"ernel</w>":3774,"Reg":3775,"buil":3776,"constan":3777,"spath</w>":3778,"riteri":3779,"ometry</w>":3780,"enabled</w>":3781,"Disp":3782,"entication</w>":3783,"Track":3784,"Wh":3785,"cke":3786,"descri":3787,"CT":3788,"COLUM":3789,"schedule</w>":3790,"graphics</w>":3791,"ynamic</w>":3792,"Boun":3793,"Fail":3794,"Shi":3795,"html</w>":3796,"separ":3797,"INDE":3798,"tributed</w>":3799,"records</w>":3800,"opt</w>":3801,"correspon":3802,"lback":3803,"med</w>":3804,"wrapper</w>":3805,"contact</w>":3806,"tokenizer</w>":3807,"coordinates</w>":3808,"Fast</w>":3809,"SMS</w>":3810,"transaction</w>":3811,"SEPARATOR</w>":3812,"Pull</w>":3813,"sw</w>":3814,"loop</w>":3815,"Solr</w>":3816,"Literal</w>":3817,"FO</w>":3818,"ev":3819,"umul":3820,"profile</w>":3821,"until</w>":3822,"SEVER":3823,"RAY</w>":3824,"product</w>":3825,"IV</w>":3826,"add":3827,"measure</w>":3828,"Groups</w>":3829,"fe</w>":3830,"tf</w>":3831,"ranch</w>":3832,"dual</w>":3833,"CLASS</w>":3834,"Circle</w>":3835,"cast</w>":3836,"trans</w>":3837,"Edit</w>":3838,"Ve":3839,"cro":3840,"yption</w>":3841,"eros</w>":3842,"stre":3843,"file":3844,"diffe":3845,"URE</w>":3846,"ipe</w>":3847,"Volumes</w>":3848,"Modifier</w>":3849,"Contents</w>":3850,"putstream</w>":3851,"CES":3852,"sty":3853,"siz":3854,"Def</w>":3855,"Track</w>":3856,"stic</w>":3857,"initializes</w>":3858,"mbol":3859,"Predictor</w>":3860,"Fun":3861,"pers</w>":3862,"Selector</w>":3863,"Constant</w>":3864,"Whitespace</w>":3865,"Ex</w>":3866,"pa</w>":3867,"Login</w>":3868,"RESO":3869,"CONFI":3870,"lbacks</w>":3871,"Old</w>":3872,"Typ":3873,"sli":3874,"sent</w>":3875,"ools</w>":3876,"cally</w>":3877,"izable</w>":3878,"pre</w>":3879,"draws</w>":3880,"Widget</w>":3881,"high":3882,"sis</w>":3883,"agno":3884,"executor</w>":3885,"saved</w>":3886,"dul":3887,"holder</w>":3888,"Suffix</w>":3889,"Commit</w>":3890,"Download</w>":3891,"Game</w>":3892,"LY</w>":3893,"batch</w>":3894,"global</w>":3895,"zero</w>":3896,"exit</w>":3897,"spli":3898,"Positions</w>":3899,"Seq</w>":3900,"ATT":3901,"Ignite</w>":3902,"ATTRIBUTE</w>":3903,"Squ":3904,"scope</w>":3905,"necessary</w>":3906,"COLO":3907,"data":3908,"cept</w>":3909,"MESSAGE</w>":3910,"train</w>":3911,"Acces":3912,"True</w>":3913,"computes</w>":3914,"pass</w>":3915,"ICON</w>":3916,"widget</w>":3917,"poll</w>":3918,"INFO</w>":3919,"Comparator</w>":3920,"GROUND</w>":3921,"mbols</w>":3922,"by":3923,"retrie":3924,"enumeration</w>":3925,"stration</w>":3926,"Split</w>":3927,"SED</w>":3928,"corner</w>":3929,"relative</w>":3930,"currently</w>":3931,"Gra":3932,"factor</w>":3933,"grees</w>":3934,"11</w>":3935,"Esc":3936,"Zoom</w>":3937,"ix</w>":3938,"Props</w>":3939,"Threshold</w>":3940,"security</w>":3941,"Operand</w>":3942,"binding</w>":3943,"LIC":3944,"wise</w>":3945,"username</w>":3946,"alified</w>":3947,"00</w>":3948,"NULL</w>":3949,"gative</w>":3950,"redu":3951,"ITE</w>":3952,"Card</w>":3953,"dl</w>":3954,"anded</w>":3955,"REN":3956,"custom</w>":3957,"CTION</w>":3958,"coming</w>":3959,"ense</w>":3960,"alt</w>":3961,"metrics</w>":3962,"Expr</w>":3963,"ship</w>":3964,"Carbon</w>":3965,"NOR":3966,"Fo":3967,"IM":3968,"SY":3969,"Used</w>":3970,"hi</w>":3971,"tile</w>":3972,"proj</w>":3973,"paths</w>":3974,"indices</w>":3975,"nels</w>":3976,"popup</w>":3977,"permission</w>":3978,"ATCH</w>":3979,"compressed</w>":3980,"LEFT</w>":3981,"sing":3982,"ighb":3983,"Drawable</w>":3984,"according</w>":3985,"EN</w>":3986,"Pdf</w>":3987,"adv":3988,"interface</w>":3989,"utility</w>":3990,"Failure</w>":3991,"Cnt</w>":3992,"plex</w>":3993,"sr</w>":3994,"xx</w>":3995,"invalid</w>":3996,"delay</w>":3997,"amma":3998,"open":3999,"Audio</w>":4000,"their</w>":4001,"represen":4002,"leton</w>":4003,"lygon</w>":4004,"Mirror</w>":4005,"fo":4006,"Anchor</w>":4007,"FIE":4008,"Week</w>":4009,"PATH</w>":4010,"Cookie</w>":4011,"distribution</w>":4012,"Role</w>":4013,"ammar</w>":4014,"GR":4015,"edit</w>":4016,"ry</w>":4017,"roid</w>":4018,"selector</w>":4019,"appends</w>":4020,"times</w>":4021,"SHA":4022,"Piece</w>":4023,"constraints</w>":4024,"payload</w>":4025,"implementation</w>":4026,"Click</w>":4027,"describ":4028,"gc</w>":4029,"ness</w>":4030,"Environment</w>":4031,"MAT</w>":4032,"dispose</w>":4033,"named</w>":4034,"RE</w>":4035,"wt</w>":4036,"restore</w>":4037,"End":4038,"closes</w>":4039,"tick</w>":4040,"class":4041,"Sensor</w>":4042,"INDEX</w>":4043,"Oc":4044,"pack</w>":4045,"inte":4046,"combin":4047,"Addr</w>":4048,"Custom</w>":4049,"SEVERE</w>":4050,"Blocks</w>":4051,"DATE</w>":4052,"Src</w>":4053,"User":4054,"Vo":4055,"stent</w>":4056,"outer</w>":4057,"DT":4058,"ll":4059,"vertex</w>":4060,"Actions</w>":4061,"VALID</w>":4062,"underlying</w>":4063,"Off":4064,"jor</w>":4065,"predic":4066,"ffici":4067,"IL":4068,"SV":4069,"cumul":4070,"mit":4071,"Cost</w>":4072,"closed</w>":4073,"auto</w>":4074,"handles</w>":4075,"Initiator</w>":4076,"US":4077,"Vec</w>":4078,"present</w>":4079,"river</w>":4080,"shared</w>":4081,"rules</w>":4082,"Contact</w>":4083,"Orientation</w>":4084,"deletes</w>":4085,"Cause</w>":4086,"Gen</w>":4087,"Zero</w>":4088,"cer</w>":4089,"instructions</w>":4090,"sifi":4091,"bose</w>":4092,"TABLE</w>":4093,"Initial":4094,"oring</w>":4095,"Exp</w>":4096,"expr</w>":4097,"registered</w>":4098,"Worker</w>":4099,"KEY":4100,"modified</w>":4101,"needed</w>":4102,"Mutable</w>":4103,"gra":4104,"Stop</w>":4105,"ares</w>":4106,"enable</w>":4107,"Video</w>":4108,"intersec":4109,"formatted</w>":4110,"util</w>":4111,"constant</w>":4112,"border</w>":4113,"ng</w>":4114,"reco":4115,"errors</w>":4116,"lip":4117,"persi":4118,"calc</w>":4119,"Period</w>":4120,"Flow</w>":4121,"Termin":4122,"baos</w>":4123,"STATUS</w>":4124,"dify</w>":4125,"Writable</w>":4126,"instances</w>":4127,"needs</w>":4128,"rty</w>":4129,"ui</w>":4130,"Proces":4131,"Share</w>":4132,"packed</w>":4133,"Check":4134,"Which</w>":4135,"sv":4136,"finds</w>":4137,"ily</w>":4138,"subject</w>":4139,"prints</w>":4140,"Alert</w>":4141,"Key":4142,"monitor</w>":4143,"Closed</w>":4144,"FORMAT</w>":4145,"refresh</w>":4146,"Wait</w>":4147,"IC</w>":4148,"lers</w>":4149,"ring</w>":4150,"Stand":4151,"conf</w>":4152,"ipment</w>":4153,"NING</w>":4154,"ptr</w>":4155,"ooter</w>":4156,"parsed</w>":4157,"world</w>":4158,"Preferences</w>":4159,"fetch</w>":4160,"Distribution</w>":4161,"Named</w>":4162,"ones</w>":4163,"char":4164,"iddle</w>":4165,"indows</w>":4166,"history</w>":4167,"Failed</w>":4168,"Ca":4169,"OUT</w>":4170,"faults</w>":4171,"TIC":4172,"Syntax</w>":4173,"High":4174,"arm</w>":4175,"tests</w>":4176,"ech</w>":4177,"corresponding</w>":4178,"Sorted</w>":4179,"ac</w>":4180,"ber":4181,"additional</w>":4182,"ched</w>":4183,"chart</w>":4184,"partic":4185,"mi</w>":4186,"Nee":4187,"Validation</w>":4188,"js</w>":4189,"plugin</w>":4190,"Fill</w>":4191,"digits</w>":4192,"connected</w>":4193,"du</w>":4194,"go</w>":4195,"tt</w>":4196,"xio":4197,"Select</w>":4198,"Secret</w>":4199,"ategy</w>":4200,"requested</w>":4201,"trigger</w>":4202,"UP":4203,"tasks</w>":4204,"verifi":4205,"Rules</w>":4206,"evt</w>":4207,"Present</w>":4208,"bit":4209,"nd</w>":4210,"tcp</w>":4211,"erarch":4212,"ous":4213,"direct</w>":4214,"ttons</w>":4215,"replacement</w>":4216,"import</w>":4217,"Decoder</w>":4218,"ambda</w>":4219,"sume</w>":4220,"TAL</w>":4221,"Checked</w>":4222,"timer</w>":4223,"Seconds</w>":4224,"BE":4225,"Der</w>":4226,"OB":4227,"mm</w>":4228,"ugh</w>":4229,"ants</w>":4230,"example</w>":4231,"COUN":4232,"marsh":4233,"Import</w>":4234,"adjust</w>":4235,"Rend":4236,"vplex</w>":4237,"Max":4238,"tok</w>":4239,"Prepared</w>":4240,"Scanner</w>":4241,"ategories</w>":4242,"problem</w>":4243,"comparator</w>":4244,"place</w>":4245,"account</w>":4246,"idden</w>":4247,"Main</w>":4248,"INTER":4249,"Annotations</w>":4250,"compo":4251,"LOW</w>":4252,"wrap":4253,"STAN":4254,"aps</w>":4255,"vie":4256,"virtual</w>":4257,"metric</w>":4258,"Scrol":4259,"atterns</w>":4260,"CONN":4261,"Features</w>":4262,"Ms</w>":4263,"pad</w>":4264,"inverse</w>":4265,"Init</w>":4266,"views</w>":4267,"render</w>":4268,"ARRAY</w>":4269,"other":4270,"Sql</w>":4271,"gap</w>":4272,"role</w>":4273,"TION":4274,"Running</w>":4275,"encies</w>":4276,"Drag</w>":4277,"populate</w>":4278,"JECT</w>":4279,"Res</w>":4280,"mv</w>":4281,"iler</w>":4282,"performs</w>":4283,"LES</w>":4284,"matching</w>":4285,"Variables</w>":4286,"processing</w>":4287,"Counts</w>":4288,"Standard</w>":4289,"Rendering</w>":4290,"Cle":4291,"Sk":4292,"Sli":4293,"future</w>":4294,"invalidate</w>":4295,"endpoint</w>":4296,"edges</w>":4297,"Align</w>":4298,"ational</w>":4299,"SAML</w>":4300,"AUT":4301,"Mal":4302,"Nan":4303,"RIGHT</w>":4304,"config":4305,"CRE":4306,"Horizontal</w>":4307,"cv</w>":4308,"usted</w>":4309,"vity</w>":4310,"buffered</w>":4311,"period</w>":4312,"topic</w>":4313,"issu":4314,"Transition</w>":4315,"DBID</w>":4316,"Malformed</w>":4317,"FLA":4318,"Tip</w>":4319,"ied</w>":4320,"locator</w>":4321,"generator</w>":4322,"16</w>":4323,"dings</w>":4324,"eat</w>":4325,"ger":4326,"horizontal</w>":4327,"ceip":4328,"Inclu":4329,"sel</w>":4330,"written</w>":4331,"Deleg":4332,"calls</w>":4333,"Weights</w>":4334,"Done</w>":4335,"Owner</w>":4336,"PL":4337,"ima":4338,"rand</w>":4339,"sur":4340,"roo":4341,"orter</w>":4342,"Scan</w>":4343,"ALL</w>":4344,"EXP":4345,"mands</w>":4346,"Validate</w>":4347,"HOR":4348,"vision</w>":4349,"most</w>":4350,"search":4351,"primary</w>":4352,"media</w>":4353,"dules</w>":4354,"Align":4355,"Render</w>":4356,"FIELD</w>":4357,"fun":4358,"lc</w>":4359,"nx</w>":4360,"instruction</w>":4361,"Statistics</w>":4362,"unks</w>":4363,"REQU":4364,"Delay</w>":4365,"SW":4366,"squ":4367,"slot</w>":4368,"Consumer</w>":4369,"poch</w>":4370,"ignored</w>":4371,"external</w>":4372,"support</w>":4373,"receiver</w>":4374,"evaluate</w>":4375,"Shift</w>":4376,"RGB</w>":4377,"guments</w>":4378,"ither</w>":4379,"tract</w>":4380,"Arguments</w>":4381,"Methods</w>":4382,"operator</w>":4383,"Back</w>":4384,"vec</w>":4385,"anup</w>":4386,"recision</w>":4387,"LONG</w>":4388,"agg":4389,"ildcard</w>":4390,"ATIVE</w>":4391,"Disk</w>":4392,"Validator</w>":4393,"Alignment</w>":4394,"ck</w>":4395,"mk":4396,"nn</w>":4397,"ping</w>":4398,"ooth</w>":4399,"Allowed</w>":4400,"ssl</w>":4401,"incre":4402,"destro":4403,"fixed</w>":4404,"consi":4405,"Console</w>":4406,"segments</w>":4407,"Second</w>":4408,"RDF</w>":4409,"Coordinate</w>":4410,"ratio</w>":4411,"sd</w>":4412,"ITS</w>":4413,"multi</w>":4414,"variables</w>":4415,"formatter</w>":4416,"Lookup</w>":4417,"PATTER":4418,"CONFIG</w>":4419,"Endpoint</w>":4420,"Far</w>":4421,"zoom</w>":4422,"route</w>":4423,"amma</w>":4424,"uplic":4425,"bos</w>":4426,"ceptions</w>":4427,"stroke</w>":4428,"Platform</w>":4429,"ev</w>":4430,"jpa</w>":4431,"take</w>":4432,"INVALID</w>":4433,"Parti":4434,"Geometry</w>":4435,"logy</w>":4436,"Peer</w>":4437,"DF</w>":4438,"GS</w>":4439,"just</w>":4440,"yn":4441,"ased</w>":4442,"Compu":4443,"Canvas</w>":4444,"VICE</w>":4445,"Home</w>":4446,"erarchy</w>":4447,"BLOCK</w>":4448,"CC</w>":4449,"gen</w>":4450,"tage</w>":4451,"liter":4452,"ential</w>":4453,"ACT":4454,"registers</w>":4455,"cells</w>":4456,"byte":4457,"IS</w>":4458,"hel":4459,"txt</w>":4460,"track":4461,"Chooser</w>":4462,"volumes</w>":4463,"orientation</w>":4464,"antity</w>":4465,"block":4466,"workflow</w>":4467,"Language</w>":4468,"Ptr</w>":4469,"eff":4470,"sa</w>":4471,"once</w>":4472,"lex":4473,"reat</w>":4474,"contained</w>":4475,"Execution</w>":4476,"HORIZ":4477,"Has</w>":4478,"LLI":4479,"pred</w>":4480,"they</w>":4481,"ffers</w>":4482,"Post</w>":4483,"substitu":4484,"TIME":4485,"modifiable</w>":4486,"centage</w>":4487,"Reque":4488,"Bl":4489,"Tasks</w>":4490,"gri":4491,"sport</w>":4492,"URCE</w>":4493,"clears</w>":4494,"who":4495,"CIM</w>":4496,"COLUMN</w>":4497,"AP</w>":4498,"High</w>":4499,"language</w>":4500,"uron</w>":4501,"laun":4502,"colors</w>":4503,"audio</w>":4504,"Modifiers</w>":4505,"MON":4506,"ldap</w>":4507,"numeric</w>":4508,"ro</w>":4509,"covery</w>":4510,"dirs</w>":4511,"through</w>":4512,"permissions</w>":4513,"Letter</w>":4514,"minutes</w>":4515,"serializer</w>":4516,"Edges</w>":4517,"Animator</w>":4518,"EOF</w>":4519,"Year</w>":4520,"deli":4521,"consume</w>":4522,"Projection</w>":4523,"This</w>":4524,"entities</w>":4525,"stores</w>":4526,"TRAN":4527,"PATTERN</w>":4528,"FF</w>":4529,"Fully</w>":4530,"bi":4531,"either</w>":4532,"sy</w>":4533,"tn</w>":4534,"row":4535,"video</w>":4536,"Prop</w>":4537,"Visibility</w>":4538,"filters</w>":4539,"CONTENT</w>":4540,"HTML</w>":4541,"asured</w>":4542,"AS</w>":4543,"Send</w>":4544,"ail</w>":4545,"dn</w>":4546,"fd</w>":4547,"ners</w>":4548,"loy":4549,"priority</w>":4550,"ALI":4551,"secret</w>":4552,"ACK</w>":4553,"Primitive</w>":4554,"describing</w>":4555,"ub</w>":4556,"returned</w>":4557,"common</w>":4558,"agent</w>":4559,"phone</w>":4560,"adient</w>":4561,"Registration</w>":4562,"Switch</w>":4563,"SECONDS</w>":4564,"Helpers</w>":4565,"Hints</w>":4566,"Vals</w>":4567,"bl</w>":4568,"dt</w>":4569,"tories</w>":4570,"disc":4571,"tenant</w>":4572,"Backup</w>":4573,"strip</w>":4574,"Clock</w>":4575,"Gap</w>":4576,"PER</w>":4577,"STOR":4578,"validates</w>":4579,"reground</w>":4580,"Join</w>":4581,"Comparable</w>":4582,"Serializer</w>":4583,"nano</w>":4584,"Blan":4585,"Crop</w>":4586,"JA":4587,"drop</w>":4588,"gan":4589,"journal</w>":4590,"play":4591,"onical</w>":4592,"like</w>":4593,"quire</w>":4594,"apes</w>":4595,"Bucket</w>":4596,"vertices</w>":4597,"share</w>":4598,"achment</w>":4599,"inserts</w>":4600,"Texture</w>":4601,"BACKGROUND</w>":4602,"OFFSET</w>":4603,"otherwise</w>":4604,"25":4605,"ELE":4606,"sitor</w>":4607,"urls</w>":4608,"silon</w>":4609,"asyn":4610,"spe":4611,"members</w>":4612,"Side</w>":4613,"Bad</w>":4614,"ax</w>":4615,"gts</w>":4616,"jav":4617,"por":4618,"Fixed</w>":4619,"pol":4620,"backup</w>":4621,"runnable</w>":4622,"BIT</w>":4623,"amily</w>":4624,"Chain</w>":4625,"seek</w>":4626,"collect</w>":4627,"CHAN":4628,"theta</w>":4629,"working</w>":4630,"Uniform</w>":4631,"appropri":4632,"Hashtable</w>":4633,"advance</w>":4634,"PS</w>":4635,"fully</w>":4636,"mo</w>":4637,"pdf</w>":4638,"rename</w>":4639,"annotations</w>":4640,"itable</w>":4641,"obser":4642,"Opcodes</w>":4643,"indicates</w>":4644,"Clause</w>":4645,"Sizes</w>":4646,"com</w>":4647,"Colors</w>":4648,"fail":4649,"compares</w>":4650,"Units</w>":4651,"being</w>":4652,"CHAR</w>":4653,"velocity</w>":4654,"RDFS</w>":4655,"Localized</w>":4656,"20</w>":4657,"ZER":4658,"incoming</w>":4659,"deleted</w>":4660,"ood</w>":4661,"Consistency</w>":4662,"unmodifiable</w>":4663,"seen</w>":4664,"COL</w>":4665,"READ</w>":4666,"both</w>":4667,"cg</w>":4668,"itr</w>":4669,"Diagno":4670,"Multip":4671,"constraint</w>":4672,"Struc":4673,"Fal":4674,"kpoint</w>":4675,"sr":4676,"decl":4677,"elapsed</w>":4678,"rite</w>":4679,"Prob":4680,"Head</w>":4681,"intersection</w>":4682,"transfer</w>":4683,"Registry</w>":4684,"CHAR":4685,"lowing</w>":4686,"Sign</w>":4687,"tables</w>":4688,"indexes</w>":4689,"AGE</w>":4690,"With":4691,"ware</w>":4692,"allowed</w>":4693,"Inner</w>":4694,"makes</w>":4695,"dian</w>":4696,"rence</w>":4697,"obs</w>":4698,"Decl</w>":4699,"geo</w>":4700,"DIRE":4701,"Principal</w>":4702,"COLOR</w>":4703,"HORIZON":4704,"OT</w>":4705,"Site</w>":4706,"typ":4707,"may</w>":4708,"Times</w>":4709,"ttle</w>":4710,"Analy":4711,"Vertical</w>":4712,"Mark</w>":4713,"Specifi":4714,"singleton</w>":4715,"HORIZONTAL</w>":4716,"Pas":4717,"vec":4718,"stat</w>":4719,"ands</w>":4720,"annels</w>":4721,"Exit</w>":4722,"poly</w>":4723,"Chat</w>":4724,"Leg":4725,"instanti":4726,"encrypted</w>":4727,"BER</w>":4728,"bi</w>":4729,"em":4730,"fc</w>":4731,"sz</w>":4732,"inside</w>":4733,"about</w>":4734,"acket</w>":4735,"Preferred</w>":4736,"receive</w>":4737,"SUB":4738,"Over</w>":4739,"rm</w>":4740,"neighb":4741,"bucke":4742,"Complete</w>":4743,"Declar":4744,"Priority</w>":4745,"Functions</w>":4746,"Num":4747,"lyp":4748,"rotation</w>":4749,"Remaining</w>":4750,"avi</w>":4751,"Dot</w>":4752,"threshold</w>":4753,"allo":4754,"lope</w>":4755,"Information</w>":4756,"raster</w>":4757,"map":4758,"dos</w>":4759,"RED</w>":4760,"Translation</w>":4761,"days</w>":4762,"Surface</w>":4763,"ously</w>":4764,"COUNT</w>":4765,"ceipt</w>":4766,"Camera</w>":4767,"Sum":4768,"UMENT</w>":4769,"Lists</w>":4770,"ook":4771,"Utility</w>":4772,"Serial</w>":4773,"Assertion</w>":4774,"Monitor</w>":4775,"received</w>":4776,"Minimum</w>":4777,"Quote</w>":4778,"Merge</w>":4779,"install</w>":4780,"ycler</w>":4781,"ZERO</w>":4782,"Cryp":4783,"lambda</w>":4784,"ligh":4785,"cost</w>":4786,"sep</w>":4787,"Heap</w>":4788,"Swing</w>":4789,"LS</w>":4790,"must</w>":4791,"Inst":4792,"projection</w>":4793,"shard</w>":4794,"SIG":4795,"phi</w>":4796,"requests</w>":4797,"Play":4798,"vy</w>":4799,"consumer</w>":4800,"absolute</w>":4801,"copies</w>":4802,"isode</w>":4803,"DED</w>":4804,"escaped</w>":4805,"Bind</w>":4806,"aggreg":4807,"12</w>":4808,"CP</w>":4809,"Cat":4810,"fron":4811,"Stat</w>":4812,"consum":4813,"ffs</w>":4814,"oos</w>":4815,"Entities</w>":4816,"spaces</w>":4817,"SVG</w>":4818,"NONE</w>":4819,"PT</w>":4820,"Ports</w>":4821,"arest</w>":4822,"cd</w>":4823,"fact</w>":4824,"Buff</w>":4825,"Direc":4826,"subscri":4827,"Manag":4828,"Handshake</w>":4829,"multiple</w>":4830,"dividual</w>":4831,"Snmp</w>":4832,"Speed</w>":4833,"WARNING</w>":4834,"USER</w>":4835,"CUR":4836,"CLO":4837,"Drop</w>":4838,"Sm":4839,"ying</w>":4840,"atible</w>":4841,"Predicate</w>":4842,"Pixels</w>":4843,"FLAG</w>":4844,"Agg":4845,"arc</w>":4846,"optional</w>":4847,"Permissions</w>":4848,"principal</w>":4849,"utf</w>":4850,"ssa</w>":4851,"Removed</w>":4852,"Converter</w>":4853,"Route</w>":4854,"Vm</w>":4855,"dk</w>":4856,"ics</w>":4857,"sl</w>":4858,"vement</w>":4859,"rou":4860,"ching</w>":4861,"units</w>":4862,"seg</w>":4863,"Mac</w>":4864,"note</w>":4865,"Vie":4866,"LOAD</w>":4867,"close":4868,"Preference</w>":4869,"Subject</w>":4870,"requency</w>":4871,"signal</w>":4872,"connec":4873,"processor</w>":4874,"Required</w>":4875,"/=</w>":4876,"24</w>":4877,"MS":4878,"circle</w>":4879,"rgb</w>":4880,"assign":4881,"selec":4882,"sym</w>":4883,"entic":4884,"MAR":4885,"Repo</w>":4886,"Put</w>":4887,"Connect</w>":4888,"vered</w>":4889,"texts</w>":4890,"Agent</w>":4891,"EAR</w>":4892,"wal":4893,"finite</w>":4894,"Metric</w>":4895,"ENTI":4896,"Errors</w>":4897,"exist</w>":4898,"KEN</w>":4899,"delegate</w>":4900,"OBJECT</w>":4901,"TW":4902,"fm</w>":4903,"pat</w>":4904,"pic":4905,"ra</w>":4906,"ust":4907,"one":4908,"Stre":4909,"locations</w>":4910,"compress</w>":4911,"base":4912,"RAN":4913,"Zeros</w>":4914,"cmp</w>":4915,"db":4916,"email</w>":4917,"migr":4918,"std</w>":4919,"orary</w>":4920,"lies</w>":4921,"cest":4922,"vertical</w>":4923,"appropriate</w>":4924,"MX</w>":4925,"WID":4926,"big</w>":4927,"offer</w>":4928,"uuid</w>":4929,"xim":4930,"yy</w>":4931,"failed</w>":4932,"ENAB":4933,"Added</w>":4934,"agram</w>":4935,"correct</w>":4936,"visited</w>":4937,"pixel</w>":4938,"ATTR</w>":4939,"mitted</w>":4940,"ENABLED</w>":4941,"Mime</w>":4942,"VO":4943,"bed</w>":4944,"gbc</w>":4945,"ished</w>":4946,"ath":4947,"submit</w>":4948,"managed</w>":4949,"MILLI":4950,"Logging</w>":4951,"sentence</w>":4952,"SERVICE</w>":4953,"Guid</w>":4954,"Html</w>":4955,"WS</w>":4956,"definition</w>":4957,"aml</w>":4958,"chain</w>":4959,"Persi":4960,"Connected</w>":4961,"Assignment</w>":4962,"caten":4963,"CONNEC":4964,"FR":4965,"tuple</w>":4966,"repository</w>":4967,"dete":4968,"Unknown</w>":4969,"generated</w>":4970,"finished</w>":4971,"monic</w>":4972,"plus</w>":4973,"Aggreg":4974,"samples</w>":4975,"repaint</w>":4976,"fixes</w>":4977,"prob</w>":4978,"ORY</w>":4979,"Scheme</w>":4980,"Connec":4981,"notated</w>":4982,"POSITIVE</w>":4983,"Offsets</w>":4984,"Maximum</w>":4985,"ainst</w>":4986,"ise</w>":4987,"pane</w>":4988,"sq</w>":4989,"vely</w>":4990,"yj</w>":4991,"major</w>":4992,"Coords</w>":4993,"Combo</w>":4994,"Ops</w>":4995,"Begin</w>":4996,"override</w>":4997,"TOKEN</w>":4998,"counts</w>":4999,"Compute</w>":5000,"Fol":5001,"LL":5002,"gins</w>":5003,"samp":5004,"rogate</w>":5005,"Infos</w>":5006,"setting</w>":5007,"rents</w>":5008,"Tax</w>":5009,"DELE":5010,"Percent</w>":5011,"Reply</w>":5012,"NEG":5013,"01</w>":5014,"Tic":5015,"hours</w>":5016,"sbuf</w>":5017,"swer</w>":5018,"cho":5019,"laces</w>":5020,"Services</w>":5021,"Laun":5022,"minute</w>":5023,"impl</w>":5024,"rupt</w>":5025,"workspace</w>":5026,"graphic</w>":5027,"Dependency</w>":5028,"API</w>":5029,"TE":5030,"ires</w>":5031,"aller</w>":5032,"Reason</w>":5033,"positions</w>":5034,"Sep</w>":5035,"reply</w>":5036,"normal</w>":5037,"plain</w>":5038,"Refresh</w>":5039,"help</w>":5040,"await</w>":5041,"eu":5042,"soc":5043,"Changes</w>":5044,"Direct</w>":5045,"comple":5046,"optim":5047,"Translate</w>":5048,"Decode</w>":5049,"ful</w>":5050,"builds</w>":5051,"Nanos</w>":5052,"NEGATIVE</w>":5053,"din":5054,"gt</w>":5055,"havi":5056,"kernel</w>":5057,"Ext</w>":5058,"jected</w>":5059,"Loc</w>":5060,"Locator</w>":5061,"Iterable</w>":5062,"peg</w>":5063,"Candi":5064,"Dao</w>":5065,"CAN":5066,"Global</w>":5067,"OD</w>":5068,"WH":5069,"clic":5070,"deta":5071,"cons</w>":5072,"primitive</w>":5073,"Destination</w>":5074,"luet":5075,"latitude</w>":5076,"Workspace</w>":5077,"checksum</w>":5078,"DK</w>":5079,"denti":5080,"ginal</w>":5081,"states</w>":5082,"simul":5083,"Indic":5084,"Previous</w>":5085,"Shadow</w>":5086,"cleanup</w>":5087,"layed</w>":5088,"attempt</w>":5089,"CS</w>":5090,"cr</w>":5091,"nemonic</w>":5092,"controller</w>":5093,"power</w>":5094,"replic":5095,"sigma</w>":5096,"Org</w>":5097,"sax</w>":5098,"WORD</w>":5099,"gerprint</w>":5100,"REQUEST</w>":5101,"destroy</w>":5102,"luetooth</w>":5103,"Pic":5104,"Scal":5105,"tor":5106,"ordered</w>":5107,"Construc":5108,"terms</w>":5109,"notifi":5110,"Delimiter</w>":5111,"against</w>":5112,"disable</w>":5113,"LIST</w>":5114,"DBI</w>":5115,"Immutable</w>":5116,"WIDTH</w>":5117,"Same</w>":5118,"Stri":5119,"slash</w>":5120,"tm</w>":5121,"stname</w>":5122,"concaten":5123,"exec</w>":5124,"CHE":5125,"ski":5126,"Initial</w>":5127,"declar":5128,"18</w>":5129,"El":5130,"Numeric</w>":5131,"SA</w>":5132,"whitespace</w>":5133,"Err</w>":5134,"Encoder</w>":5135,"Normal</w>":5136,"Asc":5137,"PE":5138,"ci</w>":5139,"oc</w>":5140,"tip</w>":5141,"threads</w>":5142,"oler":5143,"Qui":5144,"phase</w>":5145,"filtered</w>":5146,"operations</w>":5147,"Obser":5148,"Unicode</w>":5149,"MONTH</w>":5150,"BE</w>":5151,"cm</w>":5152,"cryp":5153,"tc</w>":5154,"activ":5155,"code":5156,"throwable</w>":5157,"via</w>":5158,"sec</w>":5159,"rency</w>":5160,"Thumb</w>":5161,"Callbacks</w>":5162,"Loop</w>":5163,"Needed</w>":5164,"MA</w>":5165,"Navi</w>":5166,"Wal":5167,"great</w>":5168,"ml":5169,"sends</w>":5170,"tan</w>":5171,"argets</w>":5172,"login</w>":5173,"accumul":5174,"Reil</w>":5175,"Undo</w>":5176,"beta</w>":5177,"MAN":5178,"phab":5179,"ways</w>":5180,"Replication</w>":5181,"Primary</w>":5182,"SHO":5183,"Train</w>":5184,"GROUP</w>":5185,"IMUM</w>":5186,"KEYCODE</w>":5187,"mkdirs</w>":5188,"Constructor</w>":5189,"Us</w>":5190,"core</w>":5191,"mbean</w>":5192,"pid</w>":5193,"scores</w>":5194,"logging</w>":5195,"Rel</w>":5196,"Setting</w>":5197,"Leaf</w>":5198,"Decla":5199,"weigh":5200,"extensions</w>":5201,"Replic":5202,"Ig":5203,"Ima":5204,"Lite</w>":5205,"VAL</w>":5206,"bv</w>":5207,"ats</w>":5208,"eries</w>":5209,"raw":5210,"Real</w>":5211,"qualified</w>":5212,"such</w>":5213,"scrol":5214,"Recur":5215,"Work</w>":5216,"extended</w>":5217,"basic</w>":5218,"Declared</w>":5219,"Amt</w>":5220,"FTP</w>":5221,"Hour</w>":5222,"PI":5223,"SC</w>":5224,"criteri":5225,"hyp":5226,"coord</w>":5227,"Deprec":5228,"including</w>":5229,"included</w>":5230,"Since</w>":5231,"Finished</w>":5232,"Velocity</w>":5233,"Catalog</w>":5234,"So</w>":5235,"enc</w>":5236,"arrow</w>":5237,"raf</w>":5238,"Lib</w>":5239,"espaces</w>":5240,"Vertices</w>":5241,"classpath</w>":5242,"Mapper</w>":5243,"Gravity</w>":5244,"PUT</w>":5245,"Tmp</w>":5246,"Tool":5247,"cup":5248,"md":5249,"alle":5250,"least</w>":5251,"library</w>":5252,"asc":5253,"rase</w>":5254,"pology</w>":5255,"Att</w>":5256,"alive</w>":5257,"encrypt</w>":5258,"Latitude</w>":5259,"nanos</w>":5260,"Summary</w>":5261,"My</w>":5262,"PORT</w>":5263,"SSION</w>":5264,"dated</w>":5265,"pm</w>":5266,"qtt</w>":5267,"sl":5268,"enge</w>":5269,"NUMBER</w>":5270,"conven":5271,"parsing</w>":5272,"dom":5273,"Any</w>":5274,"ARD</w>":5275,"ESP":5276,"METH":5277,"SERVER</w>":5278,"BI":5279,"Longitude</w>":5280,"Patch</w>":5281,"crc</w>":5282,"em</w>":5283,"rate</w>":5284,"atts</w>":5285,"uring</w>":5286,"man</w>":5287,"Parts</w>":5288,"Adj":5289,"dictionary</w>":5290,"animation</w>":5291,"addresses</w>":5292,"Cro":5293,"Mgr</w>":5294,"Sparse</w>":5295,"flip</w>":5296,"longitude</w>":5297,"touch</w>":5298,"ummy</w>":5299,"Enc</w>":5300,"Polygon</w>":5301,"scr":5302,"MAPP":5303,"weights</w>":5304,"illiseconds</w>":5305,"Equal</w>":5306,"allenge</w>":5307,"Cached</w>":5308,"Hint</w>":5309,"Ip</w>":5310,"Pres":5311,"ide":5312,"middle</w>":5313,"vb</w>":5314,"retry</w>":5315,"oud</w>":5316,"Attrs</w>":5317,"minor</w>":5318,"initiators</w>":5319,"cut</w>":5320,"World</w>":5321,"Relative</w>":5322,"formats</w>":5323,"alifier</w>":5324,"population</w>":5325,"denom</w>":5326,"failure</w>":5327,"BASE</w>":5328,"Dynamic</w>":5329,"Pt</w>":5330,"dbc</w>":5331,"play</w>":5332,"Stage</w>":5333,"completed</w>":5334,"closing</w>":5335,"special</w>":5336,"ACH":5337,"style":5338,"ELEMENT</w>":5339,"MEN":5340,"lates</w>":5341,"mb</w>":5342,"ou</w>":5343,"precision</w>":5344,"resize</w>":5345,"ards</w>":5346,"STY":5347,"lib</w>":5348,"modify</w>":5349,"idle</w>":5350,"verbose</w>":5351,"gical</w>":5352,"sher</w>":5353,"duled</w>":5354,"since</w>":5355,"solution</w>":5356,"CESS</w>":5357,"Atom":5358,"EP</w>":5359,"OS</w>":5360,"ka</w>":5361,"ould</w>":5362,"look</w>":5363,"maps</w>":5364,"Rep</w>":5365,"estim":5366,"vers":5367,"shu":5368,"ison</w>":5369,"bed":5370,"Equipment</w>":5371,"Strategy</w>":5372,"decryp":5373,"SV</w>":5374,"SCHE":5375,"Ti":5376,"inv</w>":5377,"red":5378,"thumb</w>":5379,"sta":5380,"orting</w>":5381,"team</w>":5382,"sively</w>":5383,"Read":5384,"tern":5385,"pairs</w>":5386,"android</w>":5387,"Curr</w>":5388,"Rotation</w>":5389,"processed</w>":5390,"gured</w>":5391,"Unique</w>":5392,"keyword</w>":5393,"Typed</w>":5394,"bership</w>":5395,"literal</w>":5396,"details</w>":5397,"Rol":5398,"alloc</w>":5399,"Conf</w>":5400,"interfaces</w>":5401,"Board</w>":5402,"flater</w>":5403,"FINEST</w>":5404,"Warning</w>":5405,"TOP</w>":5406,"Capabilities</w>":5407,"numbers</w>":5408,"OUT":5409,"branch</w>":5410,"cf</w>":5411,"gation</w>":5412,"tool":5413,"negative</w>":5414,"Defaults</w>":5415,"coll":5416,"VERTIC":5417,"APP":5418,"debugging</w>":5419,"cestor</w>":5420,"dentials</w>":5421,"Atomic</w>":5422,"Safe</w>":5423,"cli":5424,"sation</w>":5425,"tice</w>":5426,"ang</w>":5427,"program</w>":5428,"Low</w>":5429,"Threads</w>":5430,"licit</w>":5431,"white</w>":5432,"Secure</w>":5433,"structure</w>":5434,"Original</w>":5435,"Brd</w>":5436,"WE":5437,"eper</w>":5438,"hour</w>":5439,"mn</w>":5440,"alet":5441,"ech":5442,"usage</w>":5443,"achine</w>":5444,"execution</w>":5445,"TRUE</w>":5446,"union</w>":5447,"archive</w>":5448,"Assignable</w>":5449,"Pressed</w>":5450,"Two</w>":5451,"cart</w>":5452,"ear":5453,"fp</w>":5454,"Stamp</w>":5455,"shadow</w>":5456,"ameter":5457,"SELE":5458,"Notify</w>":5459,"cloudlet</w>":5460,"accepts</w>":5461,"retrieve</w>":5462,"square</w>":5463,"uplicate</w>":5464,"alette</w>":5465,"Ch</w>":5466,"Mi":5467,"rx</w>":5468,"rem</w>":5469,"Library</w>":5470,"closure</w>":5471,"matched</w>":5472,"invoked</w>":5473,"Authentication</w>":5474,"lipse</w>":5475,"Diagnostic</w>":5476,"book</w>":5477,"dam":5478,"platform</w>":5479,"tup":5480,"returning</w>":5481,"replaces</w>":5482,"ALPH":5483,"Creation</w>":5484,"resolved</w>":5485,"HTTP</w>":5486,"RENT</w>":5487,"combined</w>":5488,"EV":5489,"here</w>":5490,"assign</w>":5491,"resets</w>":5492,"Loaded</w>":5493,"she":5494,"commands</w>":5495,"Decor":5496,"shots</w>":5497,"Plan</w>":5498,"CRY":5499,"Users</w>":5500,"flu":5501,"enum</w>":5502,"nearest</w>":5503,"Dirty</w>":5504,"preferred</w>":5505,"filled</w>":5506,"handshake</w>":5507,"web</w>":5508,"decoder</w>":5509,"pixels</w>":5510,"representing</w>":5511,"llpts</w>":5512,"sifier</w>":5513,"Clip</w>":5514,"The":5515,"millis</w>":5516,"sf</w>":5517,"wd</w>":5518,"inputstream</w>":5519,"reign</w>":5520,"concat</w>":5521,"shes</w>":5522,"ranges</w>":5523,"Manifest</w>":5524,"observer</w>":5525,"manifest</w>":5526,"Payment</w>":5527,"MAPPING</w>":5528,"00":5529,"SL":5530,"kit</w>":5531,"Mod</w>":5532,"scription</w>":5533,"ARY</w>":5534,"Price</w>":5535,"regular</w>":5536,"Cloudlet</w>":5537,"Surrogate</w>":5538,"broker</w>":5539,"VERTICAL</w>":5540,"GIN</w>":5541,"xs</w>":5542,"rev</w>":5543,"atype</w>":5544,"sian</w>":5545,"Segments</w>":5546,"ENCO":5547,"agrap":5548,"endor</w>":5549,"Updated</w>":5550,"Super</w>":5551,"Ass":5552,"DOWN</w>":5553,"coordinate</w>":5554,"saves</w>":5555,"Trigger</w>":5556,"reserve</w>":5557,"Regex</w>":5558,"Processing</w>":5559,"dinality</w>":5560,"BL":5561,"Tx</w>":5562,"WA":5563,"bw</w>":5564,"emo":5565,"po</w>":5566,"patch</w>":5567,"quen":5568,"setup</w>":5569,"Foreground</w>":5570,"blob</w>":5571,"did</w>":5572,"ival":5573,"publi":5574,"acquire</w>":5575,"fit</w>":5576,"Char":5577,"Power</w>":5578,"Measured</w>":5579,"COR":5580,"Shard</w>":5581,"Weak</w>":5582,"users</w>":5583,"going</w>":5584,"Indexes</w>":5585,"Indicator</w>":5586,"Deprecated</w>":5587,"conveni":5588,"METHOD</w>":5589,"IMA":5590,"Tur":5591,"css</w>":5592,"Extent</w>":5593,"ritical</w>":5594,"old":5595,"fast</w>":5596,"symbols</w>":5597,"Add":5598,"Trust</w>":5599,"ASH</w>":5600,"etly</w>":5601,"merged</w>":5602,"Extensions</w>":5603,"issuer</w>":5604,"ESPACE</w>":5605,"FRO":5606,"SP</w>":5607,"YEAR</w>":5608,"gers</w>":5609,"wind</w>":5610,"contain</w>":5611,"moves</w>":5612,"heap</w>":5613,"scan":5614,"Printer</w>":5615,"Bluetooth</w>":5616,"Eff":5617,"Sim</w>":5618,"Swap</w>":5619,"Tables</w>":5620,"pur":5621,"sv</w>":5622,"salt</w>":5623,"Indent</w>":5624,"Forward</w>":5625,"AND</w>":5626,"Initiators</w>":5627,"Tracker</w>":5628,"classname</w>":5629,"So":5630,"TT":5631,"trl</w>":5632,"iling</w>":5633,"vert</w>":5634,"string":5635,"get":5636,"PARAM</w>":5637,"Normal":5638,"analysis</w>":5639,"Success</w>":5640,"configure</w>":5641,"olerance</w>":5642,"Ade</w>":5643,"Footer</w>":5644,"fli":5645,"kers</w>":5646,"int":5647,"ene</w>":5648,"also</w>":5649,"Insert</w>":5650,"lap</w>":5651,"undo</w>":5652,"Pairs</w>":5653,"repeat</w>":5654,"drawing</w>":5655,"translation</w>":5656,"AME</w>":5657,"Runner</w>":5658,"Rot":5659,"BITS</w>":5660,"Dest</w>":5661,"NER</w>":5662,"big":5663,"crop</w>":5664,"ee</w>":5665,"erial":5666,"stop":5667,"fir":5668,"expanded</w>":5669,"bins</w>":5670,"Discovery</w>":5671,"runs</w>":5672,"processes</w>":5673,"Squared</w>":5674,"allows</w>":5675,"STYLE</w>":5676,"OL</w>":5677,"Sim":5678,"Slot</w>":5679,"USE</w>":5680,"tool</w>":5681,"nex":5682,"actor</w>":5683,"Inline</w>":5684,"scanner</w>":5685,"occurren":5686,"Topic</w>":5687,"aving</w>":5688,"waiting</w>":5689,"Upload</w>":5690,"MIME":5691,"DOC":5692,"finitions</w>":5693,"sso</w>":5694,"laced</w>":5695,"dimensions</w>":5696,"RESOURCE</w>":5697,"duler</w>":5698,"JAX":5699,"MIMETYPE</w>":5700,"Freq</w>":5701,"GRE":5702,"tv</w>":5703,"leading</w>":5704,"Increment</w>":5705,"assigned</w>":5706,"Enable</w>":5707,"Degrees</w>":5708,"Mem</w>":5709,"istic</w>":5710,"riptors</w>":5711,"marks</w>":5712,"Neuron</w>":5713,"Replace</w>":5714,"represents</w>":5715,"Affine</w>":5716,"False</w>":5717,"phabet</w>":5718,"Associ":5719,"CG</w>":5720,"Ns</w>":5721,"NUM</w>":5722,"nm</w>":5723,"master</w>":5724,"Conversion</w>":5725,"unregister</w>":5726,"steps</w>":5727,"AME":5728,"Gradient</w>":5729,"Members</w>":5730,"radians</w>":5731,"Days</w>":5732,"Fl":5733,"MGR":5734,"hit</w>":5735,"sorts</w>":5736,"acy</w>":5737,"rift</w>":5738,"spar":5739,"Deleted</w>":5740,"sublen</w>":5741,"latest</w>":5742,"napshots</w>":5743,"Origin</w>":5744,"HOUR</w>":5745,"GET</w>":5746,"Boundary</w>":5747,"Accessible</w>":5748,"scratch</w>":5749,"MGRS</w>":5750,"Plex</w>":5751,"TES</w>":5752,"ao</w>":5753,"trunc":5754,"road</w>":5755,"leaf</w>":5756,"Stmt</w>":5757,"resp</w>":5758,"locking</w>":5759,"Seed</w>":5760,"Compat</w>":5761,"PAGE</w>":5762,"Receiver</w>":5763,"Received</w>":5764,"Escape</w>":5765,"predicate</w>":5766,"MSG</w>":5767,"convenience</w>":5768,"Cfg</w>":5769,"OK":5770,"Round</w>":5771,"WR":5772,"cx</w>":5773,"cfg</w>":5774,"dd</w>":5775,"ire":5776,"Infinite</w>":5777,"resul":5778,"sures</w>":5779,"percent</w>":5780,"MAL</w>":5781,"FILL</w>":5782,"Expected</w>":5783,"validation</w>":5784,"Alive</w>":5785,"overri":5786,"following</w>":5787,"view":5788,"Declaration</w>":5789,"versal</w>":5790,"Ep":5791,"TEN":5792,"focus</w>":5793,"wildcard</w>":5794,"liz":5795,"define</w>":5796,"Req</w>":5797,"Release</w>":5798,"identifi":5799,"locate</w>":5800,"expect</w>":5801,"ROW</w>":5802,"CHEC":5803,"Sentence</w>":5804,"authentication</w>":5805,"SECOND</w>":5806,"Protection</w>":5807,"Break</w>":5808,"Management</w>":5809,"Ten":5810,"kind</w>":5811,"lon":5812,"nbr</w>":5813,"patterns</w>":5814,"zk</w>":5815,"answer</w>":5816,"list":5817,"Example</w>":5818,"Encr":5819,"writing</w>":5820,"Dim</w>":5821,"piece</w>":5822,"particular</w>":5823,"TIMEOUT</w>":5824,"Quietly</w>":5825,"Images</w>":5826,"Encryption</w>":5827,"Driver</w>":5828,"SH</w>":5829,"eta</w>":5830,"ports</w>":5831,"yes</w>":5832,"ining</w>":5833,"stor":5834,"Star</w>":5835,"mas</w>":5836,"ressions</w>":5837,"Spacing</w>":5838,"spect</w>":5839,"Admin</w>":5840,"Hierarchy</w>":5841,"mappings</w>":5842,"ginning</w>":5843,"mediate</w>":5844,"Initialized</w>":5845,"Requests</w>":5846,"Crypto</w>":5847,"bedded</w>":5848,"Email</w>":5849,"LDA":5850,"Masks</w>":5851,"Ranges</w>":5852,"loading</w>":5853,"checked</w>":5854,"aches</w>":5855,"generic</w>":5856,"started</w>":5857,"Observer</w>":5858,"rollback</w>":5859,"multiplier</w>":5860,"Fraction</w>":5861,"wrapped</w>":5862,"Br":5863,"Epoch</w>":5864,"Family</w>":5865,"Pv</w>":5866,"RP</w>":5867,"SDK</w>":5868,"asting</w>":5869,"cf":5870,"np</w>":5871,"ryption</w>":5872,"sources</w>":5873,"alled</w>":5874,"Inst</w>":5875,"asci":5876,"services</w>":5877,"down":5878,"Recycler</w>":5879,"iso</w>":5880,"Preview</w>":5881,"Note</w>":5882,"Distributed</w>":5883,"unication</w>":5884,"text":5885,"scaled</w>":5886,"SHAPE</w>":5887,"Blank</w>":5888,"DELETE</w>":5889,"GED</w>":5890,"GLES</w>":5891,"Known</w>":5892,"Soot</w>":5893,"Slash</w>":5894,"onts</w>":5895,"chunks</w>":5896,"Sto":5897,"locked</w>":5898,"Master</w>":5899,"pref</w>":5900,"DELI":5901,"Grammar</w>":5902,"attempts</w>":5903,"lyph</w>":5904,"JAXB</w>":5905,"Evalu":5906,"FAL":5907,"KNO":5908,"erial</w>":5909,"degrees</w>":5910,"sim</w>":5911,"fingerprint</w>":5912,"super":5913,"Complex</w>":5914,"minal</w>":5915,"implements</w>":5916,"executes</w>":5917,"initialized</w>":5918,"SHORT</w>":5919,"runtime</w>":5920,"deri":5921,"Connections</w>":5922,"recursively</w>":5923,"Started</w>":5924,"Completable</w>":5925,"instantiates</w>":5926,"LF</w>":5927,"Lun</w>":5928,"SEN":5929,"band</w>":5930,"her":5931,"hood</w>":5932,"trim":5933,"align</w>":5934,"sit</w>":5935,"ells</w>":5936,"crete</w>":5937,"ERR</w>":5938,"comments</w>":5939,"Leading</w>":5940,"lun</w>":5941,"pkg</w>":5942,"streams</w>":5943,"tuples</w>":5944,"Bi":5945,"Non":5946,"Psi</w>":5947,"you</w>":5948,"trail":5949,"trust</w>":5950,"acro</w>":5951,"diffs</w>":5952,"Prob</w>":5953,"Debu":5954,"calling</w>":5955,"rectangle</w>":5956,"sys</w>":5957,"SIBLE</w>":5958,"grammar</w>":5959,"Frames</w>":5960,"verifies</w>":5961,"TIONS</w>":5962,"launch</w>":5963,"LDAP</w>":5964,"AV":5965,"It</w>":5966,"dynamic</w>":5967,"ited</w>":5968,"mer</w>":5969,"ensures</w>":5970,"asp":5971,"Consum":5972,"creating</w>":5973,"Dev</w>":5974,"FROM</w>":5975,"Bro":5976,"FLO":5977,"FACT":5978,"Windows</w>":5979,"emit</w>":5980,"ois</w>":5981,"pin</w>":5982,"uous</w>":5983,"ya</w>":5984,"statistics</w>":5985,"creation</w>":5986,"Symbols</w>":5987,"Restri":5988,"equality</w>":5989,"dater</w>":5990,"tificates</w>":5991,"statements</w>":5992,"MINIMUM</w>":5993,"splits</w>":5994,"ALPHA</w>":5995,"ascii</w>":5996,"Branch</w>":5997,"Categories</w>":5998,"Get":5999,"PTION</w>":6000,"PLA":6001,"bis</w>":6002,"eces</w>":6003,"pres":6004,"tty</w>":6005,"rewind</w>":6006,"stage</w>":6007,"last":6008,"Characters</w>":6009,"takes</w>":6010,"Setup</w>":6011,"colon</w>":6012,"Compare</w>":6013,"ROOT</w>":6014,"ALIG":6015,"sections</w>":6016,"audit</w>":6017,"start":6018,"Down":6019,"ITEM</w>":6020,"manti":6021,"Drawer</w>":6022,"celled</w>":6023,"RESOL":6024,"STANCE</w>":6025,"consumed</w>":6026,"agraph</w>":6027,"KNOWN</w>":6028,"BR":6029,"Best</w>":6030,"Dto</w>":6031,"Hyp":6032,"MD</w>":6033,"Maps</w>":6034,"Play</w>":6035,"Spaces</w>":6036,"Vars</w>":6037,"evi":6038,"xn</w>":6039,"Sty":6040,"Dete":6041,"drag</w>":6042,"Links</w>":6043,"links</w>":6044,"gged</w>":6045,"Schedule</w>":6046,"TRY</w>":6047,"boundary</w>":6048,"Payload</w>":6049,"func</w>":6050,"CU":6051,"Criteri":6052,"fw</w>":6053,"la</w>":6054,"pd</w>":6055,"tner</w>":6056,"references</w>":6057,"deserialize</w>":6058,"chang":6059,"iss":6060,"general</w>":6061,"ITER</w>":6062,"Naming</w>":6063,"Mapped</w>":6064,"256</w>":6065,"sheet</w>":6066,"MATCH</w>":6067,"every</w>":6068,"fra":6069,"par</w>":6070,"atan</w>":6071,"aries</w>":6072,"ilation</w>":6073,"exceptions</w>":6074,"sual</w>":6075,"printer</w>":6076,"Activ":6077,"aging</w>":6078,"Super":6079,"gnitude</w>":6080,"connections</w>":6081,"newline</w>":6082,"gui</w>":6083,"SCRO":6084,"Breakpoint</w>":6085,"sizes</w>":6086,"xioms</w>":6087,"aspect</w>":6088,"FE</w>":6089,"Ldap</w>":6090,"Ofs</w>":6091,"XMP</w>":6092,"fn</w>":6093,"pr</w>":6094,"ru</w>":6095,"ined</w>":6096,"rected</w>":6097,"buttons</w>":6098,"oop</w>":6099,"prog</w>":6100,"iration</w>":6101,"web":6102,"temporary</w>":6103,"stinct</w>":6104,"BYTES</w>":6105,"Checksum</w>":6106,"effec":6107,"CACH":6108,"bec":6109,"bling</w>":6110,"vs</w>":6111,"xpath</w>":6112,"inc</w>":6113,"reas":6114,"dels</w>":6115,"detail</w>":6116,"asser":6117,"Arrow</w>":6118,"Buffers</w>":6119,"modules</w>":6120,"syntax</w>":6121,"Written</w>":6122,"intervals</w>":6123,"keli":6124,"Calcul":6125,"DIS":6126,"operand</w>":6127,"Cloud</w>":6128,"&=</w>":6129,"Journal</w>":6130,"Kit</w>":6131,"Pm</w>":6132,"SQ</w>":6133,"ag</w>":6134,"dro":6135,"mil":6136,"sors</w>":6137,"trx</w>":6138,"align":6139,"alarm</w>":6140,"tets</w>":6141,"Std</w>":6142,"quantity</w>":6143,"under</w>":6144,"idi</w>":6145,"set":6146,"bom</w>":6147,"LEV":6148,"Idle</w>":6149,"rounded</w>":6150,"DOU":6151,"Publi":6152,"home</w>":6153,"CONTRO":6154,"Completion</w>":6155,"debugger</w>":6156,"blocksize</w>":6157,"eued</w>":6158,"IMAGE</w>":6159,"Cart</w>":6160,"Find</w>":6161,"Mqtt</w>":6162,"grow</w>":6163,"nfe</w>":6164,"smal":6165,"individual</w>":6166,"stops</w>":6167,"ulk</w>":6168,"adcast</w>":6169,"essions</w>":6170,"Disc":6171,"ORDER</w>":6172,"outputstream</w>":6173,"DAO</w>":6174,"Coordinates</w>":6175,"dependency</w>":6176,"White</w>":6177,"separated</w>":6178,"DTM</w>":6179,"Highlight</w>":6180,"Without</w>":6181,"issue</w>":6182,"OVER":6183,"Pdu</w>":6184,"PDF</w>":6185,"WEST</w>":6186,"oid</w>":6187,"testing</w>":6188,"positive</w>":6189,"sever":6190,"worker</w>":6191,"FIL":6192,"disconnect</w>":6193,"encoder</w>":6194,"success":6195,"Sibling</w>":6196,"ustment</w>":6197,"FER":6198,"Jobs</w>":6199,"cap</w>":6200,"rout":6201,"hide</w>":6202,"Resp</w>":6203,"fills</w>":6204,"configured</w>":6205,"tifications</w>":6206,"Collector</w>":6207,"POLIC":6208,"currency</w>":6209,"Formats</w>":6210,"catalog</w>":6211,"criteria</w>":6212,"flict</w>":6213,"Tenant</w>":6214,"POLICY</w>":6215,"CTED</w>":6216,"Sv":6217,"axioms</w>":6218,"px</w>":6219,"rnd</w>":6220,"vation</w>":6221,"rel</w>":6222,"nested</w>":6223,"spring</w>":6224,"curve</w>":6225,"prep</w>":6226,"DES</w>":6227,"edback</w>":6228,"Modification</w>":6229,"variance</w>":6230,"LAY</w>":6231,"Instanti":6232,"Exist</w>":6233,"animator</w>":6234,"probability</w>":6235,"SWT</w>":6236,"FALSE</w>":6237,"Getter</w>":6238,"AC</w>":6239,"DER":6240,"DRA":6241,"Emo":6242,"Each</w>":6243,"Now</w>":6244,"Rtcp</w>":6245,"Sav":6246,"aa</w>":6247,"bble</w>":6248,"eq</w>":6249,"gp</w>":6250,"mits</w>":6251,"own</w>":6252,"rh":6253,"wns</w>":6254,"alize</w>":6255,"logs</w>":6256,"Reset</w>":6257,"trib</w>":6258,"scrap</w>":6259,"aracter":6260,"Comments</w>":6261,"Already</w>":6262,"iteration</w>":6263,"registry</w>":6264,"PARAME":6265,"OPTION</w>":6266,"Quotes</w>":6267,"snap</w>":6268,"cross</w>":6269,"base64</w>":6270,"CATION</w>":6271,"Is":6272,"Samples</w>":6273,"uth</w>":6274,"windows</w>":6275,"Exclu":6276,"percentage</w>":6277,"caller</w>":6278,"combo</w>":6279,"Throw</w>":6280,"Handlers</w>":6281,"Operations</w>":6282,"CHUN":6283,"MOD":6284,"related</w>":6285,"Signal</w>":6286,"csv</w>":6287,"different</w>":6288,"Viewer</w>":6289,"quences</w>":6290,"kelihood</w>":6291,"Bg</w>":6292,"cas</w>":6293,"rep</w>":6294,"ording</w>":6295,"fiel":6296,"mpt</w>":6297,"lain</w>":6298,"viously</w>":6299,"unknown</w>":6300,"legend</w>":6301,"features</w>":6302,"tured</w>":6303,"Organ":6304,"flat":6305,"Apps</w>":6306,"Multi":6307,"SCRI":6308,"blue</w>":6309,"fraction</w>":6310,"Help</w>":6311,"Delegate</w>":6312,"mapper</w>":6313,"alignment</w>":6314,"DOUBLE</w>":6315,"Kernel</w>":6316,"OC</w>":6317,"awt</w>":6318,"milliseconds</w>":6319,"ny</w>":6320,"ced":6321,"sip</w>":6322,"Conn</w>":6323,"une</w>":6324,"seu":6325,"prior</w>":6326,"tax":6327,"servlet</w>":6328,"prefs</w>":6329,"Actual</w>":6330,"Trans</w>":6331,"interrupt</w>":6332,"Locations</w>":6333,"FIR":6334,"mental</w>":6335,"what</w>":6336,"EXTR":6337,"lyline</w>":6338,"LAB":6339,"SPEC":6340,"HEIGHT</w>":6341,"Void</w>":6342,"Cells</w>":6343,"Esti":6344,"emon</w>":6345,"my":6346,"ural</w>":6347,"arity</w>":6348,"acti":6349,"Into</w>":6350,"Exec</w>":6351,"tomat":6352,"Annotated</w>":6353,"occur":6354,"beginning</w>":6355,"Matching</w>":6356,"Layers</w>":6357,"converted</w>":6358,"Linear</w>":6359,"ipeline</w>":6360,"allocated</w>":6361,"COMPACTION</w>":6362,"xiom</w>":6363,"Numbers</w>":6364,"FLOAT</w>":6365,"DML</w>":6366,"NAL</w>":6367,"clock</w>":6368,"driver</w>":6369,"fx</w>":6370,"ggle</w>":6371,"pu</w>":6372,"rhs</w>":6373,"atal</w>":6374,"ens</w>":6375,"entr":6376,"archer</w>":6377,"ridge</w>":6378,"Realm</w>":6379,"Buttons</w>":6380,"Pol":6381,"opy</w>":6382,"transition</w>":6383,"transformer</w>":6384,"FIED</w>":6385,"Mappings</w>":6386,"QUE":6387,"Solution</w>":6388,"recursive</w>":6389,"Skip</w>":6390,"WRITE</w>":6391,"LABEL</w>":6392,"Axiom</w>":6393,"IS":6394,"TTO":6395,"hex":6396,"jo</w>":6397,"son":6398,"ske":6399,"ty":6400,"vable</w>":6401,"anno</w>":6402,"lists</w>":6403,"acces":6404,"Live</w>":6405,"umb":6406,"proc</w>":6407,"lays</w>":6408,"Popul":6409,"secure</w>":6410,"UNKNOWN</w>":6411,"encodes</w>":6412,"Negative</w>":6413,"iome</w>":6414,"mainder</w>":6415,"serialized</w>":6416,"Synapse</w>":6417,"bracket</w>":6418,"BOTTO":6419,"multiply</w>":6420,"Img</w>":6421,"vectors</w>":6422,"Em":6423,"Io</w>":6424,"PRI":6425,"TA</w>":6426,"UTION</w>":6427,"Wid":6428,"mgr</w>":6429,"tz</w>":6430,"tend</w>":6431,"xml":6432,"Coe":6433,"vie</w>":6434,"peri":6435,"Loading</w>":6436,"Sec</w>":6437,"preview</w>":6438,"collec":6439,"ENCE</w>":6440,"tures</w>":6441,"TAB</w>":6442,"Currency</w>":6443,"ONLY</w>":6444,"Repres":6445,"Closure</w>":6446,"Classpath</w>":6447,"sensor</w>":6448,"slice</w>":6449,"BB</w>":6450,"Hidden</w>":6451,"ITI":6452,"KER</w>":6453,"Ln</w>":6454,"ears</w>":6455,"mes</w>":6456,"annable</w>":6457,"listen":6458,"serial</w>":6459,"angles</w>":6460,"MAP</w>":6461,"assum":6462,"extracts</w>":6463,"grade</w>":6464,"Accessibility</w>":6465,"Clear</w>":6466,"whose</w>":6467,"Gran":6468,"Scores</w>":6469,"cts</w>":6470,"gamma</w>":6471,"td</w>":6472,"star</w>":6473,"arti":6474,"Encode</w>":6475,"Logic</w>":6476,"preference</w>":6477,"previously</w>":6478,"Tail</w>":6479,"Optim":6480,"stogram</w>":6481,"Expanded</w>":6482,"limited</w>":6483,"modifiers</w>":6484,"Phone</w>":6485,"exclude</w>":6486,"levation</w>":6487,"fficients</w>":6488,"BIN":6489,"Blob</w>":6490,"CA":6491,"Ls</w>":6492,"Rcs</w>":6493,"camera</w>":6494,"decrement</w>":6495,"cover</w>":6496,"pot":6497,"LOW":6498,"Accept</w>":6499,"ASCI":6500,"some":6501,"posal</w>":6502,"FAI":6503,"depending</w>":6504,"Connector</w>":6505,"resolver</w>":6506,"VISIBLE</w>":6507,"Snap</w>":6508,"CRYPT</w>":6509,"ASCII</w>":6510,"GLE</w>":6511,"Lang</w>":6512,"objec":6513,"reh":6514,"amo":6515,"Inte":6516,"rain</w>":6517,"INITI":6518,"Mean</w>":6519,"Compound</w>":6520,"multi":6521,"Attachment</w>":6522,"Plus</w>":6523,"TEXT":6524,"bounding</w>":6525,"ivalent</w>":6526,"DOCUMENT</w>":6527,"CACHE</w>":6528,"Based</w>":6529,"bt</w>":6530,"categories</w>":6531,"ient</w>":6532,"nb</w>":6533,"nkeys</w>":6534,"tolerance</w>":6535,"reason</w>":6536,"ately</w>":6537,"ended</w>":6538,"tier</w>":6539,"anim</w>":6540,"decla":6541,"adline</w>":6542,"chan</w>":6543,"channels</w>":6544,"unsafe</w>":6545,"Moved</w>":6546,"prefixes</w>":6547,"REG":6548,"Interfaces</w>":6549,"Locked</w>":6550,"Filters</w>":6551,"AND":6552,"MOVE</w>":6553,"Created</w>":6554,"Terms</w>":6555,"coordinator</w>":6556,"candidates</w>":6557,"epsilon</w>":6558,"large</w>":6559,"reduce</w>":6560,"ABLE</w>":6561,"Cap</w>":6562,"Self</w>":6563,"eface</w>":6564,"lr</w>":6565,"mu</w>":6566,"Inser":6567,"Arc</w>":6568,"tabs</w>":6569,"parents</w>":6570,"ird</w>":6571,"Append</w>":6572,"authentic":6573,"keystore</w>":6574,"Conversation</w>":6575,"ookmark</w>":6576,"Candidate</w>":6577,"Addresses</w>":6578,"PARAMETER</w>":6579,"CHUNK</w>":6580,"tomaton</w>":6581,"Bas":6582,"CSV</w>":6583,"Den":6584,"TLE</w>":6585,"Tcp</w>":6586,"gen":6587,"lhs</w>":6588,"tations</w>":6589,"ybe</w>":6590,"decor":6591,"Cho":6592,"verted</w>":6593,"mem</w>":6594,"Selec":6595,"comma</w>":6596,"exponent</w>":6597,"Shutdown</w>":6598,"tensity</w>":6599,"certain</w>":6600,"THRE":6601,"Existing</w>":6602,"Phase</w>":6603,"frames</w>":6604,"coeff</w>":6605,"delim</w>":6606,"SIGN":6607,"front</w>":6608,"Issu":6609,"EC</w>":6610,"Migr":6611,"car</w>":6612,"vi</w>":6613,"apon</w>":6614,"Completed</w>":6615,"ALE</w>":6616,"tionally</w>":6617,"Privi":6618,"Subscri":6619,"unicode</w>":6620,"Close":6621,"Tran</w>":6622,"offsets</w>":6623,"mantissa</w>":6624,"seudo</w>":6625,"admin</w>":6626,"consistency</w>":6627,"und":6628,"sun</w>":6629,"Proto":6630,"pping</w>":6631,"Transport</w>":6632,"minus</w>":6633,"reading</w>":6634,"ticle</w>":6635,"DISA":6636,"Draft</w>":6637,"shows</w>":6638,"hostname</w>":6639,"decodes</w>":6640,"MINUTE</w>":6641,"caption</w>":6642,"small</w>":6643,"closest</w>":6644,"ENCODING</w>":6645,"Flush</w>":6646,"LEVEL</w>":6647,"BOTTOM</w>":6648,"Hours</w>":6649,"MUL":6650,"Tools</w>":6651,"Was</w>":6652,"ZIP</w>":6653,"jpeg</w>":6654,"mas":6655,"none</w>":6656,"pb</w>":6657,"pass":6658,"vars</w>":6659,"watch</w>":6660,"oned</w>":6661,"ale</w>":6662,"std":6663,"atile</w>":6664,"proto":6665,"Acct</w>":6666,"TIES</w>":6667,"Prev</w>":6668,"layers</w>":6669,"clusters</w>":6670,"Datagram</w>":6671,"Minutes</w>":6672,"green</w>":6673,"Clone</w>":6674,"avigation</w>":6675,"SYN":6676,"SYST":6677,"subscribe</w>":6678,"TWO</w>":6679,"FIRST</w>":6680,"Cmd</w>":6681,"JMS</w>":6682,"Pools</w>":6683,"Vpool</w>":6684,"WT</w>":6685,"vels</w>":6686,"zed</w>":6687,"acted</w>":6688,"Revision</w>":6689,"oogle</w>":6690,"And":6691,"ATED</w>":6692,"Qualified</w>":6693,"replication</w>":6694,"TIV":6695,"MAC</w>":6696,"Performed</w>":6697,"line":6698,"Bindings</w>":6699,"regori":6700,"Supplier</w>":6701,"Modifiable</w>":6702,"QUO":6703,"Misc</w>":6704,"comparison</w>":6705,"fficient</w>":6706,"CREATE</w>":6707,"Structure</w>":6708,"Probability</w>":6709,"Replicator</w>":6710,"Cash</w>":6711,"Dump</w>":6712,"LAST</w>":6713,"Tabs</w>":6714,"eps</w>":6715,"jvm</w>":6716,"iters</w>":6717,"finest</w>":6718,"posed</w>":6719,"INSTANCE</w>":6720,"geo":6721,"margin</w>":6722,"encryption</w>":6723,"EXTEN":6724,"Checks</w>":6725,"Radio</w>":6726,"lowest</w>":6727,"Canonical</w>":6728,"FOL":6729,"Merc</w>":6730,"Dispatch</w>":6731,"intersect</w>":6732,"Analysis</w>":6733,"Fav":6734,"Mary</w>":6735,"PAS":6736,"Sig</w>":6737,"Var":6738,"bld</w>":6739,"ddl</w>":6740,"mc</w>":6741,"ysi":6742,"alert</w>":6743,"oub":6744,"Concurrent</w>":6745,"Deli":6746,"callbacks</w>":6747,"Mod":6748,"Levels</w>":6749,"Recent</w>":6750,"ARG":6751,"Team</w>":6752,"ticks</w>":6753,"ceptor</w>":6754,"certs</w>":6755,"Feedback</w>":6756,"modifier</w>":6757,"RADI":6758,"SPACE</w>":6759,"Destro":6760,"CRL</w>":6761,"insertion</w>":6762,"dependent</w>":6763,"discard</w>":6764,"RANGE</w>":6765,"damage</w>":6766,"Instantiation</w>":6767,"CSS</w>":6768,"Gamma</w>":6769,"MAT":6770,"Slo":6771,"eds</w>":6772,"hend</w>":6773,"li</w>":6774,"nl</w>":6775,"third</w>":6776,"logical</w>":6777,"polygon</w>":6778,"compatible</w>":6779,"autom":6780,"Dom</w>":6781,"Uris</w>":6782,"ASN</w>":6783,"Docs</w>":6784,"CLU":6785,"SUF":6786,"Resolve</w>":6787,"trahend</w>":6788,"LICATION</w>":6789,"portion</w>":6790,"Pass</w>":6791,"havior</w>":6792,"periment</w>":6793,"regorian</w>":6794,"14":6795,"Average</w>":6796,"ED":6797,"Fron":6798,"Pre</w>":6799,"SN":6800,"TUR":6801,"bad</w>":6802,"qs</w>":6803,"ything</w>":6804,"alance</w>":6805,"stars</w>":6806,"ough</w>":6807,"Exif</w>":6808,"chooser</w>":6809,"Stop":6810,"oot":6811,"esn</w>":6812,"Poly</w>":6813,"andable</w>":6814,"transport</w>":6815,"Expan":6816,"KET</w>":6817,"Roles</w>":6818,"dispatcher</w>":6819,"black</w>":6820,"partial</w>":6821,"difference</w>":6822,"Square</w>":6823,"irements</w>":6824,"CONTROL</w>":6825,"20":6826,"Cast</w>":6827,"Deri":6828,"how</w>":6829,"nf</w>":6830,"na</w>":6831,"rl</w>":6832,"orization</w>":6833,"sid</w>":6834,"Receipt</w>":6835,"Fire</w>":6836,"unsigned</w>":6837,"servers</w>":6838,"upto</w>":6839,"predi":6840,"acks</w>":6841,"ERY</w>":6842,"reng":6843,"clamp</w>":6844,"Marsh":6845,"Sensitive</w>":6846,"directories</w>":6847,"Texts</w>":6848,"Dispatcher</w>":6849,"CLOSE</w>":6850,"sock</w>":6851,"allel</w>":6852,"Am</w>":6853,"Hook</w>":6854,"Objec":6855,"Patterns</w>":6856,"Sq</w>":6857,"Wrap</w>":6858,"di</w>":6859,"duplicate</w>":6860,"zi":6861,"enumer":6862,"always</w>":6863,"rease</w>":6864,"jects</w>":6865,"Arch":6866,"visitor</w>":6867,"Pos":6868,"Mail</w>":6869,"those</w>":6870,"compiler</w>":6871,"Quality</w>":6872,"END":6873,"Pref</w>":6874,"Allocation</w>":6875,"wards</w>":6876,"Trailing</w>":6877,"Deserial":6878,"dependencies</w>":6879,"Struct</w>":6880,"TRANS":6881,"Persistent</w>":6882,"EVENT</w>":6883,"Representation</w>":6884,"CLI":6885,"Ix</w>":6886,"SB</w>":6887,"ba</w>":6888,"don</w>":6889,"lm</w>":6890,"pf</w>":6891,"would</w>":6892,"zer</w>":6893,"ently</w>":6894,"References</w>":6895,"dirty</w>":6896,"node":6897,"upload</w>":6898,"Visitor</w>":6899,"Accessor</w>":6900,"interpre":6901,"week</w>":6902,"Drawing</w>":6903,"pics</w>":6904,"Deploy":6905,"LOCAL</w>":6906,"VIE":6907,"sibly</w>":6908,"index":6909,"persist</w>":6910,"whole</w>":6911,"Cas</w>":6912,"around</w>":6913,"dns</w>":6914,"ri</w>":6915,"ine":6916,"eclass</w>":6917,"asn</w>":6918,"restri":6919,"quality</w>":6920,"Colour</w>":6921,"Demand</w>":6922,"Servers</w>":6923,"Sprite</w>":6924,"State":6925,"below</w>":6926,"MAIN</w>":6927,"Updater</w>":6928,"Between</w>":6929,"canonical</w>":6930,"requires</w>":6931,"EXT</w>":6932,"clz</w>":6933,"Registered</w>":6934,"documents</w>":6935,"POINT</w>":6936,"QUERY</w>":6937,"producer</w>":6938,"OPEN</w>":6939,"Outline</w>":6940,"Gui</w>":6941,"speed</w>":6942,"ENTITY</w>":6943,"IC":6944,"NN</w>":6945,"Sms</w>":6946,"Samp":6947,"Tun":6948,"gree</w>":6949,"ipp":6950,"lf</w>":6951,"zim":6952,"oning</w>":6953,"onto</w>":6954,"post":6955,"prime</w>":6956,"Defined</w>":6957,"isation</w>":6958,"lugins</w>":6959,"Loco</w>":6960,"Verifi":6961,"Percentage</w>":6962,"ipant</w>":6963,"linear</w>":6964,"Phrase</w>":6965,"attachment</w>":6966,"episode</w>":6967,"async</w>":6968,"estimate</w>":6969,"zimuth</w>":6970,"Band</w>":6971,"Frequency</w>":6972,"bility</w>":6973,"eval</w>":6974,"footer</w>":6975,"rele":6976,"come</w>":6977,"chat</w>":6978,"Coverage</w>":6979,"quick</w>":6980,"Until</w>":6981,"Intersection</w>":6982,"Updates</w>":6983,"Expired</w>":6984,"signum</w>":6985,"northing</w>":6986,"Prior</w>":6987,"Membership</w>":6988,"lanet</w>":6989,"LOCK":6990,"approxim":6991,"NORTH</w>":6992,"decrypt</w>":6993,"asserts</w>":6994,"Estim":6995,"rength</w>":6996,"Block":6997,"NV</w>":6998,"Qty</w>":6999,"Tab":7000,"bine</w>":7001,"during</w>":7002,"eof</w>":7003,"nr</w>":7004,"ndx</w>":7005,"qno</w>":7006,"sk</w>":7007,"err":7008,"ard":7009,"acer</w>":7010,"adoop</w>":7011,"maybe</w>":7012,"estion</w>":7013,"viation</w>":7014,"subtrahend</w>":7015,"opcode</w>":7016,"pho":7017,"DIR</w>":7018,"Extended</w>":7019,"trols</w>":7020,"Convert</w>":7021,"Processed</w>":7022,"roovy</w>":7023,"searches</w>":7024,"assignment</w>":7025,"RESOLUTION</w>":7026,"declared</w>":7027,"Android</w>":7028,"EAST</w>":7029,"GC</w>":7030,"Mid</w>":7031,"PACK":7032,"Way</w>":7033,"ax":7034,"bic</w>":7035,"km</w>":7036,"pk</w>":7037,"ur</w>":7038,"resi":7039,"rement</w>":7040,"receipt</w>":7041,"remainder</w>":7042,"tro</w>":7043,"prod</w>":7044,"usable</w>":7045,"scrip":7046,"tained</w>":7047,"Quantity</w>":7048,"Than</w>":7049,"endation</w>":7050,"SETT":7051,"Verbose</w>":7052,"Alarm</w>":7053,"conversion</w>":7054,"validator</w>":7055,"constructor</w>":7056,"marshaller</w>":7057,"Specific</w>":7058,"Episode</w>":7059,"trailing</w>":7060,"TEXTURE</w>":7061,"PK":7062,"Un</w>":7063,"average</w>":7064,"fi</w>":7065,"nc</w>":7066,"rv</w>":7067,"une":7068,"well</w>":7069,"anced</w>":7070,"acle</w>":7071,"atically</w>":7072,"Retry</w>":7073,"Bucke":7074,"exif</w>":7075,"Chunks</w>":7076,"stances</w>":7077,"rank</w>":7078,"random":7079,"occup":7080,"specification</w>":7081,"ARROW</w>":7082,"SHI":7083,"Synchron":7084,"Minus</w>":7085,"NEW</w>":7086,"hashcode</w>":7087,"CTM</w>":7088,"UPDATE</w>":7089,"migration</w>":7090,"APPLICATION</w>":7091,"CDATA</w>":7092,"Gre":7093,"WIN":7094,"ft":7095,"long":7096,"pl</w>":7097,"tet</w>":7098,"tgt</w>":7099,"entran":7100,"tives</w>":7101,"uris</w>":7102,"aming</w>":7103,"logic</w>":7104,"atial</w>":7105,"queries</w>":7106,"metic</w>":7107,"shell</w>":7108,"Partner</w>":7109,"avg</w>":7110,"age":7111,"clear":7112,"Disabled</w>":7113,"Aliases</w>":7114,"provide</w>":7115,"SOAP</w>":7116,"density</w>":7117,"Special</w>":7118,"payment</w>":7119,"Protein</w>":7120,"Typeface</w>":7121,"Caret</w>":7122,"Igfs</w>":7123,"EXTRA</w>":7124,"Gain</w>":7125,"Gregorian</w>":7126,"JC</w>":7127,"Machine</w>":7128,"TOR</w>":7129,"ULE</w>":7130,"gmen":7131,"kt</w>":7132,"sms</w>":7133,"vr</w>":7134,"dev</w>":7135,"deep</w>":7136,"acamo":7137,"sient</w>":7138,"Exceptions</w>":7139,"Post":7140,"Partic":7141,"recip":7142,"ALLOW</w>":7143,"Trx</w>":7144,"PROP</w>":7145,"Cur</w>":7146,"dispatch</w>":7147,"excluded</w>":7148,"Dependencies</w>":7149,"AUTH</w>":7150,"lization</w>":7151,"trimmed</w>":7152,"Debugger</w>":7153,"FAILED</w>":7154,"SUFFIX</w>":7155,"Bin</w>":7156,"Mnemonic</w>":7157,"Rpc</w>":7158,"Targets</w>":7159,"Uid</w>":7160,"epoch</w>":7161,"frequency</w>":7162,"group":7163,"lan</w>":7164,"pressed</w>":7165,"wwn</w>":7166,"were</w>":7167,"simil":7168,"queued</w>":7169,"park</w>":7170,"semb":7171,"recycle</w>":7172,"subtract</w>":7173,"Reco":7174,"Compressed</w>":7175,"Thrift</w>":7176,"license</w>":7177,"waits</w>":7178,"FICATION</w>":7179,"AMP</w>":7180,"cube</w>":7181,"FINER</w>":7182,"serializes</w>":7183,"Substring</w>":7184,"Hide</w>":7185,"country</w>":7186,"Capture</w>":7187,"CHANGED</w>":7188,"Legend</w>":7189,"Streams</w>":7190,"rehouse</w>":7191,"Aspect</w>":7192,"DL</w>":7193,"She":7194,"dri":7195,"gran":7196,"thmetic</w>":7197,"arri":7198,"ant":7199,"det":7200,"acc</w>":7201,"ache":7202,"acked</w>":7203,"Attemp":7204,"SIDE</w>":7205,"interrupted</w>":7206,"SIZE":7207,"serialization</w>":7208,"rotated</w>":7209,"FOUND</w>":7210,"HOST</w>":7211,"levels</w>":7212,"partition":7213,"POSITION</w>":7214,"represented</w>":7215,"svc</w>":7216,"Multiplier</w>":7217,"Launcher</w>":7218,"Toolkit</w>":7219,"Inserted</w>":7220,"CARD</w>":7221,"SR":7222,"Ver</w>":7223,"critical</w>":7224,"htt":7225,"ome</w>":7226,"vm":7227,"vpool</w>":7228,"trusted</w>":7229,"itter</w>":7230,"quanti":7231,"thrown</w>":7232,"tering</w>":7233,"preferences</w>":7234,"Tax":7235,"minder</w>":7236,"Curve</w>":7237,"VALU":7238,"Classifier</w>":7239,"Contin":7240,"Producer</w>":7241,"levant</w>":7242,"polator</w>":7243,"skipped</w>":7244,"Ascii</w>":7245,"Ready</w>":7246,"routine</w>":7247,"Svc</w>":7248,"DISAB":7249,"Ga":7250,"Sent</w>":7251,"TT</w>":7252,"Vendor</w>":7253,"Zk</w>":7254,"fonts</w>":7255,"hu":7256,"hidden</w>":7257,"ibr":7258,"net":7259,"deadline</w>":7260,"ascent</w>":7261,"Coded</w>":7262,"Arti":7263,"Channels</w>":7264,"Encryp":7265,"abo":7266,"ource":7267,"Coll":7268,"Modify</w>":7269,"combine</w>":7270,"Recom":7271,"Alphabet</w>":7272,"UTH</w>":7273,"DOW</w>":7274,"VERBO":7275,"NOTI":7276,"deploy":7277,"ssue</w>":7278,"Sender</w>":7279,"Steps</w>":7280,"SUC":7281,"Phi</w>":7282,"dimension":7283,"Quoted</w>":7284,"styleable</w>":7285,"146":7286,"DISABLED</w>":7287,"GEN":7288,"Pur":7289,"Spo":7290,"Thi":7291,"Trip":7292,"Ui</w>":7293,"WK":7294,"ahead</w>":7295,"dummy</w>":7296,"flate</w>":7297,"plo":7298,"tters</w>":7299,"vp</w>":7300,"yed</w>":7301,"ent":7302,"onal</w>":7303,"letter</w>":7304,"ancestor</w>":7305,"lif":7306,"doesn</w>":7307,"Definitions</w>":7308,"Qualifier</w>":7309,"RES":7310,"Compiler</w>":7311,"SIP</w>":7312,"marked</w>":7313,"Descriptors</w>":7314,"NAMESPACE</w>":7315,"MIT</w>":7316,"MODI":7317,"Cancel</w>":7318,"Sensi":7319,"texture</w>":7320,"highlight</w>":7321,"buckets</w>":7322,"Population</w>":7323,"entrant</w>":7324,"FL":7325,"TATION</w>":7326,"Vec":7327,"Wildcard</w>":7328,"cing</w>":7329,"hint</w>":7330,"Code":7331,"located</w>":7332,"equipment</w>":7333,"avail</w>":7334,"Compatible</w>":7335,"repo</w>":7336,"expired</w>":7337,"secu":7338,"getter</w>":7339,"UNIT</w>":7340,"Volatile</w>":7341,"Ordered</w>":7342,"secondary</w>":7343,"solr</w>":7344,"possibly</w>":7345,"POIN":7346,"dering</w>":7347,"Resolution</w>":7348,"orites</w>":7349,"displayed</w>":7350,"sistence</w>":7351,"Router</w>":7352,"Indexed</w>":7353,"Slider</w>":7354,"asynchron":7355,"umbn":7356,"Cs</w>":7357,"Dense</w>":7358,"Go":7359,"LATCH</w>":7360,"Ok</w>":7361,"OPER":7362,"Pad</w>":7363,"Red</w>":7364,"Spr":7365,"TL":7366,"Whe":7367,"having</w>":7368,"lb</w>":7369,"nvalues</w>":7370,"vo</w>":7371,"redirect</w>":7372,"endian</w>":7373,"organ":7374,"pus</w>":7375,"cets</w>":7376,"amm":7377,"adj</w>":7378,"price</w>":7379,"means</w>":7380,"equivalent</w>":7381,"Config":7382,"synapse</w>":7383,"contacts</w>":7384,"Verify</w>":7385,"Replacement</w>":7386,"outputs</w>":7387,"animate</w>":7388,"Cardinality</w>":7389,"intersects</w>":7390,"notified</w>":7391,"Charsets</w>":7392,"Nonnull</w>":7393,"SPECI":7394,"Statements</w>":7395,"Jdbc</w>":7396,"MI</w>":7397,"Os</w>":7398,"PR":7399,"cir":7400,"dnt</w>":7401,"non":7402,"nonce</w>":7403,"wid":7404,"zz":7405,"zeros</w>":7406,"eration</w>":7407,"acenter</w>":7408,"adap":7409,"chr</w>":7410,"motion</w>":7411,"fallback</w>":7412,"Cols</w>":7413,"submenu</w>":7414,"Scrip":7415,"ACL</w>":7416,"Versions</w>":7417,"UND":7418,"signatures</w>":7419,"Executors</w>":7420,"cessors</w>":7421,"sender</w>":7422,"crl</w>":7423,"DTD</w>":7424,"Highligh":7425,"tracker</w>":7426,"Picker</w>":7427,"CLIENT</w>":7428,"VIEW</w>":7429,"acamole</w>":7430,"Wheel</w>":7431,"Do</w>":7432,"Flex</w>":7433,"Middle</w>":7434,"Sound</w>":7435,"bbuf</w>":7436,"ctl</w>":7437,"dv</w>":7438,"rin":7439,"ts":7440,"yb</w>":7441,"assertion</w>":7442,"buffers</w>":7443,"vol</w>":7444,"Codec</w>":7445,"esis</w>":7446,"Bus</w>":7447,"moved</w>":7448,"sprite</w>":7449,"identi":7450,"Provi":7451,"tag":7452,"izing</w>":7453,"TITLE</w>":7454,"Alg</w>":7455,"Below</w>":7456,"readable</w>":7457,"distributed</w>":7458,"Substitu":7459,"Instant</w>":7460,"APP</w>":7461,"slider</w>":7462,"reduced</w>":7463,"declaration</w>":7464,"Wallet</w>":7465,"first":7466,"Migration</w>":7467,"TURN</w>":7468,"Ari":7469,"Ele</w>":7470,"FD</w>":7471,"GZIP</w>":7472,"Iv</w>":7473,"NI</w>":7474,"SD</w>":7475,"VED</w>":7476,"din</w>":7477,"date":7478,"iq</w>":7479,"zos</w>":7480,"atch":7481,"STR</w>":7482,"live</w>":7483,"movement</w>":7484,"Profiles</w>":7485,"hierarchy</w>":7486,"nominal</w>":7487,"sha</w>":7488,"removing</w>":7489,"Visit</w>":7490,"REQ</w>":7491,"Under":7492,"Force</w>":7493,"Prec</w>":7494,"MAX":7495,"ick":7496,"Transl":7497,"Decision</w>":7498,"runner</w>":7499,"aliases</w>":7500,"SCALE</w>":7501,"greater</w>":7502,"divisor</w>":7503,"Capability</w>":7504,"opens</w>":7505,"Terminal</w>":7506,"CONNECTION</w>":7507,"Atom</w>":7508,"OVER</w>":7509,"Wrap":7510,"XED</w>":7511,"crease</w>":7512,"fre":7513,"hook</w>":7514,"art":7515,"lems</w>":7516,"tell</w>":7517,"deci":7518,"sition":7519,"magnitude</w>":7520,"projected</w>":7521,"topology</w>":7522,"notifications</w>":7523,"Parameter":7524,"prepared</w>":7525,"Letters</w>":7526,"kets</w>":7527,"Urls</w>":7528,"scheduled</w>":7529,"supports</w>":7530,"namespaces</w>":7531,"ordinal</w>":7532,"pieces</w>":7533,"COMMENT</w>":7534,"viewer</w>":7535,"images</w>":7536,"SHIFT</w>":7537,"VERBOSE</w>":7538,"Arithmetic</w>":7539,"<<=</w>":7540,"Dst</w>":7541,"EP":7542,"Issue</w>":7543,"JPE":7544,"Placement</w>":7545,"SM</w>":7546,"Uuid</w>":7547,"WRA":7548,"bx</w>":7549,"macro</w>":7550,"pick</w>":7551,"path":7552,"ux</w>":7553,"ind":7554,"room</w>":7555,"STATI":7556,"loo":7557,"Reentrant</w>":7558,"Challenge</w>":7559,"toable</w>":7560,"octets</w>":7561,"URATION</w>":7562,"Compression</w>":7563,"Overflow</w>":7564,"Suite</w>":7565,"LEN</w>":7566,"Expand</w>":7567,"ONS</w>":7568,"DIG":7569,"timed</w>":7570,"inclusive</w>":7571,"shif":7572,"Fail</w>":7573,"Signed</w>":7574,"table":7575,"Hashes</w>":7576,"Tracking</w>":7577,"typed</w>":7578,"routing</w>":7579,"WHITE</w>":7580,"ascending</w>":7581,"ysical</w>":7582,"ARGUMENT</w>":7583,"Recomm":7584,"BAR</w>":7585,"Pho":7586,"az</w>":7587,"dctx</w>":7588,"mess":7589,"mirror</w>":7590,"mnemonic</w>":7591,"pen</w>":7592,"palette</w>":7593,"slo":7594,"srp</w>":7595,"tset</w>":7596,"uend</w>":7597,"lest</w>":7598,"ank</w>":7599,"pub</w>":7600,"defin":7601,"defaults</w>":7602,"bus</w>":7603,"spans</w>":7604,"idp</w>":7605,"stems</w>":7606,"INGS</w>":7607,"Parsing</w>":7608,"strategy</w>":7609,"recent</w>":7610,"Movement</w>":7611,"ifican":7612,"Compilation</w>":7613,"ARGB</w>":7614,"Scrap</w>":7615,"Comm":7616,"auto":7617,"transl":7618,"ipants</w>":7619,"SAFE</w>":7620,"Namespaces</w>":7621,"Editable</w>":7622,"SOUTH</w>":7623,"Outside</w>":7624,"counters</w>":7625,"csq</w>":7626,"roots</w>":7627,"DELIM":7628,"Closeable</w>":7629,"Front</w>":7630,"JPEG</w>":7631,"CAP":7632,"EQU":7633,"Fri":7634,"Foc":7635,"Nr</w>":7636,"Push</w>":7637,"SL</w>":7638,"hol":7639,"saml</w>":7640,"revision</w>":7641,"neg</w>":7642,"tel":7643,"actu":7644,"diag</w>":7645,"Endian</w>":7646,"perm</w>":7647,"Proj</w>":7648,"shor":7649,"Topology</w>":7650,"copied</w>":7651,"beat</w>":7652,"Fact</w>":7653,"Trm</w>":7654,"TAIN":7655,"executed</w>":7656,"Automaton</w>":7657,"TRA":7658,"baseline</w>":7659,"theme</w>":7660,"invocation</w>":7661,"Cancelled</w>":7662,"stripe</w>":7663,"Speech</w>":7664,"substitution</w>":7665,"Ticks</w>":7666,"Launch</w>":7667,"THRESHO":7668,"SIZEPOLICY</w>":7669,"dm</w>":7670,"dh</w>":7671,"ei</w>":7672,"fname</w>":7673,"pv</w>":7674,"oni":7675,"itoring</w>":7676,"Bug</w>":7677,"ignor":7678,"pause</w>":7679,"Spinner</w>":7680,"repl":7681,"ACTIVE</w>":7682,"ateway</w>":7683,"Filled</w>":7684,"Audit</w>":7685,"Credentials</w>":7686,"IDFF</w>":7687,"LOCATION</w>":7688,"terminal</w>":7689,"sized</w>":7690,"NORMAL</w>":7691,"functions</w>":7692,"rho</w>":7693,"ISO</w>":7694,"FE":7695,"HD":7696,"dence</w>":7697,"freq</w>":7698,"ple</w>":7699,"reload</w>":7700,"leset</w>":7701,"tem":7702,"challenge</w>":7703,"Light</w>":7704,"unpack":7705,"exc</w>":7706,"applies</w>":7707,"INTE":7708,"ATURE</w>":7709,"Spi</w>":7710,"expressions</w>":7711,"minuend</w>":7712,"handlers</w>":7713,"Identifi":7714,"Keeper</w>":7715,"iods</w>":7716,"mains</w>":7717,"ssings</w>":7718,"MEDI":7719,"Invoke</w>":7720,"Daemon</w>":7721,"PROPERTIES</w>":7722,"partitions</w>":7723,"tmpi</w>":7724,"integers</w>":7725,"STORAGE</w>":7726,"Passed</w>":7727,"detect</w>":7728,"Saved</w>":7729,"aracteristic</w>":7730,"SYSTEM</w>":7731,"QUOTE</w>":7732,"Third</w>":7733,"THRESHOLD</w>":7734,"22</w>":7735,"FC</w>":7736,"JO":7737,"Other</w>":7738,"SK":7739,"atom</w>":7740,"altern":7741,"outh</w>":7742,"aping</w>":7743,"Paragraph</w>":7744,"Pawns</w>":7745,"checking</w>":7746,"aves</w>":7747,"subset</w>":7748,"REF</w>":7749,"repe":7750,"Shader</w>":7751,"DESCRI":7752,"tude</w>":7753,"Exponent</w>":7754,"linked</w>":7755,"UTES</w>":7756,"Contains</w>":7757,"mapped</w>":7758,"Minute</w>":7759,"White":7760,"argest</w>":7761,"sensitive</w>":7762,"Invoice</w>":7763,"adjusted</w>":7764,"Authentic":7765,"approx</w>":7766,"broadcast</w>":7767,"commit":7768,"persistent</w>":7769,"onetic</w>":7770,"Normalized</w>":7771,"longer</w>":7772,"Stored</w>":7773,"cedure</w>":7774,"something</w>":7775,"PACKAGE</w>":7776,"Buckets</w>":7777,"DTO</w>":7778,"Ddl</w>":7779,"Evi":7780,"Fed":7781,"Mess":7782,"SIN":7783,"Sources</w>":7784,"cbuf</w>":7785,"cache":7786,"fv</w>":7787,"fb</w>":7788,"qr</w>":7789,"ual</w>":7790,"atches</w>":7791,"covered</w>":7792,"oose</w>":7793,"INPUT</w>":7794,"paints</w>":7795,"compact</w>":7796,"collector</w>":7797,"Compaction</w>":7798,"Adv":7799,"gether</w>":7800,"rounds</w>":7801,"Disable</w>":7802,"DOW":7803,"DOMAIN</w>":7804,"Execute</w>":7805,"quotes</w>":7806,"attach</w>":7807,"Routing</w>":7808,"cards</w>":7809,"Username</w>":7810,"Scroller</w>":7811,"STORE</w>":7812,"VOLUM":7813,"SCHEMA</w>":7814,"SENSI":7815,"ALIGN</w>":7816,"Vectors</w>":7817,"Spring</w>":7818,"Book</w>":7819,"Cycle</w>":7820,"Fra":7821,"Half</w>":7822,"QL</w>":7823,"RS</w>":7824,"clen</w>":7825,"doub":7826,"eg</w>":7827,"pull</w>":7828,"qkm</w>":7829,"enough</w>":7830,"UMS</w>":7831,"ull":7832,"engths</w>":7833,"diagno":7834,"Contract</w>":7835,"jector</w>":7836,"Major</w>":7837,"protein</w>":7838,"Overlay</w>":7839,"later</w>":7840,"summary</w>":7841,"LINK</w>":7842,"Northing</w>":7843,"brow":7844,"capture</w>":7845,"pkm</w>":7846,"Foreign</w>":7847,"Partitions</w>":7848,"grid":7849,"observed</w>":7850,"Within</w>":7851,"click</w>":7852,"Effect</w>":7853,"flatten</w>":7854,"PASS":7855,"artbeat</w>":7856,"CEL</w>":7857,"ION</w>":7858,"Jvm</w>":7859,"VAR":7860,"blan":7861,"ek":7862,"elevation</w>":7863,"jmx</w>":7864,"llp</w>":7865,"rm":7866,"sine</w>":7867,"targets</w>":7868,"yy":7869,"reached</w>":7870,"roles</w>":7871,"ster":7872,"ecycle</w>":7873,"codec</w>":7874,"finity</w>":7875,"contexts</w>":7876,"Coder</w>":7877,"Buil":7878,"lash":7879,"credentials</w>":7880,"iditer</w>":7881,"now":7882,"ussian</w>":7883,"subscription</w>":7884,"Lex</w>":7885,"LON</w>":7886,"READ":7887,"weak</w>":7888,"CONTAIN":7889,"alog":7890,"Weapon</w>":7891,"Reporter</w>":7892,"Scheduled</w>":7893,"clause</w>":7894,"PROTO":7895,"limiters</w>":7896,"IDP</w>":7897,"SUPP":7898,"authority</w>":7899,"FORM</w>":7900,"Requirements</w>":7901,"Serializable</w>":7902,"capabilities</w>":7903,"incremental</w>":7904,"Black</w>":7905,"Structured</w>":7906,"bucket":7907,"Connectivity</w>":7908,"Scaled</w>":7909,"collapse</w>":7910,"Decoration</w>":7911,"Restriction</w>":7912,"unesc":7913,"onical":7914,"Cr":7915,"Lex":7916,"Mat</w>":7917,"cn</w>":7918,"ni</w>":7919,"tin":7920,"zoo":7921,"relevant</w>":7922,"atory</w>":7923,"itness</w>":7924,"build":7925,"console</w>":7926,"measu":7927,"abul":7928,"abstract</w>":7929,"breakpoint</w>":7930,"ock</w>":7931,"ERAL</w>":7932,"explo":7933,"beans</w>":7934,"Sun</w>":7935,"Combin":7936,"ACTIV":7937,"dating</w>":7938,"datas":7939,"validated</w>":7940,"PROCES":7941,"printf</w>":7942,"variant</w>":7943,"etc</w>":7944,"outline</w>":7945,"Clusters</w>":7946,"NEL</w>":7947,"Finish</w>":7948,"Trie</w>":7949,"CRC</w>":7950,"delegator</w>":7951,"marshal</w>":7952,"choice</w>":7953,"rawllpts</w>":7954,"flushes</w>":7955,"occurrences</w>":7956,"Superclass</w>":7957,"DELIMITER</w>":7958,"AU":7959,"CASE</w>":7960,"HAND":7961,"PC</w>":7962,"Place</w>":7963,"ab</w>":7964,"dfs</w>":7965,"glyph</w>":7966,"ha</w>":7967,"nout</w>":7968,"pdu</w>":7969,"qname</w>":7970,"tw":7971,"za</w>":7972,"magic</w>":7973,"quad</w>":7974,"Const</w>":7975,"las</w>":7976,"mod":7977,"prune</w>":7978,"rences</w>":7979,"interpo":7980,"Opt</w>":7981,"transforms</w>":7982,"ITH":7983,"Markers</w>":7984,"joint</w>":7985,"pem</w>":7986,"BOM</w>":7987,"quoted</w>":7988,"Look</w>":7989,"dao</w>":7990,"follow</w>":7991,"communication</w>":7992,"styles</w>":7993,"sification</w>":7994,"Delegator</w>":7995,"javax</w>":7996,"Multiple</w>":7997,"redund":7998,"stabli":7999,"Activated</w>":8000,"WRAP</w>":8001,"Brow":8002,"Bridge</w>":8003,"CES</w>":8004,"Dummy</w>":8005,"Rad</w>":8006,"Sip</w>":8007,"VN</w>":8008,"Xe</w>":8009,"bf</w>":8010,"name":8011,"numer":8012,"pseudo</w>":8013,"xc":8014,"ines</w>":8015,"inline</w>":8016,"orum</w>":8017,"ted":8018,"chun":8019,"Cos</w>":8020,"suitable</w>":8021,"able":8022,"docs</w>":8023,"izers</w>":8024,"Visual</w>":8025,"ENTRY</w>":8026,"Unsafe</w>":8027,"opts</w>":8028,"MAG":8029,"calculated</w>":8030,"these</w>":8031,"providers</w>":8032,"stride</w>":8033,"evaluation</w>":8034,"Localizable</w>":8035,"exclusive</w>":8036,"tmpl</w>":8037,"substitute</w>":8038,"Install</w>":8039,"Cros":8040,"SCROLL</w>":8041,"smallest</w>":8042,"INITIAL</w>":8043,"MULTI":8044,"Bool</w>":8045,"mr</w>":8046,"narrow</w>":8047,"snapshots</w>":8048,"inet</w>":8049,"inds</w>":8050,"insn</w>":8051,"tics</w>":8052,"urations</w>":8053,"neuron</w>":8054,"lead</w>":8055,"uldnt</w>":8056,"acl</w>":8057,"Couldnt</w>":8058,"qualifier</w>":8059,"Conflict</w>":8060,"nom":8061,"ERS</w>":8062,"ised</w>":8063,"Unary</w>":8064,"Short":8065,"fet":8066,"Facet</w>":8067,"ario</w>":8068,"Absent</w>":8069,"EXACT":8070,"serializable</w>":8071,"Subscription</w>":8072,"outside</w>":8073,"FORE":8074,"foreign</w>":8075,"compose</w>":8076,"bytebuffer</w>":8077,"Blanks</w>":8078,"Playlist</w>":8079,"sparse</w>":8080,"potential</w>":8081,"Subscriber</w>":8082,"Archive</w>":8083,"errmsg</w>":8084,"ignoring</w>":8085,"replacing</w>":8086,"INTEGER</w>":8087,"EXACTLY</w>":8088,"BT</w>":8089,"CLE":8090,"GUI</w>":8091,"Hit</w>":8092,"Palette</w>":8093,"fmt</w>":8094,"hold</w>":8095,"jdbc</w>":8096,"lbar</w>":8097,"ry":8098,"sce</w>":8099,"zip":8100,"anned</w>":8101,"cee":8102,"itself</w>":8103,"dims</w>":8104,"sequences</w>":8105,"works</w>":8106,"Lease</w>":8107,"RESP":8108,"spective</w>":8109,"material</w>":8110,"Intervals</w>":8111,"geometry</w>":8112,"Permitted</w>":8113,"afka</w>":8114,"POST</w>":8115,"Attached</w>":8116,"reserved</w>":8117,"highest</w>":8118,"retrieves</w>":8119,"surface</w>":8120,"neighbor</w>":8121,"Adjustment</w>":8122,"shuff":8123,"echan":8124,"BLACK</w>":8125,"OKE</w>":8126,"longest</w>":8127,"PASSWORD</w>":8128,">>=</w>":8129,"Git</w>":8130,"Itr</w>":8131,"KNN</w>":8132,"Rtl</w>":8133,"RMI</w>":8134,"df":8135,"family</w>":8136,"mmer</w>":8137,"planet</w>":8138,"sable</w>":8139,"rot</w>":8140,"celed</w>":8141,"qui":8142,"mpi":8143,"aper</w>":8144,"Proposal</w>":8145,"Serie</w>":8146,"Too</w>":8147,"Queries</w>":8148,"ACT</w>":8149,"objs</w>":8150,"SESSION</w>":8151,"Allocator</w>":8152,"FIER</w>":8153,"Notes</w>":8154,"CONTEXT</w>":8155,"New":8156,"Generated</w>":8157,"Binder</w>":8158,"FINI":8159,"overlap</w>":8160,"Dimensions</w>":8161,"write":8162,"radix</w>":8163,"Hosts</w>":8164,"ventory</w>":8165,"image":8166,"ALIAS</w>":8167,"Directories</w>":8168,"selects</w>":8169,"MILLISECONDS</w>":8170,"Strict</w>":8171,"effective</w>":8172,"Baseline</w>":8173,"SUCCESS</w>":8174,"actually</w>":8175,"BUT":8176,"Ce":8177,"Cls</w>":8178,"DP</w>":8179,"Fs</w>":8180,"MB</w>":8181,"TEST</w>":8182,"bp</w>":8183,"dto</w>":8184,"dum":8185,"hm</w>":8186,"jax":8187,"largest</w>":8188,"placement</w>":8189,"STROKE</w>":8190,"rid":8191,"Likelihood</w>":8192,"Comp</w>":8193,"Consi":8194,"Contexts</w>":8195,"Busy</w>":8196,"tot</w>":8197,"colli":8198,"pro</w>":8199,"Spans</w>":8200,"opping</w>":8201,"Predi":8202,"Transient</w>":8203,"keeper</w>":8204,"obtain</w>":8205,"iry</w>":8206,"Expiration</w>":8207,"bindings</w>":8208,"Checker</w>":8209,"Scheduler</w>":8210,"fact":8211,"overlay</w>":8212,"Trait</w>":8213,"HEX</w>":8214,"produce</w>":8215,"followed</w>":8216,"hashes</w>":8217,"Keyword</w>":8218,"BEGIN</w>":8219,"embedded</w>":8220,"FRACTION</w>":8221,"CHECK</w>":8222,"Bracket</w>":8223,"Polar</w>":8224,"Tabbed</w>":8225,"tells</w>":8226,"Blocking</w>":8227,"Can</w>":8228,"Cir":8229,"DSA</w>":8230,"Easting</w>":8231,"OFF</w>":8232,"Tw":8233,"TON</w>":8234,"WI":8235,"cw</w>":8236,"cu</w>":8237,"cdata</w>":8238,"gy</w>":8239,"ha":8240,"pnode</w>":8241,"tun":8242,"yp</w>":8243,"atural</w>":8244,"aring</w>":8245,"arded</w>":8246,"orite</w>":8247,"maph":8248,"Resize</w>":8249,"Fit</w>":8250,"extre":8251,"except</w>":8252,"parameter":8253,"curacy</w>":8254,"Parents</w>":8255,"Modules</w>":8256,"COT</w>":8257,"Compress</w>":8258,"bean":8259,"Shell</w>":8260,"DEL</w>":8261,"licies</w>":8262,"Iteration</w>":8263,"iterable</w>":8264,"discovery</w>":8265,"ticast</w>":8266,"scheduler</w>":8267,"backing</w>":8268,"gradient</w>":8269,"Dimension":8270,"laceholder</w>":8271,"displays</w>":8272,"Conditions</w>":8273,"plan</w>":8274,"coefficients</w>":8275,"Include</w>":8276,"DIRECT":8277,"Ignored</w>":8278,"SLASH</w>":8279,"because</w>":8280,"VALUES</w>":8281,"Federation</w>":8282,"VOLUME</w>":8283,"echanis":8284,"FOR</w>":8285,"Vdc</w>":8286,"avoid</w>":8287,"eues</w>":8288,"flex</w>":8289,"ior</w>":8290,"nz</w>":8291,"tal":8292,"want</w>":8293,"xc</w>":8294,"alized</w>":8295,"oun</w>":8296,"asl</w>":8297,"conten":8298,"distances</w>":8299,"oldest</w>":8300,"Seen</w>":8301,"short":8302,"Moves</w>":8303,"Adap":8304,"optionally</w>":8305,"Acl</w>":8306,"agg</w>":8307,"TYP":8308,"Neighb":8309,"schemas</w>":8310,"cular</w>":8311,"manag":8312,"Assigned</w>":8313,"PRES":8314,"training</w>":8315,"evaluates</w>":8316,"Country</w>":8317,"directly</w>":8318,"places</w>":8319,"Needs</w>":8320,"Slice</w>":8321,"Requested</w>":8322,"umbnail</w>":8323,"alogue</w>":8324,"MAGIC</w>":8325,"RESPON":8326,"FULL</w>":8327,"Lu":8328,"Navigation</w>":8329,"OID</w>":8330,"Plain</w>":8331,"Ri":8332,"SCO":8333,"XNI</w>":8334,"jm":8335,"pment</w>":8336,"xp</w>":8337,"xture</w>":8338,"intensity</w>":8339,"referen":8340,"trad</w>":8341,"sten</w>":8342,"ann</w>":8343,"STRE":8344,"ouched</w>":8345,"load":8346,"atis":8347,"Individual</w>":8348,"ass</w>":8349,"could</w>":8350,"voice</w>":8351,"prox":8352,"proto</w>":8353,"But</w>":8354,"models</w>":8355,"Seqno</w>":8356,"Pagin":8357,"Ancestor</w>":8358,"Spatial</w>":8359,"The</w>":8360,"gnized</w>":8361,"transitions</w>":8362,"Commands</w>":8363,"contour</w>":8364,"Keep</w>":8365,"Subrs</w>":8366,"provides</w>":8367,"Minor</w>":8368,"hosts</w>":8369,"PARENT</w>":8370,"FORM":8371,"reflect</w>":8372,"carbon</w>":8373,"Where</w>":8374,"Bounding</w>":8375,"bitr":8376,"speech</w>":8377,"FRAME</w>":8378,"CANCEL</w>":8379,"SHOW</w>":8380,"stopped</w>":8381,"severe</w>":8382,"enumerate</w>":8383,"Possible</w>":8384,"photo</w>":8385,"ibration</w>":8386,"14</w>":8387,"2d</w>":8388,"Ahead</w>":8389,"Clean</w>":8390,"DNS</w>":8391,"FRE":8392,"HI":8393,"LIT":8394,"Mtrl</w>":8395,"Offer</w>":8396,"Px</w>":8397,"RAT":8398,"TCP</w>":8399,"YES</w>":8400,"biome</w>":8401,"gzip</w>":8402,"jobs</w>":8403,"lpc</w>":8404,"ni":8405,"pn</w>":8406,"pg</w>":8407,"padded</w>":8408,"vlc</w>":8409,"restart</w>":8410,"ongs</w>":8411,"STER</w>":8412,"STAMP</w>":8413,"desk":8414,"fied</w>":8415,"Licen":8416,"triangle</w>":8417,"Directed</w>":8418,"Spannable</w>":8419,"REMO":8420,"ENDING</w>":8421,"generation</w>":8422,"iterate</w>":8423,"ANTI":8424,"Tetrad</w>":8425,"computed</w>":8426,"Repeat</w>":8427,"backward</w>":8428,"SHA</w>":8429,"overflow</w>":8430,"MEM":8431,"SOURCE</w>":8432,"Fault</w>":8433,"500</w>":8434,"Waiting</w>":8435,"letters</w>":8436,"analyze</w>":8437,"Escaped</w>":8438,"accumulated</w>":8439,"Privileg":8440,"secutive</w>":8441,"CONTAINER</w>":8442,"abulary</w>":8443,"13</w>":8444,"CMD</w>":8445,"East</w>":8446,"KS</w>":8447,"bd":8448,"even</w>":8449,"made</w>":8450,"ul</w>":8451,"wi</w>":8452,"yc</w>":8453,"trum</w>":8454,"allocation</w>":8455,"terance</w>":8456,"Log":8457,"hist</w>":8458,"Divider</w>":8459,"Separ":8460,"Mock</w>":8461,"pretty</w>":8462,"ANT</w>":8463,"Testing</w>":8464,"Need</w>":8465,"Asset</w>":8466,"Certificates</w>":8467,"localized</w>":8468,"modification</w>":8469,"plane</w>":8470,"Starting</w>":8471,"Success":8472,"separate</w>":8473,"SIGN</w>":8474,"CURRENT</w>":8475,"closeable</w>":8476,"Candidates</w>":8477,"FACTOR</w>":8478,"FILTER</w>":8479,"Choice</w>":8480,"Spots</w>":8481,"STATIC</w>":8482,"FOREGROUND</w>":8483,"Bon":8484,"Cal</w>":8485,"Dash</w>":8486,"Gi":8487,"NT</w>":8488,"OUS</w>":8489,"SI</w>":8490,"Ssl</w>":8491,"Snapshots</w>":8492,"bel":8493,"kill</w>":8494,"sdf</w>":8495,"inputs</w>":8496,"rebuild</w>":8497,"stu":8498,"STEP</w>":8499,"acent</w>":8500,"Instructions</w>":8501,"asing</w>":8502,"cot</w>":8503,"Redu":8504,"const</w>":8505,"distinct</w>":8506,"ternative</w>":8507,"unpack</w>":8508,"Proto</w>":8509,"Det":8510,"colour</w>":8511,"boxes</w>":8512,"ARCH</w>":8513,"ACCESS</w>":8514,"ONENT</w>":8515,"troid</w>":8516,"Generate</w>":8517,"Generation</w>":8518,"DIC":8519,"Appro":8520,"conditional</w>":8521,"lynom":8522,"NET":8523,"FOCU":8524,"datastore</w>":8525,"Legal</w>":8526,"wallet</w>":8527,"ather</w>":8528,"Aggregation</w>":8529,"completion</w>":8530,"WEE":8531,"occurrence</w>":8532,"activate</w>":8533,"assuming</w>":8534,"Issuer</w>":8535,"Modality</w>":8536,"above</w>":8537,"PROTOCOL</w>":8538,"redundant</w>":8539,"BUTTON</w>":8540,"CR</w>":8541,"DRE":8542,"IL</w>":8543,"IR</w>":8544,"JMX</w>":8545,"MR</w>":8546,"NNAME</w>":8547,"PV</w>":8548,"Ring</w>":8549,"Room</w>":8550,"Using</w>":8551,"bm</w>":8552,"bile</w>":8553,"centi":8554,"establi":8555,"fatal</w>":8556,"mals</w>":8557,"slope</w>":8558,"ugh":8559,"vis</w>":8560,"wkt</w>":8561,"inject</w>":8562,"ene":8563,"trast</w>":8564,"NUMER":8565,"alg</w>":8566,"annotated</w>":8567,"little</w>":8568,"atistic</w>":8569,"finer</w>":8570,"div</w>":8571,"projects</w>":8572,"polyline</w>":8573,"viol":8574,"Positive</w>":8575,"Sys</w>":8576,"entire</w>":8577,"weep</w>":8578,"UNSAFE</w>":8579,"corners</w>":8580,"descend":8581,"Marked</w>":8582,"ADAP":8583,"relational</w>":8584,"velope</w>":8585,"centr":8586,"ationship</w>":8587,"Secondary</w>":8588,"celer":8589,"mediately</w>":8590,"trees</w>":8591,"COLUMNNAME</w>":8592,"gridx</w>":8593,"picture</w>":8594,"Organization</w>":8595,"Photo</w>":8596,"lynomial</w>":8597,"Age</w>":8598,"BAD</w>":8599,"Bulk</w>":8600,"CF</w>":8601,"Cen":8602,"ET</w>":8603,"Precision</w>":8604,"Usb</w>":8605,"balance</w>":8606,"fri":8607,"ield</w>":8608,"xi</w>":8609,"ye</w>":8610,"STRI":8611,"Ind</w>":8612,"Refs</w>":8613,"resume</w>":8614,"divider</w>":8615,"part":8616,"para</w>":8617,"measured</w>":8618,"Dele":8619,"pages</w>":8620,"kemon</w>":8621,"keep":8622,"handling</w>":8623,"LEG":8624,"Upgrade</w>":8625,"Person</w>":8626,"initialization</w>":8627,"Variance</w>":8628,"ciph":8629,"accepted</w>":8630,"reflection</w>":8631,"Serialize</w>":8632,"lookahead</w>":8633,"offs</w>":8634,"capit":8635,"Clicked</w>":8636,"Printable</w>":8637,"median</w>":8638,"separators</w>":8639,"SELECTED</w>":8640,"derived</w>":8641,"Bias</w>":8642,"fieldid</w>":8643,"Deserializer</w>":8644,"Attempts</w>":8645,"AF":8646,"AG":8647,"Aware</w>":8648,"CM</w>":8649,"CAR":8650,"DURATION</w>":8651,"GIN":8652,"Hadoop</w>":8653,"PO</w>":8654,"PY</w>":8655,"RT</w>":8656,"SORT</w>":8657,"Sessions</w>":8658,"Tv</w>":8659,"WWN</w>":8660,"cname</w>":8661,"grit":8662,"noun":8663,"tls</w>":8664,"lege</w>":8665,"Extre":8666,"ase":8667,"Restore</w>":8668,"vice":8669,"exact</w>":8670,"extend</w>":8671,"searcher</w>":8672,"toggle</w>":8673,"nothing</w>":8674,"Diffe":8675,"Heights</w>":8676,"prepa":8677,"CODES</w>":8678,"ENCRYPT</w>":8679,"Prefixes</w>":8680,"ALG":8681,"Open":8682,"Opts</w>":8683,"Callable</w>":8684,"geom</w>":8685,"Certs</w>":8686,"shown</w>":8687,"PARTI":8688,"BOUN":8689,"Plane</w>":8690,"Outlier</w>":8691,"Guacamole</w>":8692,"saic</w>":8693,"Dependent</w>":8694,"scaling</w>":8695,"Caster</w>":8696,"View":8697,"WHIT":8698,"Publisher</w>":8699,"FERENCE</w>":8700,"Embedded</w>":8701,"artifact</w>":8702,"Marshaller</w>":8703,"Encrypted</w>":8704,"Given</w>":8705,"ughput</w>":8706,"grity</w>":8707,"FUN":8708,"GTS</w>":8709,"Groovy</w>":8710,"LC</w>":8711,"Pipeline</w>":8712,"RATE</w>":8713,"Ske":8714,"Slope</w>":8715,"Ts</w>":8716,"Utf</w>":8717,"XM":8718,"ZONE</w>":8719,"eli":8720,"easting</w>":8721,"hmac</w>":8722,"machine</w>":8723,"odd</w>":8724,"rr</w>":8725,"vdc</w>":8726,"relay</w>":8727,"refs</w>":8728,"tif</w>":8729,"Stub</w>":8730,"Dirs</w>":8731,"Parallel</w>":8732,"achable</w>":8733,"Overlap</w>":8734,"SECTION</w>":8735,"converter</w>":8736,"cubic</w>":8737,"Implemen":8738,"Abs</w>":8739,"Oracle</w>":8740,"Contacts</w>":8741,"CLI</w>":8742,"decoding</w>":8743,"mutation</w>":8744,"indicate</w>":8745,"carry</w>":8746,"Vetoable</w>":8747,"INTERNAL</w>":8748,"Partial</w>":8749,"JAV":8750,"aggregate</w>":8751,"tooltip</w>":8752,"sketch</w>":8753,"zier</w>":8754,"Substitution</w>":8755,"ificant</w>":8756,"ceeded</w>":8757,"17</w>":8758,"21</w>":8759,"AES</w>":8760,"Cli":8761,"Dy</w>":8762,"DPL":8763,"IMP":8764,"Roo":8765,"SR</w>":8766,"cn":8767,"glob</w>":8768,"knn</w>":8769,"nrows</w>":8770,"npt</w>":8771,"preserve</w>":8772,"rong</w>":8773,"wptr</w>":8774,"xm</w>":8775,"ark</w>":8776,"ouse":8777,"choose</w>":8778,"Reser":8779,"apk</w>":8780,"vities</w>":8781,"Dex</w>":8782,"shader</w>":8783,"Pause</w>":8784,"Least</w>":8785,"RETURN</w>":8786,"Attrib</w>":8787,"replaced</w>":8788,"Adj</w>":8789,"expire</w>":8790,"sink</w>":8791,"swc</w>":8792,"Weigh":8793,"naming</w>":8794,"pix</w>":8795,"membership</w>":8796,"certificates</w>":8797,"months</w>":8798,"bag</w>":8799,"textual</w>":8800,"Extractor</w>":8801,"divide</w>":8802,"attached</w>":8803,"smoo":8804,"Corners</w>":8805,"Starts</w>":8806,"OFFSE":8807,"highligh":8808,"playlist</w>":8809,"players</w>":8810,"Ellipse</w>":8811,"ideline</w>":8812,"Rotate</w>":8813,"listen</w>":8814,"Evaluation</w>":8815,"Widths</w>":8816,"EXTENSION</w>":8817,"Favorites</w>":8818,"ootstr":8819,"factoring</w>":8820,"RESPONSE</w>":8821,"DPLX</w>":8822,"AX":8823,"Hi</w>":8824,"IX</w>":8825,"SF</w>":8826,"VK</w>":8827,"bookmark</w>":8828,"ck":8829,"cases</w>":8830,"ever":8831,"fro":8832,"flic":8833,"hsb</w>":8834,"ji</w>":8835,"mg":8836,"mf</w>":8837,"might</w>":8838,"pn":8839,"rtcp</w>":8840,"infos</w>":8841,"ato":8842,"enqueue</w>":8843,"tidx</w>":8844,"alth</w>":8845,"sture</w>":8846,"ortable</w>":8847,"ulation</w>":8848,"readed</w>":8849,"righ":8850,"poses</w>":8851,"imals</w>":8852,"REL":8853,"ACITY</w>":8854,"custo":8855,"ANY</w>":8856,"north</w>":8857,"EXCE":8858,"Road</w>":8859,"orders</w>":8860,"Variant</w>":8861,"ADD</w>":8862,"classifier</w>":8863,"Attach</w>":8864,"Bayes</w>":8865,"Relations</w>":8866,"BOO":8867,"probabilities</w>":8868,"Authority</w>":8869,"directive</w>":8870,"cardinality</w>":8871,"Correction</w>":8872,"WARD</w>":8873,"CEL":8874,"When</w>":8875,"street</w>":8876,"stream":8877,"Partition":8878,"frontier</w>":8879,"migrate</w>":8880,"notifies</w>":8881,"taxon</w>":8882,"object":8883,"Slop</w>":8884,"Deployment</w>":8885,"residual</w>":8886,"Sheet</w>":8887,"human</w>":8888,"Recommendation</w>":8889,"Identifiers</w>":8890,"BA</w>":8891,"CER":8892,"Cpu</w>":8893,"Eval</w>":8894,"FLOW</w>":8895,"IR":8896,"Tbl</w>":8897,"VE":8898,"cum</w>":8899,"mut":8900,"san":8901,"tlement</w>":8902,"tness</w>":8903,"ender</w>":8904,"enario</w>":8905,"tid</w>":8906,"urp</w>":8907,"ony":8908,"ceed</w>":8909,"loom</w>":8910,"Inactive</w>":8911,"proper</w>":8912,"abort</w>":8913,"strb</w>":8914,"recycler</w>":8915,"recording</w>":8916,"compaction</w>":8917,"Quest</w>":8918,"Quad</w>":8919,"Should</w>":8920,"DEP":8921,"DECI":8922,"Interceptor</w>":8923,"intermediate</w>":8924,"Lock":8925,"markers</w>":8926,"UTC</w>":8927,"many</w>":8928,"edis</w>":8929,"Templates</w>":8930,"NEW":8931,"anguages</w>":8932,"Serialization</w>":8933,"Lattice</w>":8934,"installed</w>":8935,"SAMP":8936,"foreground</w>":8937,"Occup":8938,"grab</w>":8939,"composite</w>":8940,"AUTH":8941,"Problem</w>":8942,"MARKER</w>":8943,"optimize</w>":8944,"simulate</w>":8945,"Observed</w>":8946,"Cross</w>":8947,"staur":8948,"OUTPUT</w>":8949,"Soft</w>":8950,"Simil":8951,"truncated</w>":8952,"overrid":8953,"clearance</w>":8954,"similar</w>":8955,"detach</w>":8956,"committed</w>":8957,"maphore</w>":8958,"DIRECTORY</w>":8959,"TYPES</w>":8960,"License</w>":8961,"AWT</w>":8962,"Gateway</w>":8963,"Oid</w>":8964,"PM</w>":8965,"SMA":8966,"aes</w>":8967,"away</w>":8968,"even":8969,"ices</w>":8970,"msb</w>":8971,"pin":8972,"pipe</w>":8973,"vendor</w>":8974,"titude</w>":8975,"thread":8976,"article</w>":8977,"annot":8978,"decessor</w>":8979,"advice</w>":8980,"fic</w>":8981,"Experiment</w>":8982,"Rec</w>":8983,"esh</w>":8984,"proso":8985,"prompt</w>":8986,"mock</w>":8987,"spins</w>":8988,"give</w>":8989,"strlen</w>":8990,"compound</w>":8991,"reports</w>":8992,"protection</w>":8993,"best":8994,"duals</w>":8995,"icro":8996,"Allow</w>":8997,"Material</w>":8998,"registration</w>":8999,"datum</w>":9000,"ailability</w>":9001,"Floor</w>":9002,"Datap":9003,"still</w>":9004,"Attack</w>":9005,"Temporary</w>":9006,"Pusher</w>":9007,"utilization</w>":9008,"tabbed</w>":9009,"Coordinator</w>":9010,"goal</w>":9011,"COMMAN":9012,"charge</w>":9013,"gridy</w>":9014,"Recursive</w>":9015,"identifiers</w>":9016,"Density</w>":9017,"automatically</w>":9018,"WKT</w>":9019,"Providers</w>":9020,"SINGLE</w>":9021,"PRESSED</w>":9022,"bitrary</w>":9023,"overridden</w>":9024,"CAN</w>":9025,"Dx</w>":9026,"Dam":9027,"GLO":9028,"Lng</w>":9029,"RUN":9030,"RSA</w>":9031,"Sil":9032,"VID":9033,"XPATH</w>":9034,"btn</w>":9035,"gure</w>":9036,"hints</w>":9037,"lt</w>":9038,"sending</w>":9039,"sessions</w>":9040,"utions</w>":9041,"varray</w>":9042,"inher":9043,"along</w>":9044,"arb":9045,"outs</w>":9046,"cont</w>":9047,"engine":9048,"extent</w>":9049,"loco</w>":9050,"updating</w>":9051,"Distinct</w>":9052,"Colon</w>":9053,"ttl</w>":9054,"Compile</w>":9055,"aching</w>":9056,"Acquire</w>":9057,"handled</w>":9058,"Persistence</w>":9059,"cannot</w>":9060,"Autom":9061,"lines":9062,"fling</w>":9063,"LIG":9064,"initialise</w>":9065,"guid</w>":9066,"mise</w>":9067,"implemented</w>":9068,"coef</w>":9069,"terminate</w>":9070,"filepath</w>":9071,"differences</w>":9072,"split":9073,"SHADOW</w>":9074,"verified</w>":9075,"Scrollbar</w>":9076,"TIMESTAMP</w>":9077,"Fallback</w>":9078,"MILLIS</w>":9079,"Ascent</w>":9080,"codewords</w>":9081,"weighted</w>":9082,"weightx</w>":9083,"publish</w>":9084,"Turn</w>":9085,"CAPE</w>":9086,"Communication</w>":9087,"chunk":9088,"FOCUSED</w>":9089,"BY</w>":9090,"Co</w>":9091,"Glyph</w>":9092,"Pts</w>":9093,"PAD":9094,"Wi":9095,"boo":9096,"bulk</w>":9097,"dbg</w>":9098,"nu":9099,"natural</w>":9100,"ol</w>":9101,"pan":9102,"use":9103,"vx</w>":9104,"wr</w>":9105,"xmin</w>":9106,"inted</w>":9107,"retain</w>":9108,"nes</w>":9109,"ffected</w>":9110,"immutable</w>":9111,"Ener":9112,"Prompt</w>":9113,"checker</w>":9114,"Quick</w>":9115,"Recover":9116,"Recover</w>":9117,"intern":9118,"escapes</w>":9119,"Expire</w>":9120,"disabled</w>":9121,"swit":9122,"miss</w>":9123,"signs</w>":9124,"Repe":9125,"Packed</w>":9126,"Datum</w>":9127,"okies</w>":9128,"POOL</w>":9129,"gramm":9130,"SPAC":9131,"SCRE":9132,"sibling</w>":9133,"wipro</w>":9134,"indicator</w>":9135,"caret</w>":9136,"Counters</w>":9137,"WORK</w>":9138,"Displayed</w>":9139,"Grab</w>":9140,"Keyboard</w>":9141,"INTERVAL</w>":9142,"walk</w>":9143,"dbf</w>":9144,"MENTS</w>":9145,"reassemb":9146,"MODAL</w>":9147,"BINARY</w>":9148,"Participant</w>":9149,"SRC</w>":9150,"Wrapped</w>":9151,"bdre</w>":9152,"WHITESPACE</w>":9153,"Glass</w>":9154,"Im</w>":9155,"Kb</w>":9156,"Osm</w>":9157,"PP</w>":9158,"Ping</w>":9159,"WIT":9160,"blen</w>":9161,"got</w>":9162,"ients</w>":9163,"json":9164,"ne</w>":9165,"sns</w>":9166,"tns</w>":9167,"vor</w>":9168,"win</w>":9169,"iner</w>":9170,"stub</w>":9171,"arn</w>":9172,"newe":9173,"lic</w>":9174,"dempi":9175,"action":9176,"procedure</w>":9177,"unread</w>":9178,"Chron":9179,"Logical</w>":9180,"Poll</w>":9181,"nos</w>":9182,"shapes</w>":9183,"paque</w>":9184,"Anti</w>":9185,"scene</w>":9186,"Topics</w>":9187,"Recording</w>":9188,"Atts</w>":9189,"transformation</w>":9190,"Ident</w>":9191,"getting</w>":9192,"Nested</w>":9193,"Necessary</w>":9194,"affix</w>":9195,"ESCAPE</w>":9196,"printing</w>":9197,"MODEL</w>":9198,"Throttle</w>":9199,"lower":9200,"Terrain</w>":9201,"etty</w>":9202,"Histogram</w>":9203,"Working</w>":9204,"hot":9205,"gravity</w>":9206,"STANT</w>":9207,"Inclusive</w>":9208,"CHARS</w>":9209,"Nums</w>":9210,"clicked</w>":9211,"replica</w>":9212,"ideal</w>":9213,"Readable</w>":9214,"resultset</w>":9215,"entropy</w>":9216,"quantile</w>":9217,"asynchronous</w>":9218,"DOWN":9219,"nowle":9220,"STREAM</w>":9221,"AXIS</w>":9222,"BUND":9223,"Critical</w>":9224,"DC</w>":9225,"Glow</w>":9226,"IF</w>":9227,"IST":9228,"OC":9229,"SOR</w>":9230,"XS</w>":9231,"adecimal</w>":9232,"azimuth</w>":9233,"cmd":9234,"far</w>":9235,"google</w>":9236,"hits</w>":9237,"tb</w>":9238,"inting</w>":9239,"ater":9240,"trin":9241,"stone</w>":9242,"Inverted</w>":9243,"chase</w>":9244,"rains</w>":9245,"esti":9246,"sual":9247,"Pow</w>":9248,"together</w>":9249,"sym":9250,"RES</w>":9251,"isect</w>":9252,"Prefs</w>":9253,"Configs</w>":9254,"Shopping</w>":9255,"endable</w>":9256,"DELAY</w>":9257,"Alt</w>":9258,"datatype</w>":9259,"weka</w>":9260,"Filtered</w>":9261,"label":9262,"Datatype</w>":9263,"invokes</w>":9264,"Related</w>":9265,"sparency</w>":9266,"frame":9267,"recover</w>":9268,"bytecode</w>":9269,"CHARAC":9270,"router</w>":9271,"hexadecimal</w>":9272,"masked</w>":9273,"arrier</w>":9274,"looks</w>":9275,"unpacks</w>":9276,"Messaging</w>":9277,"zookeeper</w>":9278,"interpolate</w>":9279,"Newline</w>":9280,"referenced</w>":9281,"ootstrap</w>":9282,"newelem</w>":9283,"Bidi</w>":9284,"LY":9285,"NBT</w>":9286,"Pk":9287,"Plugins</w>":9288,"RU":9289,"TC</w>":9290,"blocking</w>":9291,"cations</w>":9292,"cdf</w>":9293,"iff</w>":9294,"ker":9295,"lng</w>":9296,"nul":9297,"pen":9298,"sound</w>":9299,"vv</w>":9300,"yield</w>":9301,"regs</w>":9302,"aning</w>":9303,"turns</w>":9304,"Instr":9305,"asures</w>":9306,"Reject</w>":9307,"Like</w>":9308,"dic</w>":9309,"estions</w>":9310,"igfs</w>":9311,"iguous</w>":9312,"Pod</w>":9313,"appear</w>":9314,"abb":9315,"shp</w>":9316,"Models</w>":9317,"Movie</w>":9318,"andwidth</w>":9319,"complex</w>":9320,"Attributed</w>":9321,"Advice</w>":9322,"Additional</w>":9323,"expandable</w>":9324,"again</w>":9325,"Shards</w>":9326,"Interpolator</w>":9327,"aught</w>":9328,"ORITH":9329,"imports</w>":9330,"validity</w>":9331,"tick":9332,"soft</w>":9333,"extras</w>":9334,"connector</w>":9335,"Months</w>":9336,"Unix</w>":9337,"bais</w>":9338,"mur</w>":9339,"logout</w>":9340,"cene</w>":9341,"wide</w>":9342,"looking</w>":9343,"allment</w>":9344,"terminated</w>":9345,"built</w>":9346,"dulus</w>":9347,"cumulative</w>":9348,"effect</w>":9349,"ookmarks</w>":9350,"Small</w>":9351,"concatenate</w>":9352,"stylesheet</w>":9353,"Rollback</w>":9354,"Effec":9355,"truncate</w>":9356,"successful</w>":9357,"Expansion</w>":9358,"ippet</w>":9359,"Gaussian</w>":9360,"doubles</w>":9361,"xctxt</w>":9362,"ALGORITH":9363,"dempiere</w>":9364,"BUNDLE</w>":9365,"80</w>":9366,"Duplicate</w>":9367,"Grid":9368,"HASH</w>":9369,"PU":9370,"PULL</w>":9371,"West</w>":9372,"gge":9373,"va</w>":9374,"yet</w>":9375,"inste":9376,"increase</w>":9377,"redo</w>":9378,"recomm":9379,"arbitrary</w>":9380,"any":9381,"Rewrite</w>":9382,"React</w>":9383,"moving</w>":9384,"movie</w>":9385,"unused</w>":9386,"sett":9387,"histogram</w>":9388,"sers</w>":9389,"fav":9390,"Tok</w>":9391,"COPY</w>":9392,"boxed</w>":9393,"ARE</w>":9394,"Opacity</w>":9395,"Iterations</w>":9396,"Transformation</w>":9397,"Explo":9398,"LISH</w>":9399,"relations</w>":9400,"Apk</w>":9401,"guess</w>":9402,"North</w>":9403,"Warehouse</w>":9404,"Trip</w>":9405,"responses</w>":9406,"Corner</w>":9407,"Regular</w>":9408,"duling</w>":9409,"lexer</w>":9410,"CHANGE</w>":9411,"connects</w>":9412,"replicator</w>":9413,"skips</w>":9414,"startpos</w>":9415,"change":9416,"SNMP</w>":9417,"Derived</w>":9418,"Estimate</w>":9419,"occupied</w>":9420,"Green</w>":9421,"dimensionality</w>":9422,"DESCRIPTION</w>":9423,"READY</w>":9424,"RATIO</w>":9425,"desktop</w>":9426,"Lockout</w>":9427,"arbage</w>":9428,"BP</w>":9429,"JS</w>":9430,"Latch</w>":9431,"Pin</w>":9432,"RC":9433,"dinal</w>":9434,"hdr</w>":9435,"jdk</w>":9436,"rtn</w>":9437,"slen</w>":9438,"tw</w>":9439,"tle</w>":9440,"ww</w>":9441,"intext</w>":9442,"ertext</w>":9443,"stack":9444,"STRU":9445,"cement</w>":9446,"umentation</w>":9447,"ypo":9448,"lab</w>":9449,"immediately</w>":9450,"gion</w>":9451,"INIT</w>":9452,"paren":9453,"Pages</w>":9454,"Mobile</w>":9455,"prep":9456,"andatory</w>":9457,"Ack</w>":9458,"expiration</w>":9459,"draw":9460,"phrase</w>":9461,"ACKET</w>":9462,"Locks</w>":9463,"SEARCH</w>":9464,"startup</w>":9465,"CONSTANT</w>":9466,"packets</w>":9467,"correc":9468,"facet</w>":9469,"soc</w>":9470,"POW</w>":9471,"hole</w>":9472,"Decomp":9473,"Blue</w>":9474,"PIX":9475,"WAIT</w>":9476,"nexp":9477,"overrides</w>":9478,"Consump</w>":9479,"Discard</w>":9480,"Objective</w>":9481,"NOTIFICATION</w>":9482,"Browser</w>":9483,"shuffle</w>":9484,"mgrs</w>":9485,"DECIMAL</w>":9486,"ALGORITHM</w>":9487,"23</w>":9488,"264</w>":9489,"86":9490,"Adempiere</w>":9491,"BC</w>":9492,"BORDER</w>":9493,"Gatt</w>":9494,"Js</w>":9495,"Scre":9496,"Voc":9497,"WER</w>":9498,"caches</w>":9499,"gmt</w>":9500,"kpoints</w>":9501,"pipeline</w>":9502,"qu</w>":9503,"sso":9504,"rewrite</w>":9505,"attribu":9506,"tim</w>":9507,"tige</w>":9508,"STOP</w>":9509,"definitions</w>":9510,"Ints</w>":9511,"Inside</w>":9512,"coll</w>":9513,"Station</w>":9514,"apses</w>":9515,"head":9516,"Parcel</w>":9517,"pagin":9518,"scans</w>":9519,"LOAD":9520,"REFERENCE</w>":9521,"renders</w>":9522,"angular</w>":9523,"Lag</w>":9524,"explicit</w>":9525,"SIST":9526,"minator</w>":9527,"riptions</w>":9528,"Handles</w>":9529,"iterates</w>":9530,"arraylist</w>":9531,"LET":9532,"regions</w>":9533,"executing</w>":9534,"signing</w>":9535,"packages</w>":9536,"correlation</w>":9537,"extracted</w>":9538,"utc</w>":9539,"newsize</w>":9540,"PREF</w>":9541,"graphical</w>":9542,"traverse</w>":9543,"Comparison</w>":9544,"Termination</w>":9545,"CONNECT</w>":9546,"subscriber</w>":9547,"Scaling</w>":9548,"Turnout</w>":9549,"scanning</w>":9550,"CHECK":9551,"Style":9552,"occurs</w>":9553,"collections</w>":9554,"lashes</w>":9555,"Twitter</w>":9556,"Pagination</w>":9557,"WEEK</w>":9558,"VIDER</w>":9559,"instead</w>":9560,"88":9561,"Crc</w>":9562,"HDS</w>":9563,"Rs</w>":9564,"Vcenter</w>":9565,"Wwn</w>":9566,"aned</w>":9567,"dtm</w>":9568,"etag</w>":9569,"ging</w>":9570,"gray</w>":9571,"hull</w>":9572,"olen</w>":9573,"rw</w>":9574,"rint</w>":9575,"xid</w>":9576,"atable</w>":9577,"tru":9578,"negate</w>":9579,"accuracy</w>":9580,"adoc</w>":9581,"asset</w>":9582,"cover":9583,"coverage</w>":9584,"Reminder</w>":9585,"ims</w>":9586,"Ends</w>":9587,"trie</w>":9588,"upon</w>":9589,"Sea</w>":9590,"stepnode</w>":9591,"Via</w>":9592,"word":9593,"Spli":9594,"Recon":9595,"ague</w>":9596,"tenance</w>":9597,"drawer</w>":9598,"Scene</w>":9599,"ALT</w>":9600,"SEG</w>":9601,"transactions</w>":9602,"canonical":9603,"Secs</w>":9604,"Assoc</w>":9605,"descriptors</w>":9606,"Packets</w>":9607,"Dragging</w>":9608,"Trail</w>":9609,"argb</w>":9610,"authorization</w>":9611,"strict</w>":9612,"Latest</w>":9613,"Latency</w>":9614,"fut</w>":9615,"instal":9616,"charsequence</w>":9617,"DIRECTION</w>":9618,"Prestige</w>":9619,"identified</w>":9620,"PLAY":9621,"field":9622,"drive</w>":9623,"Taxon</w>":9624,"Privileged</w>":9625,"Successful</w>":9626,"NUMERIC</w>":9627,"ADAPTOR</w>":9628,"prepares</w>":9629,"19":9630,"Flu":9631,"Isilon</w>":9632,"KE</w>":9633,"Oval</w>":9634,"Pin":9635,"Sleep</w>":9636,"cy":9637,"fers</w>":9638,"func":9639,"hr":9640,"ipped</w>":9641,"men</w>":9642,"of":9643,"var":9644,"vmid</w>":9645,"xform</w>":9646,"yth":9647,"your</w>":9648,"instr":9649,"traf":9650,"alphabet</w>":9651,"oral</w>":9652,"ances</w>":9653,"tely</w>":9654,"cep</w>":9655,"dige":9656,"Polyline</w>":9657,"apped</w>":9658,"appending</w>":9659,"Searcher</w>":9660,"Paren</w>":9661,"Toggle</w>":9662,"subtree</w>":9663,"Recorder</w>":9664,"Unpack</w>":9665,"behavior</w>":9666,"Comma</w>":9667,"translates</w>":9668,"LEAN</w>":9669,"signer</w>":9670,"Abort</w>":9671,"backend</w>":9672,"cim</w>":9673,"represent</w>":9674,"Pivot</w>":9675,"Joint</w>":9676,"overwrite</w>":9677,"includes</w>":9678,"decl</w>":9679,"Union</w>":9680,"utils</w>":9681,"THER</w>":9682,"traversal</w>":9683,"ENGLISH</w>":9684,"Cube</w>":9685,"deno":9686,"Tracks</w>":9687,"dataarray</w>":9688,"participants</w>":9689,"ximity</w>":9690,"Rotated</w>":9691,"Broker</w>":9692,"Downloads</w>":9693,"measurement</w>":9694,"ACTIVITY</w>":9695,"jaxb</w>":9696,"everything</w>":9697,"BOOLEAN</w>":9698,"COMMAND</w>":9699,"trinsic</w>":9700,"BAL</w>":9701,"Bands</w>":9702,"FX":9703,"LT</w>":9704,"VCARD</w>":9705,"co</w>":9706,"miter</w>":9707,"na":9708,"noun</w>":9709,"psz</w>":9710,"qty</w>":9711,"sen</w>":9712,"source":9713,"wild":9714,"inverted</w>":9715,"rers</w>":9716,"reconnect</w>":9717,"dex":9718,"demo</w>":9719,"Strength</w>":9720,"reas</w>":9721,"Refactoring</w>":9722,"Copi":9723,"Controls</w>":9724,"unwrap</w>":9725,"imize</w>":9726,"sphere</w>":9727,"setter</w>":9728,"abri":9729,"Devices</w>":9730,"Search":9731,"compression</w>":9732,"prs</w>":9733,"comm</w>":9734,"Quorum</w>":9735,"RECO":9736,"REAL":9737,"Compact</w>":9738,"Fork</w>":9739,"aux</w>":9740,"SES</w>":9741,"ORTED</w>":9742,"FIXED</w>":9743,"Transactions</w>":9744,"Behavior</w>":9745,"Repl</w>":9746,"Distribu":9747,"ordering</w>":9748,"sums</w>":9749,"Closing</w>":9750,"invoice</w>":9751,"LABLE</w>":9752,"Executable</w>":9753,"merges</w>":9754,"trait</w>":9755,"shair</w>":9756,"inserted</w>":9757,"Correct</w>":9758,"ATTRIBUTES</w>":9759,"snmp</w>":9760,"crossings</w>":9761,"Terminated</w>":9762,"Nano</w>":9763,"uplicates</w>":9764,"Connective</w>":9765,"simulation</w>":9766,"slack</w>":9767,"Stores</w>":9768,"listening</w>":9769,"FOLDER</w>":9770,"Continuous</w>":9771,"RESULT</w>":9772,"widgets</w>":9773,"alternate</w>":9774,"echanism</w>":9775,"prosody</w>":9776,"GLOBAL</w>":9777,"nowledge</w>":9778,"Big":9779,"BIT":9780,"BLOCK":9781,"DSS</w>":9782,"Fatal</w>":9783,"Ground</w>":9784,"HA</w>":9785,"Jav":9786,"Lengths</w>":9787,"Msrp</w>":9788,"Rates</w>":9789,"Wall</w>":9790,"boot</w>":9791,"emp":9792,"icons</w>":9793,"mouse":9794,"nchars</w>":9795,"ph</w>":9796,"scre":9797,"tar</w>":9798,"vsb</w>":9799,"xa</w>":9800,"xing</w>":9801,"xmax</w>":9802,"inf</w>":9803,"redis</w>":9804,"pun":9805,"rad</w>":9806,"Regs</w>":9807,"question</w>":9808,"dict</w>":9809,"perform":9810,"periods</w>":9811,"versions</w>":9812,"triple</w>":9813,"apps</w>":9814,"server":9815,"INSER":9816,"Systems</w>":9817,"octet</w>":9818,"copy":9819,"common":9820,"subaction</w>":9821,"agonal</w>":9822,"endpoints</w>":9823,"aud</w>":9824,"imported</w>":9825,"Data":9826,"operators</w>":9827,"POS</w>":9828,"Creator</w>":9829,"flat</w>":9830,"Canceled</w>":9831,"LAY":9832,"workers</w>":9833,"Validity</w>":9834,"resolution</w>":9835,"Animations</w>":9836,"TERMIN":9837,"alifiers</w>":9838,"bounded</w>":9839,"opening</w>":9840,"Vol</w>":9841,"predictor</w>":9842,"intersections</w>":9843,"TIONAL</w>":9844,"Cleanup</w>":9845,"Included</w>":9846,"observers</w>":9847,"Analyzer</w>":9848,"Directive</w>":9849,"Managers</w>":9850,"declaring</w>":9851,"early</w>":9852,"resulting</w>":9853,"ALIGN":9854,"SCROLL":9855,"Interest</w>":9856,"Selectable</w>":9857,"EDGE</w>":9858,"Scripts</w>":9859,"browser</w>":9860,"Bonus</w>":9861,"traffic</w>":9862,"000</w>":9863,"Amp</w>":9864,"ARE":9865,"Cv</w>":9866,"CY</w>":9867,"DONE</w>":9868,"FON":9869,"GMENT</w>":9870,"Lar":9871,"RT":9872,"Rand</w>":9873,"ai</w>":9874,"cam":9875,"ctrl</w>":9876,"iis</w>":9877,"ites</w>":9878,"ki</w>":9879,"kil":9880,"ld":9881,"len":9882,"lst</w>":9883,"lbl</w>":9884,"rdf</w>":9885,"sons</w>":9886,"sname</w>":9887,"wid</w>":9888,"incomplete</w>":9889,"three</w>":9890,"urons</w>":9891,"stam":9892,"ded":9893,"loaders</w>":9894,"actional</w>":9895,"itation</w>":9896,"atives</w>":9897,"mail":9898,"poi</w>":9899,"vic":9900,"paragraph</w>":9901,"idr</w>":9902,"privi":9903,"Mast</w>":9904,"Colli":9905,"Degree</w>":9906,"calibration</w>":9907,"Outer</w>":9908,"oct</w>":9909,"subclasses</w>":9910,"TIM":9911,"Sha</w>":9912,"ALIZ":9913,"sqle</w>":9914,"Expressions</w>":9915,"printable</w>":9916,"NAMES</w>":9917,"LIT</w>":9918,"LIMIT</w>":9919,"wheel</w>":9920,"cial</w>":9921,"Terrains</w>":9922,"META</w>":9923,"Backward</w>":9924,"visibility</w>":9925,"Facets</w>":9926,"LINE":9927,"Sink</w>":9928,"adjustment</w>":9929,"indexed</w>":9930,"Reflection</w>":9931,"building</w>":9932,"increments</w>":9933,"lyphs</w>":9934,"sampling</w>":9935,"Theta</w>":9936,"superclass</w>":9937,"RADIUS</w>":9938,"Destroy</w>":9939,"interpreter</w>":9940,"restriction</w>":9941,"releases</w>":9942,"Advance</w>":9943,"SMALL</w>":9944,"LIGHT</w>":9945,"Boot</w>":9946,"Catch</w>":9947,"CRO":9948,"Dro":9949,"Gram</w>":9950,"GONE</w>":9951,"Hmmer</w>":9952,"Kafka</w>":9953,"TX</w>":9954,"bad":9955,"dles</w>":9956,"hdfs</w>":9957,"kc</w>":9958,"mute</w>":9959,"mmed</w>":9960,"tar":9961,"wl</w>":9962,"input":9963,"inflater</w>":9964,"ley</w>":9965,"league</w>":9966,"anger</w>":9967,"mag</w>":9968,"Reverse</w>":9969,"ooled</w>":9970,"propa":9971,"Are</w>":9972,"spacing</w>":9973,"verts</w>":9974,"service":9975,"tos</w>":9976,"too</w>":9977,"INVO":9978,"recipe</w>":9979,"Modes</w>":9980,"scm</w>":9981,"mated</w>":9982,"iso":9983,"expec":9984,"Algo</w>":9985,"FIT</w>":9986,"ANNER</w>":9987,"formul":9988,"Web":9989,"timezone</w>":9990,"templates</w>":9991,"SHED</w>":9992,"grams</w>":9993,"titles</w>":9994,"IDLE</w>":9995,"traces</w>":9996,"Outgoing</w>":9997,"Authorization</w>":9998,"comparable</w>":9999,"Assignments</w>":10000,"hashed</w>":10001,"allery</w>":10002,"cros":10003,"Scrolled</w>":10004,"Diagnostics</w>":10005,"Installed</w>":10006,"aggregation</w>":10007,"CLOSED</w>":10008,"concatenated</w>":10009,"Roll</w>":10010,"CORNER</w>":10011,"FACTORY</w>":10012,"Criterium</w>":10013,"DISALLOW</w>":10014,"lifecycle</w>":10015,"EXCEPTION</w>":10016,"Energy</w>":10017,"reassembled</w>":10018,"Stylesheet</w>":10019,"19</w>":10020,"Bookmark</w>":10021,"FY</w>":10022,"GRA":10023,"GRAY</w>":10024,"Icons</w>":10025,"King</w>":10026,"Less</w>":10027,"NA</w>":10028,"Ret</w>":10029,"Watcher</w>":10030,"bout</w>":10031,"cycle</w>":10032,"dout</w>":10033,"fk</w>":10034,"item":10035,"lu</w>":10036,"mult</w>":10037,"mim":10038,"nid</w>":10039,"pools</w>":10040,"sun":10041,"years</w>":10042,"alig":10043,"likelihood</w>":10044,"accessor</w>":10045,"Inputs</w>":10046,"Intrinsic</w>":10047,"Examples</w>":10048,"bum</w>":10049,"quer":10050,"mods</w>":10051,"person</w>":10052,"Position":10053,"upgrade</w>":10054,"domin":10055,"sterer</w>":10056,"izard</w>":10057,"acklist</w>":10058,"RECOR":10059,"entially</w>":10060,"expands</w>":10061,"structed</w>":10062,"instant</w>":10063,"tuation</w>":10064,"Notifi":10065,"Decor</w>":10066,"ipv":10067,"VALID":10068,"MIME</w>":10069,"doctype</w>":10070,"ADDRE":10071,"lacements</w>":10072,"IDENTI":10073,"SPLIT</w>":10074,"refresh":10075,"CRLF</w>":10076,"blk</w>":10077,"casts</w>":10078,"director</w>":10079,"offense</w>":10080,"wraps</w>":10081,"squared</w>":10082,"mkdir</w>":10083,"launcher</w>":10084,"Theme</w>":10085,"Calculation</w>":10086,"SIGNATURE</w>":10087,"Protocols</w>":10088,"Varargs</w>":10089,"Verifier</w>":10090,"Blocklet</w>":10091,"Postg":10092,"shifted</w>":10093,"extreme</w>":10094,"BOUNDS</w>":10095,"Viewport</w>":10096,"staurant</w>":10097,"Damage</w>":10098,"8601</w>":10099,"Bi</w>":10100,"Biome</w>":10101,"CP":10102,"EL":10103,"GU":10104,"Have</w>":10105,"Len":10106,"NX</w>":10107,"National</w>":10108,"NEXT</w>":10109,"Par</w>":10110,"RG":10111,"Sdk</w>":10112,"ben":10113,"dash</w>":10114,"fr</w>":10115,"happ":10116,"ktop</w>":10117,"know</w>":10118,"ms":10119,"pname</w>":10120,"ued</w>":10121,"vite</w>":10122,"xstream</w>":10123,"test":10124,"delimiters</w>":10125,"adle</w>":10126,"fired</w>":10127,"sir</w>":10128,"Invalidate</w>":10129,"Inflater</w>":10130,"cond</w>":10131,"quential</w>":10132,"dication</w>":10133,"ooks</w>":10134,"performed</w>":10135,"semi</w>":10136,"upper":10137,"shing</w>":10138,"INTER</w>":10139,"Mosaic</w>":10140,"Recip":10141,"Recipe</w>":10142,"Interpre":10143,"drain</w>":10144,"Transitions</w>":10145,"Called</w>":10146,"wake</w>":10147,"waiter</w>":10148,"datal":10149,"Nominal</w>":10150,"implied</w>":10151,"ipv</w>":10152,"cancelled</w>":10153,"Assign</w>":10154,"cloned</w>":10155,"Marks</w>":10156,"backed</w>":10157,"MOST</w>":10158,"Radial</w>":10159,"ECM</w>":10160,"Feel</w>":10161,"Rank</w>":10162,"newcount</w>":10163,"Dela":10164,"Logged</w>":10165,"SCANNER</w>":10166,"Desktop</w>":10167,"gredi":10168,"Sigma</w>":10169,"Extract</w>":10170,"goti":10171,"capability</w>":10172,"plaintext</w>":10173,"scalar</w>":10174,"RENDER":10175,"bitstream</w>":10176,"CHANNEL</w>":10177,"DIRECTED</w>":10178,"MILLISECOND</w>":10179,"scroller</w>":10180,"Charge</w>":10181,"Associated</w>":10182,"stddev</w>":10183,"protocols</w>":10184,"prediction</w>":10185,"SPECIFIED</w>":10186,"MEDIA</w>":10187,"SENSITIVE</w>":10188,"VARI":10189,"LEGAL</w>":10190,"AFTER</w>":10191,"JAVA</w>":10192,"NEWLINE</w>":10193,"setting":10194,"30</w>":10195,"Cr</w>":10196,"FRA":10197,"Google</w>":10198,"HR</w>":10199,"JEC":10200,"JDB":10201,"Lru</w>":10202,"Milliseconds</w>":10203,"Ps</w>":10204,"Rtp</w>":10205,"Sasl</w>":10206,"Wif":10207,"XSL":10208,"bd</w>":10209,"bool</w>":10210,"due</w>":10211,"hr</w>":10212,"heri":10213,"mor</w>":10214,"ofs</w>":10215,"phas</w>":10216,"san</w>":10217,"zzy</w>":10218,"strength</w>":10219,"leaves</w>":10220,"orized</w>":10221,"ceable</w>":10222,"celable</w>":10223,"acqu":10224,"actly</w>":10225,"Inc</w>":10226,"Limits</w>":10227,"diff":10228,"lazy</w>":10229,"examples</w>":10230,"tas</w>":10231,"applet</w>":10232,"Sequences</w>":10233,"ounded</w>":10234,"Viol":10235,"comps</w>":10236,"rendering</w>":10237,"containers</w>":10238,"repl</w>":10239,"Overwrite</w>":10240,"SIVE</w>":10241,"ALITY</w>":10242,"interrup":10243,"Always</w>":10244,"Alternative</w>":10245,"Behavi":10246,"Expandable</w>":10247,"discover</w>":10248,"Packages</w>":10249,"Discrete</w>":10250,"monitoring</w>":10251,"gorithms</w>":10252,"Pie</w>":10253,"tokenize</w>":10254,"Cannot</w>":10255,"Applet</w>":10256,"PERI":10257,"formatting</w>":10258,"production</w>":10259,"adjacent</w>":10260,"dividuals</w>":10261,"CONTIN":10262,"larger</w>":10263,"recursion</w>":10264,"Startup</w>":10265,"Occurren":10266,"ILITY</w>":10267,"Checkbox</w>":10268,"svg</w>":10269,"blocklet</w>":10270,"SELECTION</w>":10271,"emote</w>":10272,"Simulation</w>":10273,"smaller</w>":10274,"DRAW</w>":10275,"Delivery</w>":10276,"Objectives</w>":10277,"central</w>":10278,"Sketch</w>":10279,"PADDING</w>":10280,"FXG</w>":10281,"Interpreter</w>":10282,"herited</w>":10283,"Fits</w>":10284,"Krb</w>":10285,"LAT":10286,"MU":10287,"Opaque</w>":10288,"Tag":10289,"TEMP":10290,"USER":10291,"XSL</w>":10292,"case":10293,"etype</w>":10294,"full":10295,"hh</w>":10296,"ilo":10297,"ko":10298,"lsp</w>":10299,"nv</w>":10300,"rcs</w>":10301,"rmi</w>":10302,"inflate</w>":10303,"retries</w>":10304,"degree</w>":10305,"itors</w>":10306,"characteristic</w>":10307,"Real":10308,"controls</w>":10309,"contrast</w>":10310,"quar":10311,"fft</w>":10312,"throttle</w>":10313,"apache</w>":10314,"Mail":10315,"applied</w>":10316,"Dep</w>":10317,"Parsed</w>":10318,"pawn</w>":10319,"ATE":10320,"Toast</w>":10321,"COL":10322,"Quali":10323,"ENAME</w>":10324,"isn</w>":10325,"phon":10326,"minx</w>":10327,"Matched</w>":10328,"ampm</w>":10329,"Perspective</w>":10330,"Sections</w>":10331,"CONST</w>":10332,"UTM</w>":10333,"ggestions</w>":10334,"Aborted</w>":10335,"mant</w>":10336,"order":10337,"PROVIDER</w>":10338,"Subr</w>":10339,"ADMIN</w>":10340,"Random":10341,"lanation</w>":10342,"maxc</w>":10343,"SCSI</w>":10344,"Titled</w>":10345,"SUB</w>":10346,"Serialized</w>":10347,"Finite</w>":10348,"OPC</w>":10349,"Specs</w>":10350,"Guideline</w>":10351,"commun":10352,"triggers</w>":10353,"Completer</w>":10354,"Func</w>":10355,"interest</w>":10356,"lipboard</w>":10357,"Installment</w>":10358,"Smis</w>":10359,"ascript</w>":10360,"SCHEME</w>":10361,"Consumed</w>":10362,"Detector</w>":10363,"SETTINGS</w>":10364,"Codewords</w>":10365,"Parameterized</w>":10366,"Difference</w>":10367,"Weighted</w>":10368,"REALM</w>":10369,"INSERT</w>":10370,"IDENTIFIER</w>":10371,"JDBC</w>":10372,"Ct</w>":10373,"Dht</w>":10374,"Dpi</w>":10375,"Esr":10376,"Fl</w>":10377,"GO":10378,"HSB</w>":10379,"Just</w>":10380,"Lambda</w>":10381,"Plo":10382,"cash</w>":10383,"dz</w>":10384,"dup</w>":10385,"dlen</w>":10386,"gned</w>":10387,"has":10388,"ia</w>":10389,"ln":10390,"lg</w>":10391,"mds</w>":10392,"nbytes</w>":10393,"rfc</w>":10394,"touched</w>":10395,"xer</w>":10396,"ond</w>":10397,"aci</w>":10398,"atibility</w>":10399,"Incoming</w>":10400,"Review</w>":10401,"Cop":10402,"dialogue</w>":10403,"unless</w>":10404,"susp":10405,"Deep</w>":10406,"paused</w>":10407,"Head":10408,"ackets</w>":10409,"collected</w>":10410,"subtype</w>":10411,"subnet</w>":10412,"REGE":10413,"lug</w>":10414,"Sho":10415,"Interrupt</w>":10416,"ALS</w>":10417,"SEC":10418,"TASK</w>":10419,"Domains</w>":10420,"UNSPECIFIED</w>":10421,"binds</w>":10422,"swipe</w>":10423,"Regions</w>":10424,"TRACE</w>":10425,"SQU":10426,"Aligned</w>":10427,"Pieces</w>":10428,"Pub</w>":10429,"TOU":10430,"Money</w>":10431,"SCAN</w>":10432,"centroid</w>":10433,"keyboard</w>":10434,"Cut</w>":10435,"checkpoint</w>":10436,"Clazz</w>":10437,"coeffs</w>":10438,"BACKSLASH</w>":10439,"recovered</w>":10440,"tracks</w>":10441,"tracking</w>":10442,"CONNECTED</w>":10443,"Aggregator</w>":10444,"cfml</w>":10445,"Criterion</w>":10446,"FOLLOW":10447,"Expander</w>":10448,"EQUAL</w>":10449,"Whitebox</w>":10450,"descendant</w>":10451,"Roots</w>":10452,"abric</w>":10453,"XSLT</w>":10454,"Esri</w>":10455,"REGEX</w>":10456,"AAC</w>":10457,"BA":10458,"Bar":10459,"DU":10460,"Eg</w>":10461,"Fonts</w>":10462,"Group":10463,"IIO</w>":10464,"Land":10465,"MM</w>":10466,"Pid</w>":10467,"SING</w>":10468,"TING</w>":10469,"Vlan</w>":10470,"cpu</w>":10471,"cidr</w>":10472,"ea</w>":10473,"jc</w>":10474,"lvalue</w>":10475,"sorting</w>":10476,"wned</w>":10477,"ymin</w>":10478,"zones</w>":10479,"inters</w>":10480,"indx</w>":10481,"reject</w>":10482,"enclosing</w>":10483,"tiles</w>":10484,"urs</w>":10485,"delimited</w>":10486,"Stor":10487,"Rele":10488,"Resi":10489,"Revo":10490,"ressors</w>":10491,"didx</w>":10492,"Policies</w>":10493,"Polynomial</w>":10494,"applic":10495,"meter</w>":10496,"Deque</w>":10497,"white":10498,"rant</w>":10499,"ranches</w>":10500,"Ang":10501,"subclass</w>":10502,"ENT":10503,"Shapes</w>":10504,"DEL":10505,"obj":10506,"Calc</w>":10507,"Caller</w>":10508,"ment":10509,"datacenter</w>":10510,"sql":10511,"ticon</w>":10512,"ticker</w>":10513,"normals</w>":10514,"EXEC":10515,"DIAN</w>":10516,"LIST":10517,"TOP":10518,"Traffi":10519,"Faces</w>":10520,"Orig</w>":10521,"PAGIN":10522,"Authn</w>":10523,"offscreen</w>":10524,"omg</w>":10525,"ambiguous</w>":10526,"CONFIG":10527,"Presenter</w>":10528,"clients</w>":10529,"Decorator</w>":10530,"Broadcast</w>":10531,"fragments</w>":10532,"Widgets</w>":10533,"ardware</w>":10534,"PKCS</w>":10535,"randomly</w>":10536,"Sensision</w>":10537,"rink</w>":10538,"Translator</w>":10539,"builders</w>":10540,"smooth":10541,"linesadded</w>":10542,"nexpected</w>":10543,"Bigdata</w>":10544,"aligned</w>":10545,"Traffic</w>":10546,"By":10547,"BG</w>":10548,"Caches</w>":10549,"CKET</w>":10550,"EMENT</w>":10551,"GES</w>":10552,"Me</w>":10553,"OW":10554,"PBE</w>":10555,"Sf</w>":10556,"Sal":10557,"SLO":10558,"TAR":10559,"aw</w>":10560,"hor</w>":10561,"hat</w>":10562,"port":10563,"rng</w>":10564,"sd":10565,"sal":10566,"sul":10567,"srect</w>":10568,"tto":10569,"tbl</w>":10570,"xor</w>":10571,"review</w>":10572,"atched</w>":10573,"ste</w>":10574,"stale</w>":10575,"dean</w>":10576,"demand</w>":10577,"acro":10578,"ity":10579,"Retrie":10580,"dition</w>":10581,"dited</w>":10582,"promp":10583,"experiment</w>":10584,"spannable</w>":10585,"Loaders</w>":10586,"Poi</w>":10587,"sem":10588,"noa</w>":10589,"Defs</w>":10590,"Seek</w>":10591,"Answer</w>":10592,"andra</w>":10593,"Adb</w>":10594,"Adjust</w>":10595,"Shown</w>":10596,"Susp":10597,"SIC</w>":10598,"ALL":10599,"physical</w>":10600,"cleans</w>":10601,"cleaned</w>":10602,"property":10603,"Calls</w>":10604,"transformed</w>":10605,"Net":10606,"Volley</w>":10607,"ggers</w>":10608,"supply</w>":10609,"Prime</w>":10610,"Datacenter</w>":10611,"joins</w>":10612,"Subset</w>":10613,"shipment</w>":10614,"RAW</w>":10615,"archi":10616,"produces</w>":10617,"current":10618,"Swf</w>":10619,"saving</w>":10620,"lemental</w>":10621,"smooth</w>":10622,"Decoding</w>":10623,"Correlation</w>":10624,"sioned</w>":10625,"filesystem</w>":10626,"predictions</w>":10627,"EXPAN":10628,"bias</w>":10629,"polar</w>":10630,"concatenates</w>":10631,"collapsed</w>":10632,"clidean</w>":10633,"purge</w>":10634,"stringbuffer</w>":10635,"Association</w>":10636,"custom":10637,"Recovery</w>":10638,"SCREEN</w>":10639,"WITH</w>":10640,"symmetric</w>":10641,"Explorer</w>":10642,"Large</w>":10643,"formula</w>":10644,"Lenient</w>":10645,"Tagged</w>":10646,"caseless</w>":10647,"TOUCH</w>":10648,"PAGINATION</w>":10649,"AI":10650,"Abo":10651,"Cb</w>":10652,"CV</w>":10653,"Cat</w>":10654,"Hold</w>":10655,"JB":10656,"Moun":10657,"Pst</w>":10658,"Pla":10659,"Rename</w>":10660,"Tex</w>":10661,"WB":10662,"Wri":10663,"bar":10664,"dger</w>":10665,"dential</w>":10666,"eml</w>":10667,"gsten</w>":10668,"hts</w>":10669,"iae</w>":10670,"kn":10671,"latch</w>":10672,"mqtt</w>":10673,"national</w>":10674,"ob</w>":10675,"plugins</w>":10676,"satis":10677,"vative</w>":10678,"vlan</w>":10679,"watcher</w>":10680,"refe":10681,"refer":10682,"lian</w>":10683,"listed</w>":10684,"amed</w>":10685,"Inverse</w>":10686,"finalize</w>":10687,"conforms</w>":10688,"constructed</w>":10689,"qual</w>":10690,"esc</w>":10691,"ung</w>":10692,"exn</w>":10693,"extern":10694,"Envelope</w>":10695,"Magnitude</w>":10696,"applying</w>":10697,"aborted</w>":10698,"topics</w>":10699,"Seg</w>":10700,"shallow</w>":10701,"Most</w>":10702,"specs</w>":10703,"Thumbnail</w>":10704,"tences</w>":10705,"phonetic</w>":10706,"augs</w>":10707,"ACCES":10708,"assandra</w>":10709,"wagger</w>":10710,"conversation</w>":10711,"who</w>":10712,"DISP":10713,"descent</w>":10714,"Schemas</w>":10715,"operands</w>":10716,"FAIL":10717,"money</w>":10718,"uniform</w>":10719,"Throughput</w>":10720,"grp</w>":10721,"derive</w>":10722,"PREVI":10723,"Training</w>":10724,"outgoing</w>":10725,"While</w>":10726,"THING</w>":10727,"mbs</w>":10728,"Resolved</w>":10729,"Signing</w>":10730,"request":10731,"Finder</w>":10732,"Fingerprint</w>":10733,"Conditional</w>":10734,"indicating</w>":10735,"attack</w>":10736,"attack":10737,"described</w>":10738,"increases</w>":10739,"CHARSET</w>":10740,"assignments</w>":10741,"MARGIN</w>":10742,"activated</w>":10743,"toolbar</w>":10744,"Mib</w>":10745,"Hyper</w>":10746,"successfully</w>":10747,"MODULE</w>":10748,"Coefficients</w>":10749,"Grant</w>":10750,"http":10751,"identify</w>":10752,"XML":10753,"cmdcode</w>":10754,"ssoe</w>":10755,"LETTER</w>":10756,"digester</w>":10757,"wildcards</w>":10758,"RECORD</w>":10759,"RGBA</w>":10760,"Wifi</w>":10761,"Byte":10762,"Above</w>":10763,"Azimuth</w>":10764,"BATCH</w>":10765,"Bank</w>":10766,"CA</w>":10767,"Fd</w>":10768,"FP</w>":10769,"FG</w>":10770,"Fre":10771,"Face</w>":10772,"HIG":10773,"IE</w>":10774,"Nav</w>":10775,"RG</w>":10776,"Varray</w>":10777,"cand</w>":10778,"fitness</w>":10779,"hlp</w>":10780,"jp</w>":10781,"math</w>":10782,"pes</w>":10783,"qos</w>":10784,"sweep</w>":10785,"vh</w>":10786,"vey</w>":10787,"revi":10788,"onic</w>":10789,"aran":10790,"near</w>":10791,"lite</w>":10792,"ularity</w>":10793,"deg</w>":10794,"loy</w>":10795,"sil":10796,"Incre":10797,"Inventory</w>":10798,"Stale</w>":10799,"Rejected</w>":10800,"conflict</w>":10801,"diagonal</w>":10802,"profiles</w>":10803,"pot</w>":10804,"perms</w>":10805,"Probs</w>":10806,"sem</w>":10807,"segs</w>":10808,"apping</w>":10809,"notice</w>":10810,"ups</w>":10811,"Deviation</w>":10812,"INSIDE</w>":10813,"fake</w>":10814,"tains</w>":10815,"COOR":10816,"Quad":10817,"endly</w>":10818,"irrors</w>":10819,"initiate</w>":10820,"assna":10821,"implement</w>":10822,"UNI":10823,"statuses</w>":10824,"DIT</w>":10825,"NOT":10826,"solutions</w>":10827,"utterance</w>":10828,"Attacks</w>":10829,"Backend</w>":10830,"gures</w>":10831,"produced</w>":10832,"TERS</w>":10833,"Formatted</w>":10834,"populates</w>":10835,"Hostname</w>":10836,"causes</w>":10837,"HOME</w>":10838,"caps</w>":10839,"COMPLE":10840,"Strut</w>":10841,"Escapes</w>":10842,"issues</w>":10843,"consistent</w>":10844,"delivery</w>":10845,"Folders</w>":10846,"Ticket</w>":10847,"optimized</w>":10848,"Picture</w>":10849,"accumulator</w>":10850,"Tiles</w>":10851,"storical</w>":10852,"cfb</w>":10853,"DELIM</w>":10854,"changing</w>":10855,"Multipart</w>":10856,"passwd</w>":10857,"stdout</w>":10858,"scriptions</w>":10859,"recipients</w>":10860,"Building</w>":10861,"bucketspan</w>":10862,"Logout</w>":10863,"centile</w>":10864,"Vocabulary</w>":10865,"ADDRESS</w>":10866,"Copies</w>":10867,"semble</w>":10868,"assnah":10869,"417</w>":10870,"Bit":10871,"DD</w>":10872,"FV</w>":10873,"HAL":10874,"Humer":10875,"PH</w>":10876,"Pass":10877,"Ssa</w>":10878,"affected</w>":10879,"cid</w>":10880,"cator</w>":10881,"ga":10882,"hon":10883,"jang":10884,"mx":10885,"pure</w>":10886,"south</w>":10887,"ulian</w>":10888,"vex</w>":10889,"wed</w>":10890,"intro":10891,"retained</w>":10892,"restaurant</w>":10893,"life</w>":10894,"tear</w>":10895,"dep</w>":10896,"deviation</w>":10897,"oucher</w>":10898,"amble</w>":10899,"cha":10900,"consecutive</w>":10901,"dience</w>":10902,"modes</w>":10903,"exactly</w>":10904,"olds</w>":10905,"appears</w>":10906,"dot":10907,"Deferred</w>":10908,"shards</w>":10909,"INSENSITIVE</w>":10910,"Party</w>":10911,"strar</w>":10912,"Anim</w>":10913,"fails</w>":10914,"ATER</w>":10915,"RESET</w>":10916,"REMOVE</w>":10917,"ENDIAN</w>":10918,"reporting</w>":10919,"opacity</w>":10920,"Valued</w>":10921,"Acti":10922,"feat</w>":10923,"Try</w>":10924,"confidence</w>":10925,"ruleset</w>":10926,"whene":10927,"Asser":10928,"Checking</w>":10929,"warnings</w>":10930,"ATIONS</w>":10931,"editable</w>":10932,"pim</w>":10933,"PROGRE":10934,"Femur</w>":10935,"overall</w>":10936,"mercial</w>":10937,"PREFER":10938,"resolves</w>":10939,"Hive</w>":10940,"velo":10941,"acceptable</w>":10942,"ferable</w>":10943,"PAY":10944,"PARE":10945,"authn</w>":10946,"Physical</w>":10947,"lement":10948,"adju":10949,"simply</w>":10950,"mib</w>":10951,"mically</w>":10952,"hashtable</w>":10953,"COLON</w>":10954,"intere":10955,"integrity</w>":10956,"recognized</w>":10957,"PLU":10958,"neighbour</w>":10959,"connecting</w>":10960,"sampled</w>":10961,"chosen</w>":10962,"Styles</w>":10963,"SYNC</w>":10964,"Favorite</w>":10965,"CLUSIVE</w>":10966,"PKIX</w>":10967,"POINTER</w>":10968,"MAXIMUM</w>":10969,"diagnostics</w>":10970,"FINISHED</w>":10971,"celerator</w>":10972,"Datapo":10973,"boost</w>":10974,"AREA</w>":10975,"victim</w>":10976,"FAILURE</w>":10977,"PREVIOUS</w>":10978,"Humerus</w>":10979,"jangson</w>":10980,"whenever</w>":10981,"PROGRESS</w>":10982,"28</w>":10983,">>>=</w>":10984,"AF</w>":10985,"BACK</w>":10986,"Car</w>":10987,"DY":10988,"DT</w>":10989,"FB</w>":10990,"Fling</w>":10991,"Flip</w>":10992,"Fading</w>":10993,"GSS</w>":10994,"LR</w>":10995,"LATE</w>":10996,"MBO":10997,"Nonce</w>":10998,"OTHER</w>":10999,"Pan":11000,"Placeholder</w>":11001,"Twe":11002,"VLC</w>":11003,"WF</w>":11004,"Watch</w>":11005,"det</w>":11006,"gates</w>":11007,"gain</w>":11008,"mts</w>":11009,"nu</w>":11010,"oo</w>":11011,"pbe</w>":11012,"rpt</w>":11013,"sat":11014,"varrays</w>":11015,"xk</w>":11016,"xb</w>":11017,"zis</w>":11018,"remember</w>":11019,"tin</w>":11020,"alty</w>":11021,"stable</w>":11022,"leave</w>":11023,"ana</w>":11024,"anything</w>":11025,"pub":11026,"deferred</w>":11027,"derers</w>":11028,"logged</w>":11029,"acos</w>":11030,"Intensity</w>":11031,"assigns</w>":11032,"coder</w>":11033,"bugs</w>":11034,"contract</w>":11035,"lave</w>":11036,"pom</w>":11037,"igen":11038,"Lop</w>":11039,"Provisi":11040,"Death</w>":11041,"Sever":11042,"ttype</w>":11043,"Heartbeat</w>":11044,"scape</w>":11045,"Leader</w>":11046,"ENTIC":11047,"expiry</w>":11048,"feed</w>":11049,"feder":11050,"DESC</w>":11051,"SELF</w>":11052,"ITCH</w>":11053,"ASH":11054,"requencies</w>":11055,"Nearest</w>":11056,"clones</w>":11057,"worklist</w>":11058,"QUEST</w>":11059,"Classification</w>":11060,"THREAD</w>":11061,"PAINTER</w>":11062,"ifying</w>":11063,"CRO</w>":11064,"dense</w>":11065,"Guard</w>":11066,"PHASE</w>":11067,"participant</w>":11068,"consisting</w>":11069,"lexicon</w>":11070,"javascript</w>":11071,"Observable</w>":11072,"crypto</w>":11073,"Walker</w>":11074,"OVERFLOW</w>":11075,"multipart</w>":11076,"SIGNED</w>":11077,"Privilege</w>":11078,"Destroyed</w>":11079,"Slots</w>":11080,"Sampling</w>":11081,"GENER":11082,"indentation</w>":11083,"CAPACITY</w>":11084,"datasource</w>":11085,"two":11086,"CLEAR</w>":11087,"Reduce</w>":11088,"DEPTH</w>":11089,"SAMPLE</w>":11090,"AUTHENTIC":11091,"Silently</w>":11092,"lowercase</w>":11093,"Copied</w>":11094,"Datastore</w>":11095,"FONT</w>":11096,"Postgre</w>":11097,"Qualify</w>":11098,"Headless</w>":11099,"DELTA</w>":11100,"58</w>":11101,"BS</w>":11102,"Bsh</w>":11103,"Fu":11104,"Hdr</w>":11105,"JDK</w>":11106,"Macro</w>":11107,"NC</w>":11108,"Pg</w>":11109,"PW</w>":11110,"PUN":11111,"Ptrs</w>":11112,"SMB</w>":11113,"Xs</w>":11114,"YS</w>":11115,"aaa</w>":11116,"bb":11117,"bk</w>":11118,"gson</w>":11119,"hp</w>":11120,"languages</w>":11121,"mun":11122,"nar</w>":11123,"nbt</w>":11124,"od":11125,"omit</w>":11126,"rh</w>":11127,"rlen</w>":11128,"vl</w>":11129,"vd</w>":11130,"vt</w>":11131,"wm</w>":11132,"xo</w>":11133,"zoning</w>":11134,"revalidate</w>":11135,"stering</w>":11136,"lish</w>":11137,"defs</w>":11138,"deflater</w>":11139,"logi":11140,"iti</w>":11141,"Injector</w>":11142,"Exchange</w>":11143,"cookies</w>":11144,"elt</w>":11145,"Stacked</w>":11146,"concrete</w>":11147,"posts</w>":11148,"exchange</w>":11149,"idm</w>":11150,"Prod</w>":11151,"taken</w>":11152,"forces</w>":11153,"ound":11154,"Symbo":11155,"Anno</w>":11156,"color":11157,"Statuses</w>":11158,"expan":11159,"export":11160,"DEF</w>":11161,"ACTIONS</w>":11162,"Beans</w>":11163,"Respon":11164,"Implicit</w>":11165,"Near</w>":11166,"ULAR</w>":11167,"mantic</w>":11168,"ignite</w>":11169,"clauses</w>":11170,"utf":11171,"Synth</w>":11172,"overl":11173,"Significant</w>":11174,"localize</w>":11175,"PERMI":11176,"LINEAR</w>":11177,"FORWARD</w>":11178,"GROW</w>":11179,"allocator</w>":11180,"Wake</w>":11181,"animations</w>":11182,"Availability</w>":11183,"Trim</w>":11184,"dependence</w>":11185,"Peers</w>":11186,"fuzzy</w>":11187,"omes</w>":11188,"othesis</w>":11189,"opened</w>":11190,"mitter</w>":11191,"vector":11192,"Legacy</w>":11193,"emr</w>":11194,"neighbors</w>":11195,"Persisted</w>":11196,"CANNOT</w>":11197,"torso</w>":11198,"Walk</w>":11199,"Evaluator</w>":11200,"AVAI":11201,"Restrictions</w>":11202,"lastbucket</w>":11203,"frac</w>":11204,"Exclude</w>":11205,"decoration</w>":11206,"vmlist</w>":11207,"Artifact</w>":11208,"OPERATION</w>":11209,"pathname</w>":11210,"slots</w>":11211,"Authenticator</w>":11212,"Circular</w>":11213,"Lua</w>":11214,"FORMATION</w>":11215,"Separators</w>":11216,"onym":11217,"panic</w>":11218,"DOWNLOAD</w>":11219,"datalength</w>":11220,"settinglo</w>":11221,"arante":11222,"CENT</w>":11223,"Cim</w>":11224,"Lit":11225,"Mech</w>":11226,"Py</w>":11227,"Pipe</w>":11228,"Rating</w>":11229,"Soc":11230,"Sail</w>":11231,"TK</w>":11232,"Tin":11233,"aks</w>":11234,"ered</w>":11235,"foc":11236,"hc</w>":11237,"ili":11238,"ios</w>":11239,"ically</w>":11240,"lue</w>":11241,"mech</w>":11242,"navi":11243,"qk</w>":11244,"rmt</w>":11245,"ws":11246,"xxx</w>":11247,"yin</w>":11248,"invert</w>":11249,"revo":11250,"reminder</w>":11251,"tient</w>":11252,"onential</w>":11253,"stle</w>":11254,"ancy</w>":11255,"tech</w>":11256,"def":11257,"cebook</w>":11258,"itance</w>":11259,"fix":11260,"site":11261,"Incompatible</w>":11262,"Stock</w>":11263,"rices</w>":11264,"Reached</w>":11265,"Resized</w>":11266,"Limiter</w>":11267,"Fixture</w>":11268,"probs</w>":11269,"Article</w>":11270,"uns</w>":11271,"unbind</w>":11272,"party</w>":11273,"creature</w>":11274,"verb</w>":11275,"Pokemon</w>":11276,"Promise</w>":11277,"seat</w>":11278,"top":11279,"Del</w>":11280,"heartbeat</w>":11281,"prece":11282,"fac</w>":11283,"facets</w>":11284,"scenario</w>":11285,"ERED</w>":11286,"REP":11287,"achments</w>":11288,"legram</w>":11289,"Confirm</w>":11290,"Configured</w>":11291,"endations</w>":11292,"DEFIN":11293,"ARG</w>":11294,"aug":11295,"confirm</w>":11296,"initiated</w>":11297,"Iterate</w>":11298,"assumes</w>":11299,"assoc</w>":11300,"converting</w>":11301,"readth</w>":11302,"ANCE</w>":11303,"Persons</w>":11304,"swing</w>":11305,"Descend":11306,"Assi":11307,"cloud</w>":11308,"soli":11309,"soap</w>":11310,"showing</w>":11311,"PROXY</w>":11312,"Subspace</w>":11313,"unix</w>":11314,"ships</w>":11315,"SOS</w>":11316,"SOF</w>":11317,"Hist</w>":11318,"Removal</w>":11319,"braries</w>":11320,"Gesture</w>":11321,"mul</w>":11322,"succ</w>":11323,"quotient</w>":11324,"Custo":11325,"reflec":11326,"Waiter</w>":11327,"simpli":11328,"indicated</w>":11329,"sparent</w>":11330,"snippet</w>":11331,"SHARED</w>":11332,"survey</w>":11333,"considered</w>":11334,"assignable</w>":11335,"MANA":11336,"scrolling</w>":11337,"purposes</w>":11338,"next":11339,"webapp</w>":11340,"Emoticon</w>":11341,"assumed</w>":11342,"Tungsten</w>":11343,"gmentations</w>":11344,"lifeline</w>":11345,"POINTS</w>":11346,"defines</w>":11347,"shorten</w>":11348,"gridbag</w>":11349,"Lexer</w>":11350,"management</w>":11351,"Detached</w>":11352,"NETWORK</w>":11353,"ciphertext</w>":11354,"SPACING</w>":11355,"OCSP</w>":11356,"PUB":11357,"FOLLOWING</w>":11358,"Bytecode</w>":11359,"02</w>":11360,"Balance</w>":11361,"CW":11362,"Cn</w>":11363,"CL</w>":11364,"Cou":11365,"DA</w>":11366,"EDED</w>":11367,"Glob</w>":11368,"Here</w>":11369,"LAN":11370,"MDS</w>":11371,"Massnah":11372,"PNG</w>":11373,"South</w>":11374,"VAR</w>":11375,"XSD</w>":11376,"dtd</w>":11377,"fa</w>":11378,"je</w>":11379,"ja</w>":11380,"kno":11381,"mechanism</w>":11382,"navigation</w>":11383,"ymax</w>":11384,"zes</w>":11385,"renew</w>":11386,"restarts</w>":11387,"restores</w>":11388,"enm</w>":11389,"tronic</w>":11390,"negoti":11391,"STO":11392,"decre":11393,"devices</w>":11394,"deflate</w>":11395,"loops</w>":11396,"fires</w>":11397,"Insensitive</w>":11398,"Exact</w>":11399,"Stops</w>":11400,"Listing</w>":11401,"context":11402,"queues</w>":11403,"point":11404,"visual</w>":11405,"sup</w>":11406,"parallel</w>":11407,"semaphore</w>":11408,"locals</w>":11409,"tostring</w>":11410,"Deg</w>":11411,"Setter</w>":11412,"Motor</w>":11413,"ATH</w>":11414,"occur</w>":11415,"subplot</w>":11416,"spector</w>":11417,"matsim</w>":11418,"isol":11419,"That</w>":11420,"DESC":11421,"DECRYPT</w>":11422,"SIONS</w>":11423,"drawn</w>":11424,"ARR</w>":11425,"intern</w>":11426,"filler</w>":11427,"Allocated</w>":11428,"warehouse</w>":11429,"ruid</w>":11430,"datab":11431,"Notifications</w>":11432,"cuit</w>":11433,"joined</w>":11434,"Rendered</w>":11435,"Appendable</w>":11436,"Geo":11437,"VIDE":11438,"Fake</w>":11439,"Swipe</w>":11440,"mbr</w>":11441,"Phonetic</w>":11442,"Avg</w>":11443,"Spectrum</w>":11444,"ffice</w>":11445,"commits</w>":11446,"Receive</w>":11447,"WARN</w>":11448,"WORK":11449,"grav</w>":11450,"Skipped</w>":11451,"AUTO</w>":11452,"SWITCH</w>":11453,"consist</w>":11454,"SUBMODE</w>":11455,"CURSOR</w>":11456,"accumulate</w>":11457,"hypot</w>":11458,"mdsize</w>":11459,"BIG</w>":11460,"shut</w>":11461,"Hyper":11462,"several</w>":11463,"genome</w>":11464,"nodelist</w>":11465,"Sensitivity</w>":11466,"TLA</w>":11467,"Configur":11468,"SUPPORTED</w>":11469,"SCOPE</w>":11470,"Clients</w>":11471,"CERT</w>":11472,"useful</w>":11473,"RUN</w>":11474,"ython</w>":11475,"TEMPLATE</w>":11476,"AVAILABLE</w>":11477,"onymous</w>":11478,"Little</w>":11479,"Ax</w>":11480,"AB</w>":11481,"Boo":11482,"Ball</w>":11483,"BRO":11484,"Bold</w>":11485,"Bookmarks</w>":11486,"Csv</w>":11487,"DP":11488,"DI</w>":11489,"DY</w>":11490,"DCARD</w>":11491,"Fence</w>":11492,"GWT</w>":11493,"Kinds</w>":11494,"MER":11495,"PEM</w>":11496,"RM</w>":11497,"RULE</w>":11498,"Zy</w>":11499,"bc":11500,"ball</w>":11501,"cmds</w>":11502,"ding":11503,"dpid</w>":11504,"fading</w>":11505,"fying</w>":11506,"gwt</w>":11507,"hal":11508,"iced</w>":11509,"kb</w>":11510,"lar</w>":11511,"mid":11512,"masks</w>":11513,"pad":11514,"pcl</w>":11515,"rt":11516,"rf</w>":11517,"sld</w>":11518,"tln</w>":11519,"vations</w>":11520,"wf</w>":11521,"yn</w>":11522,"recreate</w>":11523,"reachable</w>":11524,"atk</w>":11525,"nesting</w>":11526,"orded</w>":11527,"amt</w>":11528,"sib</w>":11529,"ellipse</w>":11530,"Stu":11531,"Life</w>":11532,"dig</w>":11533,"Chang":11534,"INCRE":11535,"rect":11536,"recast</w>":11537,"Pawn</w>":11538,"Pretty</w>":11539,"Interaction</w>":11540,"secs</w>":11541,"sect</w>":11542,"filtering</w>":11543,"ORS</w>":11544,"properly</w>":11545,"synchronize</w>":11546,"ated":11547,"TAX</w>":11548,"Boxed</w>":11549,"LET</w>":11550,"import":11551,"rounding</w>":11552,"ASING</w>":11553,"Gradle</w>":11554,"signals</w>":11555,"manual</w>":11556,"fld</w>":11557,"facts</w>":11558,"NODE":11559,"deprec":11560,"ECTED</w>":11561,"latency</w>":11562,"Once</w>":11563,"update":11564,"Flavor</w>":11565,"BOLD</w>":11566,"Multicast</w>":11567,"daemon</w>":11568,"Frame":11569,"trigge":11570,"coefficient</w>":11571,"Protected</w>":11572,"constants</w>":11573,"ILLEGAL</w>":11574,"ALIASING</w>":11575,"Strip</w>":11576,"codebase</w>":11577,"toolkit</w>":11578,"Calculated</w>":11579,"dropped</w>":11580,"QUEUE</w>":11581,"SETTING</w>":11582,"grouping</w>":11583,"MODIFIED</w>":11584,"EPL</w>":11585,"unescape</w>":11586,"Dimensional</w>":11587,"REMOTE</w>":11588,"elimin":11589,"Similarity</w>":11590,"ggested</w>":11591,"Collision</w>":11592,"ttoms</w>":11593,"Assertions</w>":11594,"Bal":11595,"Barrier</w>":11596,"Bootstrap</w>":11597,"Dn</w>":11598,"DST</w>":11599,"Elevation</w>":11600,"HMAC</w>":11601,"ICE</w>":11602,"Jpeg</w>":11603,"LING</w>":11604,"Md</w>":11605,"MC</w>":11606,"NON</w>":11607,"Nio</w>":11608,"Ndef</w>":11609,"Pi</w>":11610,"PG</w>":11611,"RW</w>":11612,"Sz</w>":11613,"Tre":11614,"WIL":11615,"bly</w>":11616,"bmp</w>":11617,"cru":11618,"cctx</w>":11619,"caught</w>":11620,"dol":11621,"dfl":11622,"gat</w>":11623,"gold</w>":11624,"href</w>":11625,"ih</w>":11626,"jars</w>":11627,"junction</w>":11628,"jsp</w>":11629,"kable</w>":11630,"lx</w>":11631,"lval</w>":11632,"mor":11633,"mum</w>":11634,"npc</w>":11635,"ndles</w>":11636,"plen</w>":11637,"pcs</w>":11638,"svm</w>":11639,"slashes</w>":11640,"zen</w>":11641,"instr</w>":11642,"remap</w>":11643,"redraw</w>":11644,"thrift</w>":11645,"lobs</w>":11646,"figure</w>":11647,"Redis</w>":11648,"buffe":11649,"Lif":11650,"resource":11651,"illegal</w>":11652,"quad":11653,"proposal</w>":11654,"taking</w>":11655,"writable</w>":11656,"Parcelable</w>":11657,"painter</w>":11658,"Pager</w>":11659,"faul":11660,"ified</w>":11661,"REPORT</w>":11662,"Unmarshaller</w>":11663,"tention</w>":11664,"ROUND</w>":11665,"keyp":11666,"Trusted</w>":11667,"configs</w>":11668,"ANGLE</w>":11669,"Imports</w>":11670,"Dock</w>":11671,"graph":11672,"Disks</w>":11673,"SIZEOF</w>":11674,"extractor</w>":11675,"classification</w>":11676,"derr</w>":11677,"Relationship</w>":11678,"products</w>":11679,"bayes</w>":11680,"centered</w>":11681,"Sing":11682,"wifi</w>":11683,"association</w>":11684,"OPEN":11685,"micolon</w>":11686,"MINAL</w>":11687,"Caps</w>":11688,"follower</w>":11689,"Ammo</w>":11690,"STATEMENT</w>":11691,"Aggs</w>":11692,"FIEL":11693,"classloader</w>":11694,"TRANS</w>":11695,"Specification</w>":11696,"Streaming</w>":11697,"declarations</w>":11698,"occurred</w>":11699,"authenticated</w>":11700,"Tuner</w>":11701,"approximation</w>":11702,"free":11703,"translated</w>":11704,"diagnostic</w>":11705,"Shortcut</w>":11706,"Ceil</w>":11707,"Consist</w>":11708,"Rich</w>":11709,"ANTIALIASING</w>":11710,"Implementation</w>":11711,"from":11712,"flicts</w>":11713,"atomically</w>":11714,"saniti":11715,"internally</w>":11716,"estimated</w>":11717,"correctly</w>":11718,"Screens</w>":11719,"attribute":11720,"SISTENT</w>":11721,"stamps</w>":11722,"Realtime</w>":11723,"Incremental</w>":11724,"PAREN</w>":11725,"adjusts</w>":11726,"PLUGIN</w>":11727,"augllpts</w>":11728,"triggered</w>":11729,"BBO":11730,"Blocked</w>":11731,"Dates</w>":11732,"GPS</w>":11733,"HLE</w>":11734,"IFS</w>":11735,"Jmx</w>":11736,"Jetty</w>":11737,"Kno":11738,"LP</w>":11739,"Lint</w>":11740,"Mass</w>":11741,"NB</w>":11742,"Plan":11743,"TZ</w>":11744,"Tal":11745,"Tolerance</w>":11746,"VO</w>":11747,"Wb</w>":11748,"air</w>":11749,"bridge</w>":11750,"dt":11751,"fence</w>":11752,"git</w>":11753,"hyp</w>":11754,"met</w>":11755,"milli":11756,"mandatory</w>":11757,"ns":11758,"nio</w>":11759,"ndi</w>":11760,"sor":11761,"sdk</w>":11762,"txn</w>":11763,"uu":11764,"retro</w>":11765,"ented</w>":11766,"enames</w>":11767,"enables</w>":11768,"tically</w>":11769,"STACK</w>":11770,"anns</w>":11771,"tesian</w>":11772,"deal</w>":11773,"fin</w>":11774,"Intro":11775,"Rev</w>":11776,"mpp</w>":11777,"aptic</w>":11778,"unlink</w>":11779,"unshared</w>":11780,"Characteristic</w>":11781,"Ending</w>":11782,"Enumer":11783,"sually</w>":11784,"permits</w>":11785,"Polyg":11786,"prim</w>":11787,"Magic</w>":11788,"met":11789,"todo</w>":11790,"today</w>":11791,"Season</w>":11792,"shback</w>":11793,"strs</w>":11794,"preset</w>":11795,"prevent</w>":11796,"compiled</w>":11797,"Spliter":11798,"REFRE":11799,"specify</w>":11800,"bezier</w>":11801,"Predefined</w>":11802,"SIB":11803,"interpolator</w>":11804,"minders</w>":11805,"iterations</w>":11806,"Upstream</w>":11807,"arith":11808,"respect</w>":11809,"ANCH":11810,"implicit</w>":11811,"distribu":11812,"Tele":11813,"alogs</w>":11814,"EXP</w>":11815,"manage</w>":11816,"tively</w>":11817,"fldidx</w>":11818,"regexp</w>":11819,"calculation</w>":11820,"backslash</w>":11821,"maintenance</w>":11822,"peers</w>":11823,"Fet":11824,"SHADER</w>":11825,"universal</w>":11826,"newbuf</w>":11827,"Monitoring</w>":11828,"PREDIC":11829,"normalizes</w>":11830,"Plans</w>":11831,"Invoker</w>":11832,"allocates</w>":11833,"APPRO":11834,"Peek</w>":11835,"directions</w>":11836,"checkbox</w>":11837,"Claim</w>":11838,"nums</w>":11839,"ATTENDING</w>":11840,"combination</w>":11841,"Voice</w>":11842,"Initializer</w>":11843,"recover":11844,"svd</w>":11845,"BELOW</w>":11846,"Scrolling</w>":11847,"RANDOM</w>":11848,"Observers</w>":11849,"Recurrence</w>":11850,"Mixed</w>":11851,"biginteger</w>":11852,"eviction</w>":11853,"Detection</w>":11854,"activities</w>":11855,"PRIV":11856,"Stopped</w>":11857,"Estimator</w>":11858,"partitioning</w>":11859,"zzle</w>":11860,"identical</w>":11861,"decision</w>":11862,"PROCESSED</w>":11863,"fetches</w>":11864,"Prediction</w>":11865,"proxies</w>":11866,"establish</w>":11867,"Deletion</w>":11868,"Pkg</w>":11869,"query":11870,"Occurrences</w>":11871,"koml</w>":11872,"TARGET</w>":11873,"federation</w>":11874,"VIDEO</w>":11875,"BBOB</w>":11876,"REFRESH</w>":11877,"ANCHOR</w>":11878,"519</w>":11879,"AA</w>":11880,"Ed</w>":11881,"Eml</w>":11882,"GF</w>":11883,"Htt":11884,"NON":11885,"NITE</w>":11886,"PAN":11887,"Paper</w>":11888,"RB</w>":11889,"Ram</w>":11890,"Sc</w>":11891,"SEND</w>":11892,"USAGE</w>":11893,"VNX</w>":11894,"bal":11895,"bandwidth</w>":11896,"ctr</w>":11897,"dable</w>":11898,"daries</w>":11899,"eled</w>":11900,"ga</w>":11901,"kp</w>":11902,"song</w>":11903,"tl":11904,"uv</w>":11905,"uee</w>":11906,"vcenter</w>":11907,"war</w>":11908,"west</w>":11909,"xsd</w>":11910,"rever":11911,"try":11912,"arding</w>":11913,"lets</w>":11914,"liance</w>":11915,"sites</w>":11916,"Insns</w>":11917,"chro":11918,"chers</w>":11919,"raft</w>":11920,"Statistic</w>":11921,"finder</w>":11922,"Reorder</w>":11923,"Redirect</w>":11924,"voc":11925,"ilds</w>":11926,"quick":11927,"diagram</w>":11928,"throwing</w>":11929,"apt</w>":11930,"igar</w>":11931,"mojangson</w>":11932,"spin</w>":11933,"suite</w>":11934,"standing</w>":11935,"Delimited</w>":11936,"callable</w>":11937,"compilation</w>":11938,"Quar":11939,"Quant</w>":11940,"RETRY</w>":11941,"lucene</w>":11942,"Accep":11943,"Suites</w>":11944,"DEVICE</w>":11945,"Many</w>":11946,"transp":11947,"SEQU":11948,"Labeled</w>":11949,"Entitlement</w>":11950,"iterbi</w>":11951,"wave</w>":11952,"Linux</w>":11953,"datagram</w>":11954,"disables</w>":11955,"dismiss</w>":11956,"executable</w>":11957,"ONE":11958,"Generics</w>":11959,"EXIST":11960,"corr</w>":11961,"NAMIC</w>":11962,"NOMINAL</w>":11963,"multicast</w>":11964,"LOGIN</w>":11965,"Flat</w>":11966,"limits</w>":11967,"Puzzle</w>":11968,"Apply</w>":11969,"IGNITE</w>":11970,"receives</w>":11971,"guard</w>":11972,"pulse</w>":11973,"Swc</w>":11974,"much</w>":11975,"successor</w>":11976,"logarith":11977,"CIRC":11978,"strike</w>":11979,"Predictions</w>":11980,"Triangle</w>":11981,"display":11982,"Locals</w>":11983,"llx</w>":11984,"Offline</w>":11985,"wrapping</w>":11986,"25519</w>":11987,"instantiate</w>":11988,"picked</w>":11989,"oneset</w>":11990,"oneme</w>":11991,"Following</w>":11992,"activation</w>":11993,"decrypted</w>":11994,"earance</w>":11995,"storage":11996,"Criteria</w>":11997,"flatten":11998,"QUEEN</w>":11999,"SYNTAX</w>":12000,"Verification</w>":12001,"Recogn":12002,"repeated</w>":12003,"rmation</w>":12004,"nouncement</w>":12005,"ticky</w>":12006,"recommendation</w>":12007,"prepend</w>":12008,"Distributable</w>":12009,"JBBP</w>":12010,"DYNAMIC</w>":12011,"Tween</w>":12012,"expansion</w>":12013,"PERMISSION</w>":12014,"WILDCARD</w>":12015,"PREDICATE</w>":12016,"ALOG</w>":12017,"Bs</w>":12018,"BL</w>":12019,"Bloom</w>":12020,"Centr":12021,"DDF</w>":12022,"Ec":12023,"Est</w>":12024,"Hand</w>":12025,"Imp</w>":12026,"ILD</w>":12027,"IPV</w>":12028,"Jedis</w>":12029,"Lsb</w>":12030,"PD</w>":12031,"Por":12032,"Pseudo</w>":12033,"Sa":12034,"SLE":12035,"Tf</w>":12036,"Ys</w>":12037,"Zones</w>":12038,"ane":12039,"ban":12040,"bidden</w>":12041,"dark</w>":12042,"gfx</w>":12043,"groovy</w>":12044,"ition</w>":12045,"istream</w>":12046,"kely</w>":12047,"nw</w>":12048,"nread</w>":12049,"npe</w>":12050,"sations</w>":12051,"xh</w>":12052,"ym</w>":12053,"zb</w>":12054,"invol":12055,"really</w>":12056,"deregister</w>":12057,"econ":12058,"adb</w>":12059,"adca":12060,"Ins</w>":12061,"Insertion</w>":12062,"chors</w>":12063,"rier</w>":12064,"Redo</w>":12065,"Reading</w>":12066,"busy</w>":12067,"control":12068,"ession":12069,"programm":12070,"laz":12071,"spine</w>":12072,"sul</w>":12073,"credit</w>":12074,"Processors</w>":12075,"see":12076,"meth</w>":12077,"curl</w>":12078,"Sel</w>":12079,"Measures</w>":12080,"Paused</w>":12081,"ENUM</w>":12082,"ises</w>":12083,"Overview</w>":12084,"SILON</w>":12085,"Transit</w>":12086,"Committed</w>":12087,"ACC</w>":12088,"ACCOUNT</w>":12089,"SEED</w>":12090,"transform":12091,"escaping</w>":12092,"cutting</w>":12093,"ANIM":12094,"geable</w>":12095,"straight</w>":12096,"encoun":12097,"supplier</w>":12098,"About</w>":12099,"EXIT</w>":12100,"Assets</w>":12101,"Scheduling</w>":12102,"Prim</w>":12103,"MIZ":12104,"deploy</w>":12105,"Renderers</w>":12106,"Containers</w>":12107,"Signatures</w>":12108,"newly</w>":12109,"Clusterer</w>":12110,"Animated</w>":12111,"host":12112,"THAN</w>":12113,"PAINT</w>":12114,"Norm</w>":12115,"Hot":12116,"Later</w>":12117,"Pem</w>":12118,"deletion</w>":12119,"COMPONENT</w>":12120,"styled</w>":12121,"higher</w>":12122,"classnames</w>":12123,"Octet</w>":12124,"SVN</w>":12125,"EXPONENT</w>":12126,"searching</w>":12127,"CHARTYPE</w>":12128,"detected</w>":12129,"completely</w>":12130,"scrolled</w>":12131,"irement</w>":12132,"trims</w>":12133,"FILENAME</w>":12134,"mysql</w>":12135,"prototype</w>":12136,"approximate</w>":12137,"Taxon":12138,"deployment</w>":12139,"datetime</w>":12140,"EPSILON</w>":12141,"DIGITS</w>":12142,"Friends</w>":12143,"SKIP</w>":12144,"Eviction</w>":12145,"blank</w>":12146,"Dimensionality</w>":12147,"LITERAL</w>":12148,"capitalize</w>":12149,"engineid</w>":12150,"installs</w>":12151,"ipv4</w>":12152,"RENDERTYPE</w>":12153,"FRAGMENT</w>":12154,"Released</w>":12155,"EXPANDED</w>":12156,"Knots</w>":12157,"100</w>":12158,"Ad</w>":12159,"Ab</w>":12160,"CID</w>":12161,"Cases</w>":12162,"Cpim</w>":12163,"DPI</w>":12164,"FAC":12165,"IPS</w>":12166,"IRED</w>":12167,"MY</w>":12168,"MT</w>":12169,"None</w>":12170,"NAN":12171,"Pan</w>":12172,"Pack</w>":12173,"RFC</w>":12174,"Sco":12175,"TR</w>":12176,"Wave</w>":12177,"Water</w>":12178,"Wrong</w>":12179,"aff</w>":12180,"bber</w>":12181,"bnd</w>":12182,"bank</w>":12183,"cture</w>":12184,"gx</w>":12185,"gro":12186,"hw</w>":12187,"hj</w>":12188,"hen":12189,"had</w>":12190,"hadoop</w>":12191,"hardware</w>":12192,"jj</w>":12193,"jus":12194,"ltc</w>":12195,"mh</w>":12196,"mesh</w>":12197,"nan</w>":12198,"nsegs</w>":12199,"oma</w>":12200,"pj</w>":12201,"wan":12202,"watch":12203,"inactive</w>":12204,"ator":12205,"leader</w>":12206,"lestone</w>":12207,"liers</w>":12208,"pushes</w>":12209,"defaul":12210,"amid</w>":12211,"act":12212,"accy</w>":12213,"itf</w>":12214,"Invisible</w>":12215,"asy</w>":12216,"chance</w>":12217,"mails</w>":12218,"find":12219,"Concat</w>":12220,"lam</w>":12221,"polyg":12222,"Enh":12223,
[...]
