{"version":"1.0","truncation":null,"padding":null,"added_tokens":[{"id":0,"special":true,"content":"[PAD]","single_word":false,"lstrip":false,"rstrip":false,"normalized":false},{"id":1,"special":true,"content":"[UNK]","single_word":false,"lstrip":false,"rstrip":false,"normalized":false},{"id":2,"special":true,"content":"[WHAT/]","single_word":false,"lstrip":false,"rstrip":false,"normalized":false},{"id":3,"special":true,"content":"[/WHAT]","single_word":false,"lstrip":false,"rstrip":false,"normalized":false},{"id":4,"special":true,"content":"[WHY/]","single_word":false,"lstrip":false,"rstrip":false,"normalized":false},{"id":5,"special":true,"content":"[/WHY]","single_word":false,"lstrip":false,"rstrip":false,"normalized":false},{"id":6,"special":true,"content":"[USAGE/]","single_word":false,"lstrip":false,"rstrip":false,"normalized":false},{"id":7,"special":true,"content":"[/USAGE]","single_word":false,"lstrip":false,"rstrip":false,"normalized":false},{"id":8,"special":true,"content":"[DONE/]","single_word":false,"lstrip":false,"rstrip":false,"normalized":false},{"id":9,"special":true,"content":"[/DONE]","single_word":false,"lstrip":false,"rstrip":false,"normalized":false},{"id":10,"special":true,"content":"[PROP/]","single_word":false,"lstrip":false,"rstrip":false,"normalized":false},{"id":11,"special":true,"content":"[/PROP]","single_word":false,"lstrip":false,"rstrip":false,"normalized":false},{"id":12,"special":true,"content":"[EOS]","single_word":false,"lstrip":false,"rstrip":false,"normalized":false},{"id":13,"special":true,"content":"[NONE]","single_word":false,"lstrip":false,"rstrip":false,"normalized":false}],"normalizer":null,"pre_tokenizer":{"type":"WhitespaceSplit"},"post_processor":null,"decoder":{"type":"BPEDecoder","suffix":"</w>"},"model":{"type":"BPE","dropout":null,"unk_token":"[UNK]","continuing_subword_prefix":null,"end_of_word_suffix":"</w>","fuse_unk":false,"vocab":{"[PAD]":0,"[UNK]":1,"[WHAT/]":2,"[/WHAT]":3,"[WHY/]":4,"[/WHY]":5,"[USAGE/]":6,"[/USAGE]":7,"[DONE/]":8,"[/DONE]":9,"[PROP/]":10,"[/PROP]":11,"[EOS]":12,"[NONE]":13,"\u0000":14,"\u0001":15,"\u0003":16,"\u0005":17,"\u0006":18,"\u0007":19,"\u000e":20,"\u000f":21,"\u0015":22,"\u0018":23,"\u001a":24,"\u001b":25,"!":26,"\"":27,"#":28,"$":29,"%":30,"&":31,"'":32,"(":33,")":34,"*":35,"+":36,",":37,"-":38,".":39,"/":40,"0":41,"1":42,"2":43,"3":44,"4":45,"5":46,"6":47,"7":48,"8":49,"9":50,":":51,";":52,"<":53,"=":54,">":55,"?":56,"@":57,"A":58,"B":59,"C":60,"D":61,"E":62,"F":63,"G":64,"H":65,"I":66,"J":67,"K":68,"L":69,"M":70,"N":71,"O":72,"P":73,"Q":74,"R":75,"S":76,"T":77,"U":78,"V":79,"W":80,"X":81,"Y":82,"Z":83,"[":84,"\\":85,"]":86,"^":87,"`":88,"a":89,"b":90,"c":91,"d":92,"e":93,"f":94,"g":95,"h":96,"i":97,"j":98,"k":99,"l":100,"m":101,"n":102,"o":103,"p":104,"q":105,"r":106,"s":107,"t":108,"u":109,"v":110,"w":111,"x":112,"y":113,"z":114,"{":115,"|":116,"}":117,"~":118,"":119,"":120,"":121,"":122,"":123,"":124,"":125,"":126,"":127,"":128,"©":129,"«":130,"­":131,"°":132,"±":133,"µ":134,"·":135,"¸":136,"º":137,"»":138,"¿":139,"Ã":140,"Ä":141,"Ç":142,"È":143,"É":144,"Ì":145,"Í":146,"Ñ":147,"Ó":148,"Ö":149,"Ú":150,"Ü":151,"ß":152,"à":153,"á":154,"â":155,"ã":156,"ä":157,"å":158,"æ":159,"ç":160,"é":161,"ê":162,"í":163,"ï":164,"ñ":165,"ó":166,"õ":167,"ö":168,"÷":169,"ø":170,"ú":171,"ü":172,"ÿ":173,"ā":174,"ą":175,"ć":176,"Đ":177,"đ":178,"ē":179,"ę":180,"ğ":181,"ģ":182,"ī":183,"ı":184,"Ł":185,"ł":186,"ń":187,"ō":188,"ś":189,"Ş":190,"ş":191,"ū":192,"ź":193,"ż":194,"ː":195,"ˑ":196,"̀":197,"́":198,"̄":199,"ͅ":200,"͠":201,"͡":202,"·":203,"Ω":204,"ε":205,"λ":206,"Ё":207,"А":208,"Б":209,"В":210,"Г":211,"Д":212,"Е":213,"Ж":214,"З":215,"И":216,"Й":217,"К":218,"Л":219,"М":220,"Н":221,"О":222,"П":223,"Р":224,"С":225,"Т":226,"У":227,"Ф":228,"Х":229,"Ц":230,"Ч":231,"Ш":232,"Щ":233,"Ъ":234,"Ы":235,"Ь":236,"Э":237,"Ю":238,"Я":239,"а":240,"б":241,"в":242,"г":243,"д":244,"е":245,"ж":246,"з":247,"и":248,"й":249,"к":250,"л":251,"м":252,"н":253,"о":254,"п":255,"р":256,"с":257,"т":258,"у":259,"ф":260,"х":261,"ц":262,"ч":263,"ш":264,"щ":265,"ы":266,"ь":267,"ю":268,"я":269,"҃":270,"҆":271,"א":272,"ב":273,"ג":274,"ד":275,"ا":276,"ة":277,"ت":278,"خ":279,"ـ":280,"ف":281,"ل":282,"ي":283,"ً":284,"ٍ":285,"ِ":286,"ّ":287,"٘":288,"ٰ":289,"ۖ":290,"ۜ":291,"۟":292,"ۤ":293,"ۧ":294,"ۨ":295,"۪":296,"ۭ":297,"ด":298,"ๆ":299,"ໆ":300,"ဃ":301,"ሒ":302,"ሴ":303,"᏿":304,"ᾤ":305,"​":306,"‎":307,"‏":308,"‐":309,"–":310,"—":311,"―":312,"‘":313,"’":314,"“":315,"”":316,"‟":317,"•":318,"․":319,"…":320,"‪":321,"‫":322,"‬":323,"⁄":324,"ℂ":325,"ℍ":326,"ℒ":327,"ℕ":328,"ℙ":329,"ℚ":330,"ℝ":331,"™":332,"ℤ":333,"←":334,"↑":335,"↓":336,"↲":337,"∅":338,"−":339,"∞":340,"≈":341,"⊤":342,"⊥":343,"═":344,"█":345,"░":346,"▲":347,"▼":348,"☀":349,"々":350,"〇":351,"〡":352,"〩":353,"〱":354,"〵":355,"る":356,"ゝ":357,"ゞ":358,"ー":359,"ヾ":360,"䌡":361,"一":362,"了":363,"令":364,"仨":365,"位":366,"体":367,"信":368,"入":369,"出":370,"别":371,"刷":372,"副":373,"動":374,"名":375,"后":376,"启":377,"哦":378,"噸":379,"图":380,"地":381,"址":382,"定":383,"容":384,"库":385,"开":386,"形":387,"志":388,"息":389,"我":390,"戻":391,"接":392,"推":393,"提":394,"搜":395,"新":396,"日":397,"果":398,"清":399,"的":400,"目":401,"睡":402,"确":403,"离":404,"空":405,"站":406,"索":407,"終":408,"続":409,"结":410,"络":411,"网":412,"置":413,"詞":414,"词":415,"距":416,"跳":417,"轉":418,"过":419,"退":420,"連":421,"醒":422,"除":423,"項":424,"项":425,"龥":426,"뺾":427,"":428,"":429,"":430,"﫺":431,"﻿":432,"＀":433,"￯":434,"�":435,"￿":436,"b</w>":437,"r</w>":438,"'</w>":439,"\"</w>":440,"n</w>":441,"d</w>":442,"o</w>":443,"1</w>":444,"p</w>":445,"y</w>":446,"e</w>":447,"2</w>":448,"m</w>":449,"h</w>":450,"8</w>":451,"c</w>":452,"G</w>":453,"a</w>":454,"s</w>":455,"t</w>":456,".</w>":457,"g</w>":458,"]</w>":459,"X</w>":460,",</w>":461,"l</w>":462,"E</w>":463,"x</w>":464,"j</w>":465,"S</w>":466,"R</w>":467,"k</w>":468,"C</w>":469,"#</w>":470,"4</w>":471,":</w>":472,"w</w>":473,"f</w>":474,"O</w>":475,"T</w>":476,"F</w>":477,"0</w>":478,"3</w>":479,"></w>":480,"|</w>":481,")</w>":482,"D</w>":483,"9</w>":484,"v</w>":485,"L</w>":486,"=</w>":487,"i</w>":488,"7</w>":489,"z</w>":490,"H</w>":491,"q</w>":492,"M</w>":493,";</w>":494,"N</w>":495,"V</w>":496,"Y</w>":497,"?</w>":498,"I</w>":499,"J</w>":500,"P</w>":501,"Q</w>":502,"A</w>":503,"u</w>":504,"Z</w>":505,"5</w>":506,"6</w>":507,"(</w>":508,"U</w>":509,"ı</w>":510,"}</w>":511,"!</w>":512,"B</w>":513,"K</w>":514,"-</w>":515,"W</w>":516,"`</w>":517,"<</w>":518,"[</w>":519,"&</w>":520,"*</w>":521,"+</w>":522,"%</w>":523,"/</w>":524,"{</w>":525,"^</w>":526,"$</w>":527,"@</w>":528,"~</w>":529,"å</w>":530,"к</w>":531,"á</w>":532,"º</w>":533,"а</w>":534,"\\</w>":535,"е</w>":536,"©</w>":537,"噸</w>":538,"≈</w>":539,"«</w>":540,"\u0006</w>":541,"т</w>":542,"⊥</w>":543,"�</w>":544,"в</w>":545,"°</w>":546,"•</w>":547,"à</w>":548,"О</w>":549,"ń</w>":550,"é</w>":551,"я</w>":552,"ê</w>":553,"с</w>":554,"ä</w>":555,"й</w>":556,"ź</w>":557,"\u0000</w>":558,"о</w>":559,"р</w>":560,"–</w>":561,"⊤</w>":562,"</w>":563,"Ú</w>":564,"\u000f</w>":565,"ş</w>":566,"ć</w>":567,"in":568,"re":569,"th":570,"at":571,"et</w>":572,"te":573,"io":574,"en":575,"tr":576,"ur":577,"li":578,"ro":579,"ion</w>":580,"get</w>":581,"er</w>":582,"er":583,"an":584,"le":585,"the</w>":586,"ing</w>":587,"pu":588,"al":589,"on":590,"is</w>":591,"tur":592,"retur":593,"or":594,"le</w>":595,"ec":596,"tion</w>":597,"bli":598,"ul":599,"publi":600,"public</w>":601,"ar":602,"or</w>":603,"if</w>":604,"return</w>":605,"es":606,"ne":607,"am":608,"tring</w>":609,"ac":610,"id</w>":611,"se</w>":612,"this</w>":613,"ent</w>":614,"String</w>":615,"de":616,"ate</w>":617,"st":618,"ce":619,"vo":620,"it":621,"void</w>":622,"ad":623,"new</w>":624,"set</w>":625,"ue</w>":626,"ull</w>":627,"int</w>":628,"fi":629,"is":630,"null</w>":631,"es</w>":632,"co":633,"lo":634,"ed</w>":635,"as":636,"ame</w>":637,"ri":638,"ag":639,"Ex":640,"ab":641,"ption</w>":642,"al</w>":643,"ou":644,"ts</w>":645,"to</w>":646,"In":647,"an</w>":648,"ception</w>":649,"ce</w>":650,"el":651,"Exception</w>":652,"jec":653,"ti":654,"ch":655,"oo":656,"xt</w>":657,"con":658,"alue</w>":659,"ment</w>":660,"ject</w>":661,"pro":662,"mp":663,"od":664,"per":665,"nt</w>":666,"res":667,"ation</w>":668,"ap":669,"ter</w>":670,"of</w>":671,"bject</w>":672,"age</w>":673,"for</w>":674,"Con":675,"add</w>":676,"in</w>":677,"Co":678,"ter":679,"ted</w>":680,"St":681,"bu":682,"==</w>":683,"yp":684,"ve</w>":685,"se":686,"qu":687,"Pro":688,"ns</w>":689,"ty</w>":690,"thro":691,"ess":692,"mo":693,"Fi":694,"ode</w>":695,"Lis":696,"Name</w>":697,"te</w>":698,"able</w>":699,"si":700,"en</w>":701,"ch</w>":702,"lean</w>":703,"tem</w>":704,"oolean</w>":705,"las":706,"um":707,"il":708,"ype</w>":709,"ten":710,"!=</w>":711,"Re":712,"st</w>":713,"it</w>":714,"un":715,"th</w>":716,"at</w>":717,"oc":718,"boolean</w>":719,"value</w>":720,"up":721,"fin":722,"lec":723,"perty</w>":724,"ata</w>":725,"Object</w>":726,"rea":727,"ult</w>":728,"ex":729,"try</w>":730,"stan":731,"cre":732,"ws</w>":733,"dex</w>":734,"Ch":735,"rent</w>":736,"vi":737,"tri":738,"po":739,"and</w>":740,"im":741,"as</w>":742,"put</w>":743,"ze</w>":744,"true</w>":745,"name</w>":746,"ar</w>":747,"pri":748,"el</w>":749,"ds</w>":750,"la":751,"no":752,"di":753,"ang":754,"me":755,"fal":756,"ra":757,"lement</w>":758,"false</w>":759,"our":760,"ali":761,"cri":762,"tor</w>":763,"else</w>":764,"us":765,"ator</w>":766,"vate</w>":767,"En":768,"List</w>":769,"to":770,"ey</w>":771,"lass</w>":772,"private</w>":773,"ma":774,"ol":775,"Value</w>":776,"cat":777,"par":778,"ory</w>":779,"ta":780,"remo":781,"throws</w>":782,"for":783,"wh":784,"vent</w>":785,"Se":786,"eng":787,"ser":788,"app":789,"ff":790,"text</w>":791,"File</w>":792,"sp":793,"ext</w>":794,"der</w>":795,"end</w>":796,"Property</w>":797,"ource</w>":798,"Type</w>":799,"escri":800,"ver":801,"ase</w>":802,"id":803,"returns</w>":804,"ble</w>":805,"essage</w>":806,"ength</w>":807,"out</w>":808,"cur":809,"rom</w>":810,"sh":811,"Res":812,"tener</w>":813,"Ac":814,"Bu":815,"ath</w>":816,"tho":817,"tec":818,"pr":819,"thod</w>":820,"del</w>":821,"De":822,"date</w>":823,"ig":824,"als</w>":825,"do":826,"tribu":827,"create</w>":828,"length</w>":829,"tected</w>":830,"ions</w>":831,"throw</w>":832,"iv":833,"remove</w>":834,"protected</w>":835,"catch</w>":836,"final</w>":837,"object</w>":838,"index</w>":839,"ace</w>":840,"ifi":841,"men":842,"Ar":843,"escrip":844,"Po":845,"act":846,"Col":847,"fe":848,"Node</w>":849,"file</w>":850,"Data</w>":851,"ine</w>":852,"ger</w>":853,"pa":854,"cal":855,"Ma":856,"art</w>":857,"equ":858,"ity</w>":859,"Comp":860,"comp":861,"ers</w>":862,"Element</w>":863,"and":864,"++</w>":865,"nec":866,"ort</w>":867,"from</w>":868,"result</w>":869,"col":870,"Mo":871,"&&</w>":872,"size</w>":873,"Id</w>":874,"method</w>":875,"ith</w>":876,"has</w>":877,"su":878,"sion</w>":879,"Text</w>":880,"Event</w>":881,"est</w>":882,"current</w>":883,"instan":884,"key</w>":885,"ouble</w>":886,"ument</w>":887,"ren":888,"led</w>":889,"Tr":890,"rec":891,"Di":892,"ys":893,"ite</w>":894,"on</w>":895,"red</w>":896,"ly</w>":897,"up</w>":898,"Item</w>":899,"data</w>":900,"Class</w>":901,"giv":902,"equals</w>":903,"list</w>":904,"eld</w>":905,"us</w>":906,"loc":907,"tain":908,"given</w>":909,"ew</w>":910,"ll</w>":911,"fa":912,"type</w>":913,"ame":914,"lection</w>":915,"av":916,"spec":917,"read</w>":918,"com":919,"ion":920,"str":921,"ber</w>":922,"next</w>":923,"ack</w>":924,"terator</w>":925,"form":926,"ad</w>":927,"Lo":928,"ystem</w>":929,"ack":930,"node</w>":931,"pla":932,"ans":933,"ser</w>":934,"ror</w>":935,"Listener</w>":936,"onent</w>":937,"To</w>":938,"all</w>":939,"Ad":940,"oun":941,"chec":942,"ream</w>":943,"sets</w>":944,"ht</w>":945,"actory</w>":946,"Ser":947,"tribute</w>":948,"ore</w>":949,"ange</w>":950,"ified</w>":951,"me</w>":952,"Model</w>":953,"ray</w>":954,"Message</w>":955,"Loc":956,"Descrip":957,"Par":958,"ed":959,"At":960,"ild</w>":961,"Index</w>":962,"lis":963,"with</w>":964,"Set</w>":965,"Pan":966,"alu":967,"ree</w>":968,"tes</w>":969,"fo</w>":970,"les</w>":971,"ffer</w>":972,"ver</w>":973,"ates</w>":974,"append</w>":975,"ther</w>":976,"ob":977,"sup":978,"ow</w>":979,"ing":980,"IN":981,"whi":982,"Me":983,"anag":984,"dis":985,"de</w>":986,"ader</w>":987,"uc":988,"Map</w>":989,"be":990,"log</w>":991,"umber</w>":992,"UI</w>":993,"iti":994,"double</w>":995,"pre":996,"action</w>":997,"Factory</w>":998,"wor":999,"ID</w>":1000,"class</w>":1001,"lected</w>":1002,"not</w>":1003,"Tim":1004,"that</w>":1005,"ent":1006,"ess</w>":1007,"fault</w>":1008,"ler</w>":1009,"he":1010,"Si":1011,"ge":1012,"wr":1013,"ic":1014,"umn</w>":1015,"op":1016,"ER":1017,"ev":1018,"property</w>":1019,"string</w>":1020,"ure</w>":1021,"System</w>":1022,"vice</w>":1023,"um</w>":1024,"lon":1025,"lemen":1026,"Com":1027,"tent</w>":1028,"element</w>":1029,"item</w>":1030,"anager</w>":1031,"ces</w>":1032,"int":1033,"Action</w>":1034,"update</w>":1035,"IO</w>":1036,"Key</w>":1037,"ot</w>":1038,"contain":1039,"tt":1040,"iz":1041,"Of</w>":1042,"log":1043,"ate":1044,"specified</w>":1045,"Th":1046,"clo":1047,"nection</w>":1048,"be</w>":1049,"||</w>":1050,"abel</w>":1051,"ut":1052,"fir":1053,"tto":1054,"sition</w>":1055,"ic</w>":1056,"Descriptor</w>":1057,"quest</w>":1058,"message</w>":1059,"start</w>":1060,"ession</w>":1061,"ach":1062,"ight</w>":1063,"For":1064,"pres":1065,"ls</w>":1066,"ding</w>":1067,"ated</w>":1068,"Vi":1069,"rap":1070,"write</w>":1071,"State</w>":1072,"user</w>":1073,"Stream</w>":1074,"cess</w>":1075,"ocument</w>":1076,"Ed":1077,"lic":1078,"ties</w>":1079,"stance</w>":1080,"Path</w>":1081,"Array</w>":1082,"mand</w>":1083,"by</w>":1084,"event</w>":1085,"alues</w>":1086,"AT":1087,"tton</w>":1088,"itor</w>":1089,"UR":1090,"roup</w>":1091,"teger</w>":1092,"Manager</w>":1093,"vali":1094,"Un":1095,"\"\"</w>":1096,"tions</w>":1097,"pl":1098,"EN":1099,"print</w>":1100,"Qu":1101,"table</w>":1102,"Time</w>":1103,"instance":1104,"ard</w>":1105,"are</w>":1106,"idth</w>":1107,"cle":1108,"check</w>":1109,"ded</w>":1110,"reg":1111,"adds</w>":1112,"ml</w>":1113,"while</w>":1114,"hand":1115,"Table</w>":1116,"ount</w>":1117,"Field</w>":1118,"feren":1119,"yn":1120,"Im":1121,"bo":1122,"instanceof</w>":1123,"ery</w>":1124,"atus</w>":1125,"yte</w>":1126,"Context</w>":1127,"Resource</w>":1128,"leg":1129,"super</w>":1130,"time</w>":1131,"ms</w>":1132,"mat":1133,"print":1134,"Er":1135,"Size</w>":1136,"ist":1137,"ln</w>":1138,"User</w>":1139,"ok":1140,"apter</w>":1141,"alo":1142,"An":1143,"ass":1144,"Rec":1145,"Attribute</w>":1146,"abled</w>":1147,"port</w>":1148,"fig":1149,"Component</w>":1150,"Integer</w>":1151,"parent</w>":1152,"load</w>":1153,"ave</w>":1154,"sert</w>":1155,"ks</w>":1156,"sub":1157,"println</w>":1158,"line</w>":1159,"ress</w>":1160,"Pa":1161,"bug</w>":1162,"He":1163,"RE":1164,"ents</w>":1165,"Next</w>":1166,"listener</w>":1167,"feat":1168,".\"</w>":1169,"alog</w>":1170,"Instance</w>":1171,"perties</w>":1172,"initi":1173,"its</w>":1174,"close</w>":1175,"ary</w>":1176,"Uti":1177,"arg":1178,"row</w>":1179,"RO":1180,"Info</w>":1181,"Panel</w>":1182,"inter":1183,"All</w>":1184,"pon":1185,"yer</w>":1186,"play</w>":1187,"cop":1188,"ash</w>":1189,"Iterator</w>":1190,"ener":1191,"flo":1192,"ule</w>":1193,"arget</w>":1194,"lete</w>":1195,"ters</w>":1196,"ors</w>":1197,"res</w>":1198,"Image</w>":1199,"case</w>":1200,"ask</w>":1201,"form</w>":1202,"error</w>":1203,"Tree</w>":1204,"path</w>":1205,"ameter</w>":1206,"Pre":1207,"ector</w>":1208,"mp</w>":1209,"one</w>":1210,"sto":1211,"Buffer</w>":1212,"vis":1213,"Input</w>":1214,"Sh":1215,"fil":1216,"model</w>":1217,"ecu":1218,"tion":1219,"iterator</w>":1220,"CO":1221,"Count</w>":1222,"clear</w>":1223,"rame</w>":1224,"ari":1225,"aliz":1226,"act</w>":1227,"lements</w>":1228,"dat":1229,"cou":1230,"long</w>":1231,"Dis":1232,"end":1233,"pt</w>":1234,"column</w>":1235,"count</w>":1236,"Change</w>":1237,"Error</w>":1238,"contains</w>":1239,"state</w>":1240,"AL":1241,"Date</w>":1242,"old</w>":1243,"Inter":1244,"Color</w>":1245,"trans":1246,"teners</w>":1247,"gets</w>":1248,"ST":1249,"jav":1250,"tifi":1251,"out":1252,"DE":1253,"values</w>":1254,"View</w>":1255,"Trans":1256,"min":1257,"ord</w>":1258,"indo":1259,"Sp":1260,"lu":1261,"anged</w>":1262,"ON</w>":1263,"cess":1264,"map</w>":1265,"field</w>":1266,"au":1267,"tro":1268,"Hand":1269,"number</w>":1270,"Per":1271,"fig</w>":1272,"ound</w>":1273,"ron":1274,"ys</w>":1275,"Selected</w>":1276,"struc":1277,"val</w>":1278,"des</w>":1279,"legal</w>":1280,"ings</w>":1281,"do</w>":1282,"La":1283,"uration</w>":1284,"ible</w>":1285,"wer</w>":1286,"e\"</w>":1287,"lock</w>":1288,"TI":1289,"context</w>":1290,"default</w>":1291,"Connection</w>":1292,"Code</w>":1293,"Enabled</w>":1294,"Be":1295,"riter</w>":1296,"Il":1297,"ML</w>":1298,"ool</w>":1299,"Illegal</w>":1300,"other</w>":1301,"imp":1302,"Cur":1303,"wn</w>":1304,"obj</w>":1305,"Selection</w>":1306,"ference</w>":1307,"Document</w>":1308,"typ":1309,"pan":1310,"LO":1311,"indow</w>":1312,"syn":1313,"last</w>":1314,"tation</w>":1315,"yout</w>":1316,"byte</w>":1317,"Men":1318,"Number</w>":1319,"Roo":1320,"show</w>":1321,"component</w>":1322,"Service</w>":1323,"ont</w>":1324,"sg</w>":1325,"Out":1326,"Ta":1327,"por":1328,"Stack</w>":1329,"gin</w>":1330,"lient</w>":1331,"Button</w>":1332,"Vis":1333,"rect":1334,"Entry</w>":1335,"tive</w>":1336,"ex</w>":1337,"ild":1338,"Arg":1339,"execu":1340,"ache</w>":1341,"Su":1342,"label</w>":1343,"ru":1344,"instance</w>":1345,"gn":1346,"Command</w>":1347,"ke</w>":1348,"Line</w>":1349,"source</w>":1350,"code</w>":1351,"ge</w>":1352,"MA":1353,"Menu</w>":1354,"order</w>":1355,"ive</w>":1356,"descrip":1357,"Grap":1358,"Default</w>":1359,"view</w>":1360,"buffer</w>":1361,"logger</w>":1362,"request</w>":1363,"Source</w>":1364,"unc":1365,"sed</w>":1366,"max</w>":1367,"whe":1368,"selected</w>":1369,"sc":1370,"regis":1371,"input</w>":1372,"con</w>":1373,"attribute</w>":1374,"entry</w>":1375,"ner</w>":1376,"remov":1377,"Adapter</w>":1378,"debug</w>":1379,"itle</w>":1380,"dress</w>":1381,"Pack":1382,"ure":1383,"ponse</w>":1384,"Do":1385,"il</w>":1386,"float</w>":1387,"ffset</w>":1388,"Vector</w>":1389,"parse</w>":1390,"ps</w>":1391,"fire</w>":1392,"per</w>":1393,"whether</w>":1394,"+=</w>":1395,"find</w>":1396,"Run":1397,"At</w>":1398,"Ob":1399,"ints</w>":1400,"Group</w>":1401,"mpty</w>":1402,"ell</w>":1403,"child</w>":1404,"delete</w>":1405,"ER</w>":1406,"info</w>":1407,"fy</w>":1408,"ke":1409,"lin":1410,"Root</w>":1411,"des":1412,"tic":1413,"reak</w>":1414,"AR":1415,"am</w>":1416,"read":1417,"ast</w>":1418,"Trace</w>":1419,"Point</w>":1420,"position</w>":1421,"dra":1422,"Pane</w>":1423,"Row</w>":1424,"ages</w>":1425,"ked</w>":1426,"session</w>":1427,"Session</w>":1428,"mod":1429,"yle</w>":1430,"java</w>":1431,"ret</w>":1432,"ies</w>":1433,"ren</w>":1434,"SQ":1435,"LE":1436,"late</w>":1437,"init</w>":1438,"figuration</w>":1439,"width</w>":1440,"ildren</w>":1441,"Tok":1442,"Status</w>":1443,"tributes</w>":1444,"main</w>":1445,"Nam":1446,"Label</w>":1447,"creates</w>":1448,"break</w>":1449,"Ap":1450,"AN":1451,"Up":1452,"Content</w>":1453,"trol</w>":1454,"can":1455,"target</w>":1456,"Output</w>":1457,"Mod":1458,"Result</w>":1459,"OR":1460,"Ver":1461,"Page</w>":1462,"server</w>":1463,"used</w>":1464,"From</w>":1465,"ses</w>":1466,"SQL</w>":1467,"Column</w>":1468,">=</w>":1469,"Int</w>":1470,"when</w>":1471,"atement</w>":1472,"copy</w>":1473,"Argument</w>":1474,"Bo":1475,"handle</w>":1476,"Lin":1477,"Fil":1478,"00":1479,"roun":1480,"word</w>":1481,"SE":1482,"lect</w>":1483,"nal</w>":1484,"trol":1485,"gener":1486,"use</w>":1487,"Form":1488,"image</w>":1489,"ilder</w>":1490,"Handler</w>":1491,"Thread</w>":1492,"Request</w>":1493,"ft</w>":1494,"ouse</w>":1495,"ized</w>":1496,"In</w>":1497,"ip</w>":1498,"save</w>":1499,"let</w>":1500,"rs</w>":1501,"chron":1502,"Ref</w>":1503,"url</w>":1504,"ence</w>":1505,"abase</w>":1506,"URL</w>":1507,"\"\\":1508,"point</w>":1509,"ta</w>":1510,"Changed</w>":1511,"ho":1512,"Constan":1513,"ong</w>":1514,"pression</w>":1515,"No":1516,"resource</w>":1517,"output</w>":1518,"connection</w>":1519,"content</w>":1520,"Child</w>":1521,"we":1522,"query</w>":1523,"Properties</w>":1524,"ure\"</w>":1525,"my</w>":1526,"For</w>":1527,"ations</w>":1528,"arch</w>":1529,"Method</w>":1530,"pos":1531,"By</w>":1532,"connec":1533,"min</w>":1534,"Op":1535,"Mat":1536,"Lev":1537,"Not</w>":1538,"str</w>":1539,"round</w>":1540,"jects</w>":1541,"star":1542,"Ro":1543,"root</w>":1544,"sec":1545,"Dialog</w>":1546,"send</w>":1547,"escription</w>":1548,"feature\"</w>":1549,"ture</w>":1550,"page</w>":1551,"dec":1552,"msg</w>":1553,"xml</w>":1554,"sb</w>":1555,"tems</w>":1556,"ff</w>":1557,"synchron":1558,"Log</w>":1559,"tors</w>":1560,"AC":1561,"first</w>":1562,"tiv":1563,"stream</w>":1564,"tity</w>":1565,"height</w>":1566,"Wor":1567,"Log":1568,"tal</w>":1569,"char</w>":1570,"Li":1571,"process</w>":1572,"row":1573,"tree</w>":1574,"Query</w>":1575,"XML</w>":1576,"listeners</w>":1577,"Imp":1578,"format</w>":1579,"back</w>":1580,"entity</w>":1581,"Layout</w>":1582,"run</w>":1583,"Level</w>":1584,"Math</w>":1585,"Al":1586,"pos</w>":1587,"Double</w>":1588,"ili":1589,"cu":1590,"Width</w>":1591,"ere</w>":1592,"cation</w>":1593,"ounds</w>":1594,"unction</w>":1595,"sho":1596,"Frame</w>":1597,"older</w>":1598,"Str":1599,"Format</w>":1600,"t\"</w>":1601,"ning</w>":1602,"execute</w>":1603,"atter":1604,"ill</w>":1605,"iter</w>":1606,"group</w>":1607,"Pla":1608,"Ab":1609,"ql</w>":1610,"lication</w>":1611,"ord":1612,"mar":1613,"clas":1614,"removes</w>":1615,"Position</w>":1616,"rectory</w>":1617,"valid</w>":1618,"alize</w>":1619,"Location</w>":1620,"nam":1621,"Cal":1622,"ting</w>":1623,"Package</w>":1624,"Au":1625,"Parameter</w>":1626,"wa":1627,"fix</w>":1628,"document</w>":1629,"peration</w>":1630,"ip":1631,"synchronized</w>":1632,"grap":1633,"ker</w>":1634,"command</w>":1635,"exp":1636,"anne":1637,"col</w>":1638,"em":1639,"idget</w>":1640,"sor</w>":1641,"lus":1642,"can</w>":1643,"ameters</w>":1644,"LE</w>":1645,"ual</w>":1646,"num</w>":1647,"uld</w>":1648,"Parent</w>":1649,"ariable</w>":1650,"VAL":1651,"Entity</w>":1652,"array</w>":1653,"ket</w>":1654,"face</w>":1655,"Editor</w>":1656,"cale</w>":1657,"--":1658,"ght</w>":1659,"status</w>":1660,"arac":1661,"d\"</w>":1662,"Boolean</w>":1663,"GE</w>":1664,"Long</w>":1665,"Config</w>":1666,"As":1667,"Constants</w>":1668,"ON":1669,"Remo":1670,"reset</w>":1671,"hash</w>":1672,"Compo":1673,"conver":1674,"button</w>":1675,"Empty</w>":1676,"re</w>":1677,"Contain":1678,"Current</w>":1679,"Writer</w>":1680,"Bean</w>":1681,"display</w>":1682,"Dat":1683,"wi":1684,"checks</w>":1685,"so":1686,"color</w>":1687,"tok":1688,"SI":1689,"oci":1690,"Dec":1691,"Vali":1692,"Collection</w>":1693,"Case</w>":1694,"Te":1695,"ics</w>":1696,"menu</w>":1697,"assert</w>":1698,"eue</w>":1699,"into</w>":1700,"any</w>":1701,"store</w>":1702,"requ":1703,"Project</w>":1704,"Hash</w>":1705,"UE</w>":1706,"Visible</w>":1707,"which</w>":1708,"ams</w>":1709,"Box</w>":1710,"AM":1711,"AS":1712,"elements</w>":1713,"FI":1714,"Builder</w>":1715,"paint</w>":1716,"rel":1717,"With</w>":1718,"attern</w>":1719,"lone</w>":1720,"ust</w>":1721,"Fe":1722,"n\"</w>":1723,"exist":1724,"ref":1725,"defin":1726,"Pr":1727,"TE":1728,"open</w>":1729,"cept</w>":1730,"pass":1731,"ally</w>":1732,"Utils</w>":1733,"troller</w>":1734,"insert</w>":1735,"properties</w>":1736,"stra":1737,"Token</w>":1738,"parameter</w>":1739,"Le":1740,"Window</w>":1741,"tag</w>":1742,"selection</w>":1743,"rea</w>":1744,"ffe":1745,"ars</w>":1746,"igh":1747,"mplate</w>":1748,"sw":1749,"Tag</w>":1750,"Can":1751,"Server</w>":1752,"clu":1753,"Start</w>":1754,"Form</w>":1755,"ph":1756,"Font</w>":1757,"vider</w>":1758,"ail":1759,"ytes</w>":1760,"ut</w>":1761,"Filter</w>":1762,"service</w>":1763,"Length</w>":1764,"Reg":1765,"entifi":1766,"ources</w>":1767,"Sc":1768,"Id":1769,"over":1770,"Address</w>":1771,"Height</w>":1772,"rid</w>":1773,"Runtime</w>":1774,"lev":1775,"Or":1776,"cor":1777,"ran":1778,"change</w>":1779,"ename</w>":1780,"ative</w>":1781,"offset</w>":1782,"Task</w>":1783,"Statement</w>":1784,"stop</w>":1785,"Container</w>":1786,"amp":1787,"implemen":1788,"panel</w>":1789,"annel</w>":1790,"filter</w>":1791,"tim":1792,"Cre":1793,"set":1794,"New</w>":1795,"feature</w>":1796,"Chec":1797,"Option</w>":1798,"repl":1799,"elds</w>":1800,"lan":1801,"umer":1802,"Cell</w>":1803,"validate</w>":1804,"draw</w>":1805,"frame</w>":1806,"type\"</w>":1807,"op</w>":1808,"imen":1809,"Display</w>":1810,"buf</w>":1811,"entation</w>":1812,"ttings</w>":1813,"rece":1814,"invo":1815,"s\"</w>":1816,"tr</w>":1817,"Null</w>":1818,"children</w>":1819,"Reader</w>":1820,"formation</w>":1821,"temp</w>":1822,"Descriptors</w>":1823,"bin":1824,"elper</w>":1825,"Mode</w>":1826,"gory</w>":1827,"App":1828,"tify</w>":1829,"sch":1830,"title</w>":1831,"substring</w>":1832,")\"</w>":1833,"ay</w>":1834,"indi":1835,"SW":1836,"location</w>":1837,"called</w>":1838,"ables</w>":1839,"construc":1840,"test</w>":1841,"tion\"</w>":1842,"ility</w>":1843,"Client</w>":1844,"rix</w>":1845,"angle</w>":1846,"Ho":1847,"compare</w>":1848,"No</w>":1849,"play":1850,"player</w>":1851,"Elements</w>":1852,"sql</w>":1853,"clone</w>":1854,"base</w>":1855,"Cache</w>":1856,"tin":1857,"creen</w>":1858,"cul":1859,"match":1860,"system</w>":1861,"dom</w>":1862,"Graph</w>":1863,"af":1864,"project</w>":1865,"ori":1866,"Configuration</w>":1867,"ym":1868,"stat":1869,"cep":1870,"no</w>":1871,"ocket</w>":1872,"call</w>":1873,"response</w>":1874,"Base</w>":1875,"descriptor</w>":1876,"work</w>":1877,"build</w>":1878,"ults</w>":1879,"will</w>":1880,"inter</w>":1881,"Typ":1882,"select</w>":1883,"Flo":1884,"comm":1885,"ation":1886,"VALUE</w>":1887,"And</w>":1888,"duc":1889,"ape</w>":1890,"endar</w>":1891,"Bar</w>":1892,"Util</w>":1893,"quence</w>":1894,"UL":1895,"Control</w>":1896,"register</w>":1897,"db</w>":1898,"Update</w>":1899,"Ur":1900,"Sec":1901,"client</w>":1902,"esp":1903,"essages</w>":1904,"exception</w>":1905,"mis":1906,"Values</w>":1907,"DI":1908,"Header</w>":1909,"We":1910,"associ":1911,"been</w>":1912,"ported</w>":1913,"ob</w>":1914,"imum</w>":1915,"termin":1916,"pe":1917,"ature</w>":1918,"adapter</w>":1919,"make</w>":1920,"active</w>":1921,"tex":1922,"sis":1923,"sing</w>":1924,"YP":1925,"database</w>":1926,"task</w>":1927,"pack":1928,"dialog</w>":1929,"End</w>":1930,"ordin":1931,"Style</w>":1932,"ENT</w>":1933,"vlet</w>":1934,"ING</w>":1935,"posit":1936,"dle</w>":1937,"ewer</w>":1938,"ir</w>":1939,"Gener":1940,"Listeners</w>":1941,"Graph":1942,"ec</w>":1943,"Locator</w>":1944,"doc</w>":1945,"URI</w>":1946,"rc</w>":1947,"Byte</w>":1948,"bas":1949,"Reference</w>":1950,"<=</w>":1951,"objects</w>":1952,"Ne":1953,"retri":1954,"king</w>":1955,"Icon</w>":1956,"On":1957,"mon":1958,"aracter</w>":1959,"Sch":1960,"Target</w>":1961,"mem":1962,"config</w>":1963,"tmp</w>":1964,"itch</w>":1965,"ody</w>":1966,"exten":1967,"ttp</w>":1968,"Val</w>":1969,"initializ":1970,"rer</w>":1971,"Sup":1972,"window</w>":1973,"Dir</w>":1974,"aces</w>":1975,"'\"</w>":1976,"Bounds</w>":1977,"wing</w>":1978,"war":1979,"coun":1980,"PRO":1981,"TYP":1982,"apping</w>":1983,"dates</w>":1984,"Out</w>":1985,"ments</w>":1986,"sen":1987,"Des":1988,"top</w>":1989,"level</w>":1990,"version</w>":1991,"UN":1992,"enc":1993,"Expression</w>":1994,"rect</w>":1995,"ned</w>":1996,"ackg":1997,"SA":1998,"notify</w>":1999,"cache</w>":2000,"Response</w>":2001,"\"<":2002,"ste":2003,"Plu":2004,"arch":2005,"SWT</w>":2006,"mple</w>":2007,"old":2008,"Local</w>":2009,"repres":2010,"ition</w>":2011,"Transaction</w>":2012,"Attributes</w>":2013,"2D</w>":2014,"using</w>":2015,"should</w>":2016,"initialize</w>":2017,"dep":2018,"Names</w>":2019,"Liter":2020,"function</w>":2021,"err</w>":2022,"Player</w>":2023,"imension</w>":2024,"thread</w>":2025,"LI":2026,"lag</w>":2027,"Widget</w>":2028,"mul":2029,"writer</w>":2030,"vio":2031,"ib":2032,"mary</w>":2033,"AL</w>":2034,"ram</w>":2035,"md</w>":2036,"local</w>":2037,"Logger</w>":2038,"allo":2039,"Title</w>":2040,"xy</w>":2041,"Edit</w>":2042,"CON":2043,"formed</w>":2044,"cell</w>":2045,"header</w>":2046,"UT":2047,"ags</w>":2048,"TION</w>":2049,"ackground</w>":2050,"ES":2051,"cript</w>":2052,"tex</w>":2053,"Impl</w>":2054,"RI":2055,"0.":2056,"l\"</w>":2057,"attributes</w>":2058,"DO":2059,"record</w>":2060,"ui</w>":2061,"ss</w>":2062,"user":2063,"Wr":2064,"ant</w>":2065,"curren":2066,"Record</w>":2067,">\"</w>":2068,"atch</w>":2069,"box</w>":2070,"items</w>":2071,"resh</w>":2072,"sign":2073,"Border</w>":2074,"els</w>":2075,"search</w>":2076,"calcul":2077,"token</w>":2078,"Debug</w>":2079,"tries</w>":2080,"ans</w>":2081,"stract</w>":2082,"Clo":2083,"DB</w>":2084,"NAM":2085,"Ter":2086,"ED</w>":2087,"len</w>":2088,"anges</w>":2089,"ap</w>":2090,"olu":2091,"On</w>":2092,"lback</w>":2093,"roll</w>":2094,"ocus</w>":2095,"site</w>":2096,"style</w>":2097,"mt</w>":2098,"was</w>":2099,"Mouse</w>":2100,"espace</w>":2101,"Ke":2102,"Bin":2103,"ach</w>":2104,"apper</w>":2105,"our</w>":2106,"Store</w>":2107,"ema</w>":2108,"Exten":2109,"00</w>":2110,"graph</w>":2111,"tered</w>":2112,"CE</w>":2113,"Pri":2114,"Description</w>":2115,"entifier</w>":2116,"TYPE</w>":2117,"Part</w>":2118,"visit</w>":2119,"bean</w>":2120,"io</w>":2121,"parameters</w>":2122,"sig":2123,"onents</w>":2124,"Provider</w>":2125,"angu":2126,"ve":2127,"gress</w>":2128,"pi":2129,"right</w>":2130,"description\"</w>":2131,"left</w>":2132,"Directory</w>":2133,"handler</w>":2134,"mode</w>":2135,"collection</w>":2136,"ref</w>":2137,"umns</w>":2138,"seable</w>":2139,"os</w>":2140,"dic":2141,"files</w>":2142,"Max</w>":2143,"Mem":2144,"Defin":2145,"tents</w>":2146,"Connec":2147,"container</w>":2148,"notation</w>":2149,"address</w>":2150,"ial</w>":2151,"ERRO":2152,"args</w>":2153,"the":2154,"KE":2155,"TY</w>":2156,"move</w>":2157,"pose</w>":2158,"Sub":2159,"der":2160,"Rel":2161,"Controller</w>":2162,"switch</w>":2163,"replace</w>":2164,"link</w>":2165,"bo</w>":2166,"uri</w>":2167,"ling</w>":2168,"add":2169,"get":2170,"NO":2171,"mouse</w>":2172,"ample</w>":2173,"finally</w>":2174,"implementation</w>":2175,":\"</w>":2176,"lot</w>":2177,"ht":2178,"lem</w>":2179,"specifi":2180,"font</w>":2181,"sts</w>":2182,"Char</w>":2183,"Ag":2184,"Plugin</w>":2185,"Composeable</w>":2186,"nodes</w>":2187,"Offset</w>":2188,"Fir":2189,"Last</w>":2190,"Unit</w>":2191,"Ren":2192,"exists</w>":2193,"ash":2194,"Calendar</w>":2195,"down</w>":2196,"CH":2197,"ance</w>":2198,"Servlet</w>":2199,"load":2200,"process":2201,"lob":2202,"ired</w>":2203,"ferences</w>":2204,"Port</w>":2205,"ailable</w>":2206,"Link</w>":2207,"xis</w>":2208,"dition</w>":2209,"cs</w>":2210,"ir":2211,"Regis":2212,"wner</w>":2213,"configuration</w>":2214,"Operation</w>":2215,"Grid</w>":2216,"editor</w>":2217,"iting</w>":2218,"control</w>":2219,"changed</w>":2220,"fore</w>":2221,"Helper</w>":2222,"ID":2223,"associated</w>":2224,"As</w>":2225,"Cap":2226,"tivity</w>":2227,"ffered</w>":2228,"Types</w>":2229,"dex":2230,"--</w>":2231,"Range</w>":2232,"filename</w>":2233,"ating</w>":2234,"ATI":2235,"sub</w>":2236,"derer</w>":2237,"umeration</w>":2238,"must</w>":2239,"br":2240,"Tool</w>":2241,"space</w>":2242,"part</w>":2243,"First</w>":2244,"orm":2245,"Area</w>":2246,"sav":2247,"Get</w>":2248,"cate":2249,"tting</w>":2250,"starts</w>":2251,"Cate":2252,"anguage</w>":2253,"Pos</w>":2254,"AB":2255,"Access</w>":2256,"ool":2257,"Abstract</w>":2258,"IMA":2259,"only</w>":2260,"Version</w>":2261,"Obj</w>":2262,"description</w>":2263,"Num</w>":2264,"fs</w>":2265,"run":2266,"ready</w>":2267,"param</w>":2268,"ep</w>":2269,"dir</w>":2270,"Application</w>":2271,"MP":2272,"sions</w>":2273,"ERROR</w>":2274,"**":2275,"ingle</w>":2276,"ical</w>":2277,"manager</w>":2278,"ride</w>":2279,"NAME</w>":2280,"Mon":2281,"tw":2282,"with":2283,"..":2284,"generate</w>":2285,"iled</w>":2286,"Http</w>":2287,"pository</w>":2288,"ify</w>":2289,"vious</w>":2290,"\"/":2291,"enter</w>":2292,"db":2293,"ved</w>":2294,"popu":2295,"istory</w>":2296,"DAT":2297,"refresh</w>":2298,"ook</w>":2299,"Rule</w>":2300,"roup":2301,"stack</w>":2302,"params</w>":2303,"Variable</w>":2304,"file":2305,"convert</w>":2306,"\\n\"</w>":2307,"have</w>":2308,"ens</w>":2309,"Over":2310,"ons</w>":2311,"Active</w>":2312,"Children</w>":2313,"Block</w>":2314,"man":2315,"lang</w>":2316,"valu":2317,"DA":2318,"MO":2319,"Is</w>":2320,"mail</w>":2321,"receiv":2322,"cel</w>":2323,"fields</w>":2324,"notifi":2325,"fr":2326,"factory</w>":2327,"found</w>":2328,"Dimension</w>":2329,"queue</w>":2330,"Check</w>":2331,"est":2332,"Work":2333,"ymbo":2334,"Search</w>":2335,"fer":2336,"expression</w>":2337,"Parser</w>":2338,"total</w>":2339,"rup":2340,"compu":2341,"ile</w>":2342,"conn</w>":2343,"dele":2344,"Fin":2345,"son</w>":2346,"Template</w>":2347,"bar</w>":2348,"Edge</w>":2349,"rection</w>":2350,"kno":2351,"Tab</w>":2352,"IMAGE</w>":2353,"variable</w>":2354,"prefix</w>":2355,"config":2356,"=\"</w>":2357,"layout</w>":2358,"tab</w>":2359,"connect</w>":2360,"after</w>":2361,"Database</w>":2362,"Jav":2363,"Ali":2364,"Simple</w>":2365,"ign":2366,"rows</w>":2367,"information</w>":2368,"Clas":2369,"tx</w>":2370,"ld</w>":2371,"sh</w>":2372,"ached</w>":2373,"y\"</w>":2374,"respon":2375,"reference</w>":2376,"Equ":2377,"application</w>":2378,"Pl":2379,"Mar":2380,"lease</w>":2381,"Order</w>":2382,"short</w>":2383,"erro":2384,"Buffered</w>":2385,"oper":2386,"Literals</w>":2387,"game</w>":2388,"unit</w>":2389,"cope</w>":2390,"operation</w>":2391,"Pattern</w>":2392,"wn":2393,"Rect":2394,"Found</w>":2395,"Game</w>":2396,"idx</w>":2397,"IC</w>":2398,"updates</w>":2399,"match</w>":2400,"Throw":2401,"Float</w>":2402,"host</w>":2403,"keys</w>":2404,"plu":2405,"supported</w>":2406,"actor</w>":2407,"Exp":2408,"ability</w>":2409,"nul":2410,"ends</w>":2411,"Folder</w>":2412,"mit</w>":2413,"repaint</w>":2414,"Throwable</w>":2415,"ected</w>":2416,"Url</w>":2417,"flus":2418,"trim</w>":2419,"Lock</w>":2420,"board</w>":2421,"block</w>":2422,"temp":2423,"Ge":2424,"Dep":2425,"gr":2426,"vector</w>":2427,"Process</w>":2428,"Options</w>":2429,"internal</w>":2430,"TR":2431,"izer</w>":2432,"thod":2433,"Ign":2434,"Settings</w>":2435,"directory</w>":2436,"ying</w>":2437,"ST</w>":2438,"options</w>":2439,"Remote</w>":2440,"Items</w>":2441,"Constra":2442,"dispose</w>":2443,"ew":2444,"bytes</w>":2445,"key":2446,"Messages</w>":2447,"able":2448,"solu":2449,"range</w>":2450,"pattern</w>":2451,"FA":2452,"Read</w>":2453,"ymbol</w>":2454,"determin":2455,"Bas":2456,"lis</w>":2457,"ear</w>":2458,"Bun":2459,"Valid</w>":2460,"lobal</w>":2461,"More</w>":2462,"Queue</w>":2463,"KEY</w>":2464,"accept</w>":2465,"inclu":2466,"password</w>":2467,"que</w>":2468,"work":2469,"sum":2470,"Cursor</w>":2471,"reads</w>":2472,"tip":2473,"ES</w>":2474,"icon</w>":2475,"provi":2476,"max":2477,"amp</w>":2478,"static</w>":2479,"uti":2480,"name":2481,"cli":2482,"selec":2483,"UM":2484,"ice</w>":2485,"Ignore</w>":2486,"tad":2487,"Print</w>":2488,"so</w>":2489,"evt</w>":2490,"alized</w>":2491,"Dra":2492,"edge</w>":2493,"lit</w>":2494,"sort</w>":2495,"Initi":2496,"orig":2497,"Struc":2498,"fill</w>":2499,"IN</w>":2500,"EC":2501,"duct</w>":2502,"Nodes</w>":2503,"two</w>":2504,"comp</w>":2505,"prop</w>":2506,"data":2507,"AP":2508,"statement</w>":2509,"10</w>":2510,"ending</w>":2511,"Fa":2512,"illis</w>":2513,"src</w>":2514,"current":2515,"SO":2516,"Graphics</w>":2517,"empty</w>":2518,"Invalid</w>":2519,"rol":2520,"PO":2521,"ook":2522,"vers</w>":2523,"tact</w>":2524,"Bi":2525,"wri":2526,"Oper":2527,"lation</w>":2528,"Xml</w>":2529,"Bytes</w>":2530,"Ru":2531,"Socket</w>":2532,"ale</w>":2533,"Bundle</w>":2534,"ide</w>":2535,"uments</w>":2536,"Channel</w>":2537,"twork</w>":2538,"0x":2539,"Loader</w>":2540,"reader</w>":2541,"Java</w>":2542,"auth":2543,"changes</w>":2544,"ade</w>":2545,"Category</w>":2546,"HT":2547,"To":2548,"channel</w>":2549,"gg":2550,"Sequence</w>":2551,"Enumeration</w>":2552,"Viewer</w>":2553,"LOG</w>":2554,"Test</w>":2555,"tor":2556,"att":2557,"Role</w>":2558,"ures</w>":2559,"rule</w>":2560,"Or</w>":2561,"itions</w>":2562,"Syn":2563,"BO":2564,"cessor</w>":2565,"suc":2566,"Conver":2567,"flush</w>":2568,"resol":2569,"Pres":2570,"Resources</w>":2571,"go":2572,"BU":2573,"PER":2574,"Doc</w>":2575,"flag</w>":2576,"!\"</w>":2577,"Ste":2578,"Ph":2579,"screen</w>":2580,"Modified</w>":2581,"graph":2582,"Open</w>":2583,"Pass":2584,"DE</w>":2585,"constra":2586,"based</w>":2587,"age":2588,"names</w>":2589,"da":2590,"\"Th":2591,"mission</w>":2592,"VER":2593,"where</w>":2594,"Meta</w>":2595,"Stat":2596,"Msg</w>":2597,"tadata</w>":2598,"coordin":2599,"Parameters</w>":2600,"Add</w>":2601,"look":2602,"----":2603,"body</w>":2604,"scale</w>":2605,"df</w>":2606,"Interface</w>":2607,"template</w>":2608,"before</w>":2609,"Utili":2610,"itu":2611,"Matrix</w>":2612,"cla":2613,"Valid":2614,"visible</w>":2615,"cel":2616,"LA":2617,"Spec":2618,"EX":2619,"Domain</w>":2620,"Performed</w>":2621,"extr":2622,"sk":2623,"lar":2624,"lick</w>":2625,"ond</w>":2626,"Definition</w>":2627,"ick</w>":2628,"ie</w>":2629,"ords</w>":2630,"arg</w>":2631,"enco":2632,"previous</w>":2633,"om</w>":2634,"Instan":2635,"transaction</w>":2636,"Files</w>":2637,"ferred</w>":2638,"new":2639,"available</w>":2640,"den":2641,"interface</w>":2642,"urity</w>":2643,"teri":2644,"Focus</w>":2645,"Param</w>":2646,"cmd</w>":2647,"GEN":2648,"ain</w>":2649,"Up</w>":2650,"evalu":2651,"ets</w>":2652,"enabled</w>":2653,"ient</w>":2654,"parator</w>":2655,"matrix</w>":2656,"Tran":2657,"struction</w>":2658,"Function</w>":2659,"events</w>":2660,"mark</w>":2661,"del":2662,"ult":2663,"cher</w>":2664,"argument</w>":2665,"Module</w>":2666,"category</w>":2667,"vari":2668,"==":2669,"oriz":2670,"enable</w>":2671,"apply</w>":2672,"Internal</w>":2673,"Host</w>":2674,"Call</w>":2675,"(\"</w>":2676,"ULT</w>":2677,"contents</w>":2678,"imal</w>":2679,"inc":2680,"points</w>":2681,"indicat":2682,"scri":2683,"results</w>":2684,"ok</w>":2685,"tocol</w>":2686,"ition":2687,"flow</w>":2688,"Millis</w>":2689,"norm":2690,"gin":2691,"ind</w>":2692,"determines</w>":2693,"does</w>":2694,"character</w>":2695,"Pointer</w>":2696,"stmt</w>":2697,"nable</w>":2698,"Coun":2699,"ATION</w>":2700,"itable</w>":2701,"fl":2702,"currently</w>":2703,"\".":2704,"Rectangle</w>":2705,"utable</w>":2706,"Term</w>":2707,"trace</w>":2708,"Background</w>":2709,"retriev":2710,"fo":2711,"attr</w>":2712,"sp</w>":2713,"Screen</w>":2714,"sure</w>":2715,"elp</w>":2716,"Fr":2717,"components</w>":2718,"ace":2719,"we</w>":2720,"another</w>":2721,"specific</w>":2722,"ality</w>":2723,"Str</w>":2724,"GENER":2725,"classes</w>":2726,"OS</w>":2727,"Agent</w>":2728,"Cu":2729,"cap":2730,"mon</w>":2731,"vas</w>":2732,"report</w>":2733,"Sub</w>":2734,"ooser</w>":2735,"ward</w>":2736,"dent</w>":2737,"uni":2738,"ior":2739,"already</w>":2740,"solute</w>":2741,"Db</w>":2742,"settings</w>":2743,"att</w>":2744,"Job</w>":2745,"Feature</w>":2746,"OR</w>":2747,"Vec":2748,"itive</w>":2749,"gment</w>":2750,"TH</w>":2751,"ene</w>":2752,"Main</w>":2753,"Mapping</w>":2754,"OP":2755,"invoke</w>":2756,"exit</w>":2757,"VI":2758,"widget</w>":2759,"Tri":2760,"eve</w>":2761,"ils</w>":2762,"medi":2763,"licy</w>":2764,"ested</w>":2765,"yc":2766,"role</w>":2767,"bounds</w>":2768,"Extension</w>":2769,"SE</w>":2770,"Locale</w>":2771,"custo":2772,"wait</w>":2773,"Annotation</w>":2774,"Pool</w>":2775,"let":2776,"Min</w>":2777,"TER</w>":2778,"doc":2779,"tination</w>":2780,"edit</w>":2781,"module</w>":2782,"1.":2783,"Proxy</w>":2784,"DEFA":2785,"ml":2786,"calculate</w>":2787,"verse</w>":2788,"tence</w>":2789,"java":2790,"gram</w>":2791,"Deta":2792,"twe":2793,"main":2794,"ern":2795,"thods</w>":2796,"Sen":2797,"valid":2798,"ializ":2799,"each</w>":2800,"STAN":2801,"bers</w>":2802,"Execu":2803,"if":2804,"turn</w>":2805,"cur</w>":2806,"river</w>":2807,"Pe":2808,"card</w>":2809,"Card</w>":2810,"matches</w>":2811,"ATE</w>":2812,"Renderer</w>":2813,"aded</w>":2814,"Def</w>":2815,"Auth":2816,"option</w>":2817,"time":2818,"ize</w>":2819,"username</w>":2820,"lex</w>":2821,"defined</w>":2822,"Password</w>":2823,"sequence</w>":2824,"ency</w>":2825,"Rows</w>":2826,"Requ":2827,"class":2828,"ass</w>":2829,"abs</w>":2830,"DEFAULT</w>":2831,"Composite</w>":2832,"acity</w>":2833,"ect</w>":2834,"format":2835,"locale</w>":2836,"initial</w>":2837,"wed</w>":2838,"Ran":2839,"actions</w>":2840,"modified</w>":2841,"Big</w>":2842,"izard</w>":2843,"sum</w>":2844,"rid":2845,"Character</w>":2846,"parser</w>":2847,"ttons</w>":2848,"Scroll</w>":2849,"socket</w>":2850,"Popu":2851,"GENERIC</w>":2852,"enizer</w>":2853,"SC":2854,"Combo</w>":2855,"transform</w>":2856,"viron":2857,"types</w>":2858,"html</w>":2859,"Parse</w>":2860,"text":2861,"incre":2862,"same</w>":2863,"actual</w>":2864,"cal</w>":2865,"ray":2866,"area</w>":2867,"writes</w>":2868,"VE</w>":2869,"SER":2870,"release</w>":2871,"entries</w>":2872,"finis":2873,"folder</w>":2874,"Min":2875,"pare</w>":2876,"known</w>":2877,"ca":2878,"Fields</w>":2879,"columns</w>":2880,"Progress</w>":2881,"rty</w>":2882,"SP":2883,"cancel</w>":2884,"index":2885,"org</w>":2886,"equal</w>":2887,"step</w>":2888,"\\\"\"</w>":2889,"single</w>":2890,"ular</w>":2891,"section</w>":2892,"sor":2893,"Left</w>":2894,"jo":2895,"random</w>":2896,"tween</w>":2897,"cursor</w>":2898,"ories</w>":2899,"oom</w>":2900,"Override</w>":2901,"inst":2902,"lab":2903,"INF":2904,"domain</w>":2905,"builder</w>":2906,"TA":2907,"rupted</w>":2908,"roups</w>":2909,"Pi":2910,"rad":2911,"ME":2912,"gori":2913,"controller</w>":2914,"User":2915,"Schema</w>":2916,"off</w>":2917,"TE</w>":2918,"Space</w>":2919,"perform</w>":2920,"resources</w>":2921,"tran":2922,"props</w>":2923,"Packet</w>":2924,"retrieve</w>":2925,"job</w>":2926,"\"S":2927,"comment</w>":2928,"Erro":2929,"side</w>":2930,"Namespace</w>":2931,"orage</w>":2932,"sched":2933,"iority</w>":2934,"Vertex</w>":2935,"device</w>":2936,"persis":2937,"Activity</w>":2938,"Identifier</w>":2939,"rt":2940,"pli":2941,"ist</w>":2942,"Select</w>":2943,"Profile</w>":2944,"Enco":2945,"tain</w>":2946,"Rect</w>":2947,"ared</w>":2948,"ths</w>":2949,"ternal</w>":2950,"Lower</w>":2951,"er\"</w>":2952,"Short</w>":2953,"Remove</w>":2954,"ured</w>":2955,"FF":2956,"back":2957,"Utilities</w>":2958,"app</w>":2959,"ply</w>":2960,"ashtable</w>":2961,"plugin</w>":2962,"owner</w>":2963,"JS":2964,"Script</w>":2965,"Create</w>":2966,"vironment</w>":2967,"na":2968,"ause</w>":2969,"AD":2970,"compute</w>":2971,"teria</w>":2972,"Only</w>":2973,"forms</w>":2974,"added</w>":2975,"ben":2976,"\"\\n\"</w>":2977,"activ":2978,"Handle</w>":2979,"ities</w>":2980,"rowser</w>":2981,"pc</w>":2982,"viewer</w>":2983,"created</w>":2984,"com</w>":2985,"Persis":2986,"representation</w>":2987,"100":2988,"bit</w>":2989,"QU":2990,"prepare</w>":2991,"MAX</w>":2992,"package</w>":2993,"luster</w>":2994,"Body</w>":2995,"namespace</w>":2996,"there</w>":2997,"fer</w>":2998,"Selec":2999,"hav":3000,"gorith":3001,"sifi":3002,"Runnable</w>":3003,"passed</w>":3004,"DOM</w>":3005,"TO</w>":3006,"adap":3007,"logy</w>":3008,"Device</w>":3009,"req</w>":3010,"term":3011,"Compar":3012,"ship</w>":3013,"begin</w>":3014,"messages</w>":3015,"pool</w>":3016,"var</w>":3017,"\"Can":3018,"ert</w>":3019,"Wh":3020,"post</w>":3021,"Diag":3022,"Transform</w>":3023,"\\\"":3024,"access</w>":3025,"render</w>":3026,"INSTAN":3027,"et":3028,"retrieves</w>":3029,"ek</w>":3030,"Shape</w>":3031,"Repository</w>":3032,"du":3033,"loads</w>":3034,"sible</w>":3035,"PAR":3036,"DAO</w>":3037,"Binding</w>":3038,"origin":3039,"ged</w>":3040,"Objects</w>":3041,"distance</w>":3042,"some</w>":3043,"identifier</w>":3044,"\"Error</w>":3045,"go</w>":3046,"Down</w>":3047,"between</w>":3048,"Layer</w>":3049,"Interrupted</w>":3050,"Core</w>":3051,"mer":3052,"\"The</w>":3053,"term</w>":3054,"SAX</w>":3055,"schema</w>":3056,"tem":3057,"resh":3058,"TER":3059,"Ev":3060,"tations</w>":3061,"extension</w>":3062,"Pu":3063,"legate</w>":3064,"contin":3065,"kes</w>":3066,"zz</w>":3067,"mapping</w>":3068,"gs</w>":3069,"pat":3070,"cy</w>":3071,"\",</w>":3072,"head":3073,"sel":3074,"ater</w>":3075,"aster</w>":3076,"Ori":3077,"ves</w>":3078,"cas</w>":3079,"correspon":3080,"agent</w>":3081,"inser":3082,"rop</w>":3083,"SH":3084,"alifi":3085,"ume</w>":3086,"split</w>":3087,"Member</w>":3088,"tical</w>":3089,"oice</w>":3090,"estamp</w>":3091,"amount</w>":3092,"expected</w>":3093,"ibern":3094,"grid</w>":3095,"member</w>":3096,"prob":3097,"multip":3098,"oke</w>":3099,"push</w>":3100,"Da":3101,"modifi":3102,"dest</w>":3103,"INSTANCE</w>":3104,"ome":3105,"eed</w>":3106,"Wrapper</w>":3107,"bun":3108,"day</w>":3109,"\"Un":3110,"language</w>":3111,"stop":3112,"Eng":3113,"orizon":3114,"ighli":3115,"Wi":3116,"Step</w>":3117,"required</w>":3118,"destro":3119,"setup</w>":3120,"Basic</w>":3121,"axis</w>":3122,"constructor</w>":3123,"tch</w>":3124,"ges</w>":3125,"Point":3126,"direction</w>":3127,"App</w>":3128,"full</w>":3129,"Right</w>":3130,"background</w>":3131,"utdown</w>":3132,"Modifi":3133,"Ref":3134,"tool</w>":3135,"sm":3136,"gui</w>":3137,"assig":3138,"receiver</w>":3139,"ports</w>":3140,"null\"</w>":3141,"Word</w>":3142,"Fo":3143,"Points</w>":3144,"ycle</w>":3145,"Tex":3146,"Prefix</w>":3147,"den</w>":3148,"bench</w>":3149,"Axis</w>":3150,"ed\"</w>":3151,"mb":3152,"leted</w>":3153,"ound":3154,"3D</w>":3155,"History</w>":3156,"instances</w>":3157,"lay</w>":3158,"Interval</w>":3159,"sion":3160,"termine</w>":3161,"partic":3162,"dy</w>":3163,"tra":3164,"\".\"</w>":3165,"within</w>":3166,"car":3167,"nee":3168,"progress</w>":3169,"Engine</w>":3170,"util</w>":3171,"lookup</w>":3172,"determine</w>":3173,"test":3174,"warn</w>":3175,"Timer</w>":3176,"gre":3177,"ibernate</w>":3178,"Medi":3179,"Report</w>":3180,"ful":3181,"Keys</w>":3182,"put":3183,"onds</w>":3184,"commit</w>":3185,"Var</w>":3186,"Vector":3187,"ases</w>":3188,"vices</w>":3189,"gorithm</w>":3190,"Custo":3191,"sive</w>":3192,"Mis":3193,"'t</w>":3194,"hed</w>":3195,"Web</w>":3196,"Key":3197,"array":3198,"ces":3199,"org":3200,"about</w>":3201,"estion</w>":3202,"dated</w>":3203,"Delete</w>":3204,"ced</w>":3205,"Save</w>":3206,"tional</w>":3207,"()</w>":3208,"initializes</w>":3209,"laration</w>":3210,"EL</w>":3211,"ven":3212,"Registry</w>":3213,"ss":3214,"Columns</w>":3215,"bl":3216,"ging</w>":3217,"SS</w>":3218,"TS</w>":3219,"dio</w>":3220,"gl</w>":3221,"calls</w>":3222,"iod</w>":3223,"She":3224,"Support</w>":3225,"Converter</w>":3226,"display":3227,"0.0</w>":3228,"she":3229,"vig":3230,"low</w>":3231,"existing</w>":3232,"AD</w>":3233,"Unsupported</w>":3234,"Account</w>":3235,"handles</w>":3236,"integer</w>":3237,"ttom</w>":3238,"Av":3239,"just</w>":3240,"Format":3241,"ero</w>":3242,"yo":3243,"LEC":3244,"DER</w>":3245,"counter</w>":3246,"\")\"</w>":3247,"HTML</w>":3248,"()\"</w>":3249,"ares</w>":3250,"orizontal</w>":3251,"registered</w>":3252,"pe</w>":3253,"PROPER":3254,"ct</w>":3255,"Build</w>":3256,"condition</w>":3257,"Visitor</w>":3258,"Chooser</w>":3259,"wt</w>":3260,"gy</w>":3261,"removed</w>":3262,"Tool":3263,"ort":3264,"PRE":3265,"helper</w>":3266,"gr</w>":3267,"maximum</w>":3268,"gu":3269,"\"/\"</w>":3270,"primary</w>":3271,"Move</w>":3272,"login</w>":3273,"Equals</w>":3274,"SIZ":3275,"NS</w>":3276,"Resol":3277,"head</w>":3278,"ABLE</w>":3279,"timer</w>":3280,"clazz</w>":3281,"LOG":3282,"Absolute</w>":3283,"Results</w>":3284,"tic</w>":3285,"apped</w>":3286,"script</w>":3287,"packet</w>":3288,"EL":3289,"Collec":3290,"remote</w>":3291,"layer</w>":3292,"Invo":3293,"MI":3294,"gnment</w>":3295,"loc</w>":3296,"gh":3297,"shape</w>":3298,"Linked</w>":3299,"elem</w>":3300,"ited</w>":3301,"Decimal</w>":3302,"ump</w>":3303,"TO":3304,"GE":3305,"Params</w>":3306,"Data":3307,"dicate</w>":3308,"Pol":3309,"pane</w>":3310,"original</w>":3311,"fix":3312,"[\"</w>":3313,"Indi":3314,"ids</w>":3315,"Rece":3316,"reground</w>":3317,"ten</w>":3318,"setter</w>":3319,"Language</w>":3320,"Popup</w>":3321,"Use</w>":3322,"users</w>":3323,"vid":3324,"ject":3325,"callback</w>":3326,"Home</w>":3327,"Symbol</w>":3328,"destination</w>":3329,"compo":3330,"oth":3331,"War":3332,"your</w>":3333,"engine</w>":3334,"Star":3335,"inner</w>":3336,"HT</w>":3337,"indicates</w>":3338,"Coordin":3339,"ag</w>":3340,"but</w>":3341,"AR</w>":3342,"Dt</w>":3343,"curr</w>":3344,"account</w>":3345,"TH":3346,"cannot</w>":3347,"asks</w>":3348,"proper":3349,"SU":3350,"Match</w>":3351,"Hashtable</w>":3352,"Rad":3353,"Cop":3354,"check":3355,"pop</w>":3356,"Sheet</w>":3357,"Name":3358,"very</w>":3359,"MES":3360,"Scope</w>":3361,"exp</w>":3362,"view":3363,"net</w>":3364,"Wa":3365,"top":3366,"ted":3367,"Security</w>":3368,"unk</w>":3369,"history</w>":3370,"lines</w>":3371,"related</w>":3372,"om":3373,"AST</w>":3374,"by":3375,"Preference</w>":3376,"iter":3377,"led":3378,"vertex</w>":3379,"Owner</w>":3380,"buil":3381,"le\"</w>":3382,"ading</w>":3383,"Load</w>":3384,"deta":3385,"Cli":3386,"proxy</w>":3387,"Top</w>":3388,"SIZE</w>":3389,"Del":3390,"Constraint</w>":3391,"initialized</w>":3392,"Vari":3393,"tre":3394,"Mutable</w>":3395,"Af":3396,"def</w>":3397,"Shell</w>":3398,"Lim":3399,"scroll</w>":3400,"Tra":3401,"MESSA":3402,"suppli":3403,"r\"</w>":3404,"Tokenizer</w>":3405,"SELEC":3406,"0\"</w>":3407,"thing</w>":3408,"GUI</w>":3409,"ped</w>":3410,"100</w>":3411,"Doc":3412,"e1</w>":3413,"Scale</w>":3414,"sync</w>":3415,"errors</w>":3416,"MS</w>":3417,"\",":3418,"18":3419,"havio":3420,"corresponding</w>":3421,"CL":3422,"tests</w>":3423,"Failed</w>":3424,"JSON</w>":3425,"Flag</w>":3426,"sample</w>":3427,"running</w>":3428,"Show</w>":3429,"ames</w>":3430,"brary</w>":3431,"amm":3432,"tool":3433,"provided</w>":3434,"ced":3435,"loaded</w>":3436,"focus</w>":3437,"uple</w>":3438,"definition</w>":3439,"Ato":3440,"Components</w>":3441,"cr":3442,"bundle</w>":3443,"Click</w>":3444,"Uri</w>":3445,"tn</w>":3446,"visitor</w>":3447,"stored</w>":3448,"LIN":3449,"sq":3450,"Publi":3451,"Paint</w>":3452,"Uni":3453,"compar":3454,"wise</w>":3455,"tax</w>":3456,"then</w>":3457,"tp</w>":3458,"Pair</w>":3459,"OK</w>":3460,"GER</w>":3461,"Write</w>":3462,"Ht":3463,"imation</w>":3464,"entic":3465,"Fig":3466,"dered</w>":3467,"1\"</w>":3468,"cations</w>":3469,"patch</w>":3470,"scope</w>":3471,"af</w>":3472,"appro":3473,"Policy</w>":3474,"sin":3475,"IG":3476,"series</w>":3477,"shutdown</w>":3478,"setting</w>":3479,"continue</w>":3480,"ign</w>":3481,"gh</w>":3482,"sle":3483,"Supported</w>":3484,"Pos":3485,"UT</w>":3486,"cp</w>":3487,"ur</w>":3488,"agment</w>":3489,"RA":3490,"MENT</w>":3491,"PROPERTY</w>":3492,"place</w>":3493,"relative</w>":3494,"itional</w>":3495,"ATT":3496,"action":3497,"Comm":3498,"arguments</w>":3499,"Swing</w>":3500,"Section</w>":3501,"cl</w>":3502,"relation</w>":3503,"global</w>":3504,"nost":3505,"meta</w>":3506,"separator</w>":3507,"\"get</w>":3508,"Add":3509,"Hibernate</w>":3510,"TED</w>":3511,"clears</w>":3512,"\"</":3513,"prev</w>":3514,"repository</w>":3515,"pix":3516,"Product</w>":3517,"center</w>":3518,"Cri":3519,"ece</w>":3520,"methods</w>":3521,"pha</w>":3522,"Preferences</w>":3523,"ctx</w>":3524,"tile</w>":3525,"tionary</w>":3526,"invoked</w>":3527,"Random</w>":3528,"aracters</w>":3529,"non</w>":3530,"ONE</w>":3531,"bed</w>":3532,"Tip</w>":3533,"Global</w>":3534,"\"C":3535,"img</w>":3536,"cer":3537,"FOR":3538,"amer":3539,"mer</w>":3540,"appli":3541,"Generator</w>":3542,"nex":3543,"num":3544,"Condition</w>":3545,"serv":3546,"list":3547,"constan":3548,"under":3549,"pared</w>":3550,"Monitor</w>":3551,"compares</w>":3552,"dig":3553,"<<</w>":3554,"cate</w>":3555,"ping</w>":3556,"gger</w>":3557,"ing\"</w>":3558,"name\"</w>":3559,"Actions</w>":3560,"Validation</w>":3561,"adding</w>":3562,"provider</w>":3563,"increment</w>":3564,"Instruction</w>":3565,";\"</w>":3566,"Html</w>":3567,"evaluate</w>":3568,"aps</w>":3569,"Login</w>":3570,"encode</w>":3571,"Comment</w>":3572,"Col</w>":3573,"Play":3574,"Preferred</w>":3575,"Ass":3576,"SION</w>":3577,"Init</w>":3578,"destroy</w>":3579,"25":3580,"Contact</w>":3581,"TEX":3582,"DEBU":3583,"Figure</w>":3584,"Tile</w>":3585,"lers</w>":3586,"If</w>":3587,"Expr</w>":3588,"indent</w>":3589,"rays</w>":3590,"16</w>":3591,"Structure</w>":3592,"sli":3593,"Region</w>":3594,"zed</w>":3595,"-=</w>":3596,"achine</w>":3597,"cached</w>":3598,"ech":3599,"acts</w>":3600,"resolve</w>":3601,"more</w>":3602,"es\"</w>":3603,"MESSAGE</w>":3604,"Sched":3605,"descri":3606,"Dig":3607,"tif":3608,"'\\":3609,"loy":3610,"ffi":3611,"variables</w>":3612,"servers</w>":3613,"Notifi":3614,"ty":3615,"im</w>":3616,"diag":3617,"ists</w>":3618,"ely</w>":3619,"Processor</w>":3620,"annotation</w>":3621,"Events</w>":3622,"Constant</w>":3623,"monitor</w>":3624,"uses</w>":3625,"activity</w>":3626,"Seq</w>":3627,"popup</w>":3628,"Day</w>":3629,"other":3630,"3d</w>":3631,"auto":3632,"****":3633,"allow</w>":3634,"tial</w>":3635,"Close</w>":3636,"Network</w>":3637,"than</w>":3638,"Return</w>":3639,"ibility</w>":3640,"WAR":3641,"sheet</w>":3642,"ering</w>":3643,"mi</w>":3644,"loader</w>":3645,"product</w>":3646,"translate</w>":3647,"supplied</w>":3648,"being</w>":3649,"ime</w>":3650,"Total</w>":3651,"tology</w>":3652,"connected</w>":3653,"search":3654,"rap</w>":3655,"s.":3656,"notification</w>":3657,"Protocol</w>":3658,"tribution</w>":3659,"Full</w>":3660,"contact</w>":3661,"\"'</w>":3662,"fu":3663,"tric</w>":3664,"down":3665,"ensure</w>":3666,"Copy</w>":3667,"second</w>":3668,"ness</w>":3669,"Cms</w>":3670,"border</w>":3671,"ted\"</w>":3672,"ometry</w>":3673,"saved</w>":3674,"\"No</w>":3675,"Manag":3676,"lying</w>":3677,"fferent</w>":3678,"ands</w>":3679,"bind</w>":3680,"puts</w>":3681,"named</w>":3682,"former</w>":3683,"lat":3684,"ax":3685,"minimum</w>":3686,"Dirty</w>":3687,"Auto</w>":3688,"kit</w>":3689,"timeout</w>":3690,"Contents</w>":3691,"unique</w>":3692,"HE":3693,"UID</w>":3694,"INFO</w>":3695,"GL</w>":3696,"tup</w>":3697,"Concept</w>":3698,"containing</w>":3699,"constraint</w>":3700,"0f</w>":3701,"Desc</w>":3702,"Exp</w>":3703,"sleep</w>":3704,"pair</w>":3705,"peer</w>":3706,"itude</w>":3707,"ource":3708,"depend":3709,"network</w>":3710,"delta</w>":3711,"MS":3712,"Time":3713,"UP":3714,"Wizard</w>":3715,"sole</w>":3716,"book</w>":3717,"email</w>":3718,"LOC":3719,"Peer</w>":3720,"cally</w>":3721,"US</w>":3722,"without</w>":3723,"Att":3724,"see</w>":3725,"yg":3726,"Ca":3727,"contained</w>":3728,"profile</w>":3729,"Metadata</w>":3730,"DEBUG</w>":3731,"...\"</w>":3732,"ioe</w>":3733,"over</w>":3734,"ULL</w>":3735,"ick":3736,"Closed</w>":3737,"chor</w>":3738,"control":3739,"closes</w>":3740,"FILE</w>":3741,"metadata</w>":3742,"]\"</w>":3743,"tivate</w>":3744,"force</w>":3745,"Callback</w>":3746,"Mul":3747,"Information</w>":3748,"Prob":3749,"self</w>":3750,"deletes</w>":3751,"Op</w>":3752,"stand":3753,"Jo":3754,"conven":3755,"Flow</w>":3756,"arraycopy</w>":3757,"Permission</w>":3758,"ches</w>":3759,"sc</w>":3760,"chart</w>":3761,"//":3762,"dx</w>":3763,"Cor":3764,"lim":3765,"Relation</w>":3766,"ju":3767,"pag":3768,"warning</w>":3769,"Run</w>":3770,"amera</w>":3771,"sel</w>":3772,"symbol</w>":3773,"region</w>":3774,"renderer</w>":3775,"addr</w>":3776,"sifier</w>":3777,"sn":3778,"raw</w>":3779,"resets</w>":3780,"ighb":3781,"essag":3782,"score</w>":3783,"Ind</w>":3784,"shell</w>":3785,"sends</w>":3786,"\"Co":3787,"pol":3788,"rou":3789,"depth</w>":3790,"ius</w>":3791,"calendar</w>":3792,"func":3793,"expr</w>":3794,"ews</w>":3795,"closed</w>":3796,"Site</w>":3797,"\"Cannot</w>":3798,"Activ":3799,"Transition</w>":3800,"real</w>":3801,"uid</w>":3802,"desc</w>":3803,"Stroke</w>":3804,"wable</w>":3805,"accep":3806,"Driver</w>":3807,"ools</w>":3808,"\",\"</w>":3809,"\"'\"</w>":3810,"undo</w>":3811,"xml":3812,"matcher</w>":3813,"cat</w>":3814,"open":3815,"Fl":3816,"help</w>":3817,"configure</w>":3818,"Sli":3819,"Sample</w>":3820,"ain":3821,"done</w>":3822,"ynam":3823,"gn</w>":3824,"rest</w>":3825,"IT</w>":3826,"success":3827,"True</w>":3828,"View":3829,"otherwise</w>":3830,"ber":3831,"Workbench</w>":3832,"ock</w>":3833,"Associ":3834,"auto</w>":3835,"\"-":3836,"alization</w>":3837,"Chart</w>":3838,"zoom</w>":3839,"Direction</w>":3840,"converts</w>":3841,"interval</w>":3842,"Constraints</w>":3843,"mitive</w>":3844,"Entries</w>":3845,"flags</w>":3846,"tric":3847,"consum":3848,"Media</w>":3849,"coordinates</w>":3850,"hs</w>":3851,"prints</w>":3852,"son":3853,"ier":3854,"Index":3855,"complete</w>":3856,"Spec</w>":3857,"Gen</w>":3858,"awt</w>":3859,"ret":3860,"Sort</w>":3861,"Capability</w>":3862,"DF</w>":3863,"Collections</w>":3864,"subject</w>":3865,"Lab":3866,"override</w>":3867,"date":3868,"bound</w>":3869,"year</w>":3870,"canvas</w>":3871,"NO</w>":3872,"coordinate</w>":3873,"dataset</w>":3874,"lette</w>":3875,"simple</w>":3876,"buttons</w>":3877,"ci":3878,"IL":3879,"Work</w>":3880,"Literal</w>":3881,"One</w>":3882,"Distance</w>":3883,"tained</w>":3884,"Named</w>":3885,"Enum</w>":3886,"import</w>":3887,"ME</w>":3888,"Depend":3889,"encoding</w>":3890,"mask</w>":3891,"native</w>":3892,"way</w>":3893,"Config":3894,"Fac":3895,"Bound</w>":3896,"Rate</w>":3897,"clean</w>":3898,"memory</w>":3899,"Process":3900,"Operator</w>":3901,"getter</w>":3902,"Bit</w>":3903,"join</w>":3904,"lex":3905,"WH":3906,"vidual</w>":3907,"ategy</w>":3908,"Sor":3909,"alias</w>":3910,"Person</w>":3911,"javax</w>":3912,"SS":3913,"sa":3914,"characters</w>":3915,"tter</w>":3916,"cessible</w>":3917,"Selector</w>":3918,"cated</w>":3919,"plays</w>":3920,"Sql</w>":3921,"ests</w>":3922,"TP</w>":3923,"Assign":3924,"Segment</w>":3925,"incip":3926,"eld":3927,"Suc":3928,"End":3929,"argin</w>":3930,"limit</w>":3931,"32</w>":3932,"trics</w>":3933,"inte":3934,"posed</w>":3935,"skip</w>":3936,"gle</w>":3937,"bottom</w>":3938,"SET</w>":3939,"bloc":3940,"STR":3941,"FIN":3942,"receive</w>":3943,"http</w>":3944,"PA":3945,"ffect</w>":3946,"answer</w>":3947,"sty":3948,"dbc</w>":3949,"Encoding</w>":3950,"Sk":3951,"Ve":3952,"delegate</w>":3953,"quo":3954,"part":3955,"Series</w>":3956,"lower</w>":3957,"Upper</w>":3958,"fetch</w>":3959,"Attr</w>":3960,"free</w>":3961,"value":3962,"Receiv":3963,"My</w>":3964,"ard":3965,"gc</w>":3966,"Sum":3967,"Counter</w>":3968,"\"'":3969,"Na":3970,"Capacity</w>":3971,"\":</w>":3972,"OF</w>":3973,"duration</w>":3974,"unch</w>":3975,"ierarch":3976,"node":3977,"2d</w>":3978,"Max":3979,"now</w>":3980,"operator</w>":3981,"ization</w>":3982,"ACE</w>":3983,"export</w>":3984,"construct</w>":3985,"ics":3986,"ience</w>":3987,"manag":3988,"Generic</w>":3989,"hide</w>":3990,"Browser</w>":3991,"abili":3992,"sport</w>":3993,"Memory</w>":3994,"saves</w>":3995,"Environment</w>":3996,"Details</w>":3997,"words</w>":3998,"month</w>":3999,"\\\\":4000,"gen":4001,"extends</w>":4002,"processing</w>":4003,"bits</w>":4004,"Score</w>":4005,"NE":4006,"direct":4007,"ators</w>":4008,"TEXT</w>":4009,"Stu":4010,"note</w>":4011,"state":4012,"Canvas</w>":4013,"subscri":4014,"Help</w>":4015,"pressed</w>":4016,"requi":4017,"ti</w>":4018,"Lines</w>":4019,"CI":4020,"underlying</w>":4021,"Instances</w>":4022,"Sign":4023,"NOT</w>":4024,"env</w>":4025,"mu":4026,"Inclu":4027,"Pressed</w>":4028,"ktop</w>":4029,"calculates</w>":4030,"olution</w>":4031,"ear":4032,"their</w>":4033,"External</w>":4034,"bro":4035,"AN</w>":4036,"Email</w>":4037,"Allo":4038,"CEN":4039,"tip</w>":4040,"tab":4041,"DB":4042,"wid":4043,"DATE</w>":4044,"all":4045,"Idx</w>":4046,"groups</w>":4047,"20</w>":4048,"identifi":4049,"ision</w>":4050,"uler</w>":4051,"Arrays</w>":4052,"starting</w>":4053,"performs</w>":4054,"\"h":4055,"null":4056,"structure</w>":4057,"ula</w>":4058,"appropri":4059,"merge</w>":4060,"FT</w>":4061,"throu":4062,"faces</w>":4063,"simul":4064,"install</w>":4065,"cording</w>":4066,"extract</w>":4067,"Initial</w>":4068,"displayed</w>":4069,"custom</w>":4070,"Single</w>":4071,"fol":4072,"BUT":4073,"activate</w>":4074,"red":4075,"Serializ":4076,"storage</w>":4077,"Execution</w>":4078,"acker</w>":4079,"oring</w>":4080,"ous</w>":4081,"may</w>":4082,"Top":4083,"tags</w>":4084,"fe</w>":4085,"igh</w>":4086,"====":4087,"()":4088,"urse</w>":4089,"Cla":4090,"states</w>":4091,"Finis":4092,"cedure</w>":4093,"bi":4094,"plan":4095,"IS</w>":4096,"Declaration</w>":4097,"DATA</w>":4098,"--------":4099,"Running</w>":4100,"adapted</w>":4101,"bl</w>":4102,"according</w>":4103,"registers</w>":4104,"TAG</w>":4105,"stores</w>":4106,"Atom</w>":4107,"protocol</w>":4108,"Such</w>":4109,"cls</w>":4110,"generates</w>":4111,"shows</w>":4112,"Ok</w>":4113,"segment</w>":4114,"Assert</w>":4115,"sm</w>":4116,"Filename</w>":4117,"...</w>":4118,"Missing</w>":4119,"include</w>":4120,"edit":4121,"Available</w>":4122,"atform</w>":4123,"txt</w>":4124,"exclu":4125,"trs</w>":4126,"Added</w>":4127,"tit":4128,"STAT":4129,"Read":4130,"tices</w>":4131,"tract</w>":4132,"Classes</w>":4133,"lay":4134,"servlet</w>":4135,"Admin</w>":4136,"COL":4137,"LOGGER</w>":4138,"returned</w>":4139,"Sim":4140,"dl</w>":4141,"lyp":4142,"tokens</w>":4143,"weight</w>":4144,"CLAS":4145,"ranch</w>":4146,"\":\"</w>":4147,"core</w>":4148,"Excep":4149,"fine</w>":4150,"dimension</w>":4151,"rix":4152,"initili":4153,"rtual</w>":4154,"Prepared</w>":4155,"char":4156,"notifies</w>":4157,"FO":4158,"FRO":4159,"Zone</w>":4160,"jcas</w>":4161,"NULL</w>":4162,"IS":4163,"gories</w>":4164,"?\"</w>":4165,"ationship</w>":4166,"schedule</w>":4167,"Foreground</w>":4168,"tf</w>":4169,"gen</w>":4170,"ggle</w>":4171,"rules</w>":4172,"Primary</w>":4173,"Limit</w>":4174,"Errors</w>":4175,"ynamic</w>":4176,"Mail</w>":4177,"COM":4178,"Fail":4179,"Geo</w>":4180,"allowed</w>":4181,"stre":4182,"defa":4183,"shi":4184,"Ra":4185,"Timeout</w>":4186,"Observer</w>":4187,"Separator</w>":4188,"Criteria</w>":4189,"Tokens</w>":4190,"ORT</w>":4191,"Holder</w>":4192,"Editable</w>":4193,"coming</w>":4194,"0000":4195,"acing</w>":4196,"lash</w>":4197,"Per</w>":4198,"graphics</w>":4199,"binding</w>":4200,"Por":4201,"standard</w>":4202,"through</w>":4203,"x1</w>":4204,"forward</w>":4205,"pre</w>":4206,"Stop</w>":4207,"Man":4208,"aly":4209,"eline</w>":4210,"leas":4211,"Net</w>":4212,"verify</w>":4213,"type":4214,"combo</w>":4215,"less</w>":4216,"point":4217,"Back</w>":4218,"port":4219,"executes</w>":4220,"3f</w>":4221,"FF</w>":4222,"essary</w>":4223,"OPTION</w>":4224,"initilia":4225,"EV":4226,"ement</w>":4227,"ins</w>":4228,"parses</w>":4229,"STATE</w>":4230,"US":4231,"chang":4232,"want</w>":4233,"NING</w>":4234,"hash":4235,"Specifi":4236,"initiliazed</w>":4237,"zero</w>":4238,"Timestamp</w>":4239,"ORI":4240,"optional</w>":4241,"TABLE</w>":4242,"id\"</w>":4243,"arge</w>":4244,"enti":4245,"Endpoint</w>":4246,"Temp</w>":4247,"Rou":4248,"appropriate</w>":4249,"typed</w>":4250,"rt</w>":4251,"1.0</w>":4252,"IP</w>":4253,"Note</w>":4254,"licked</w>":4255,"ignore</w>":4256,"upper</w>":4257,"invalidate</w>":4258,"til</w>":4259,"cc</w>":4260,"disable</w>":4261,"Priority</w>":4262,"Free</w>":4263,"recur":4264,"}\"</w>":4265,"Dataset</w>":4266,"ipan":4267,"uring</w>":4268,"1000</w>":4269,"priority</w>":4270,"inserts</w>":4271,"mid":4272,"Partic":4273,"Factor</w>":4274,"web</w>":4275,"Alignment</w>":4276,"CHAN":4277,"cent</w>":4278,"ysi":4279,"constraints</w>":4280,"istics</w>":4281,"ttp":4282,"ACTION</w>":4283,"Marker</w>":4284,"Mult":4285,"emp":4286,"Removed</w>":4287,"alified</w>":4288,"entication</w>":4289,"her":4290,"implements</w>":4291,"\"\\\"\"</w>":4292,"Sn":4293,"fro":4294,"velo":4295,"reas":4296,"decode</w>":4297,"or\"</w>":4298,"players</w>":4299,"Connected</w>":4300,"cast</w>":4301,"mil":4302,"mit":4303,"y1</w>":4304,"direct</w>":4305,"convenience</w>":4306,"Down":4307,"support</w>":4308,"Head":4309,"Control":4310,"here</w>":4311,"Cat":4312,"them</w>":4313,"roll":4314,"Complex</w>":4315,"composite</w>":4316,"fos</w>":4317,"Real</w>":4318,"constructs</w>":4319,"correct</w>":4320,"ryp":4321,"generated</w>":4322,"Insert</w>":4323,"Multi</w>":4324,"reply</w>":4325,"eme</w>":4326,"track</w>":4327,"cation":4328,"closing</w>":4329,"rectangle</w>":4330,"moves</w>":4331,"displays</w>":4332,"Send</w>":4333,"wrap</w>":4334,"g2</w>":4335,"tured</w>":4336,"COMP":4337,"ro</w>":4338,"fai":4339,"loading</w>":4340,"stu":4341,"ffix</w>":4342,"attemp":4343,"lap":4344,"possible</w>":4345,"tes":4346,"Point2D</w>":4347,"achment</w>":4348,"constant</w>":4349,"Ids</w>":4350,"cook":4351,"Post</w>":4352,"afe</w>":4353,"=\\\"\"</w>":4354,"Summary</w>":4355,"Toolkit</w>":4356,"Board</w>":4357,"highli":4358,"click</w>":4359,"\"Could</w>":4360,"ules</w>":4361,"Required</w>":4362,"you</w>":4363,"Texture</w>":4364,"subclasses</w>":4365,"Bus":4366,"Comparator</w>":4367,"ics2D</w>":4368,"\"Invalid</w>":4369,"Binary</w>":4370,"tificate</w>":4371,"finish</w>":4372,"Notification</w>":4373,"Am":4374,"cen":4375,"INT</w>":4376,"Duration</w>":4377,"off":4378,"Stand":4379,"Oc":4380,"shot</w>":4381,"dump</w>":4382,"After</w>":4383,"who":4384,"cluster</w>":4385,"Common</w>":4386,"Mgr</w>":4387,"UP</w>":4388,"bs</w>":4389,"incipal</w>":4390,"tar":4391,"loop</w>":4392,"updated</w>":4393,"Cluster</w>":4394,"Gr":4395,"appends</w>":4396,"Termin":4397,"ygon</w>":4398,"rot":4399,"speed</w>":4400,"ml\"</w>":4401,"vision</w>":4402,"FS</w>":4403,"reshold</w>":4404,"Chat</w>":4405,"10":4406,"Weight</w>":4407,"verage</w>":4408,"error":4409,"ak</w>":4410,"Groups</w>":4411,"Evalu":4412,"Diagnost":4413,"FROM</w>":4414,"Subject</w>":4415,"DS</w>":4416,"havior</w>":4417,"mi":4418,"disconnect</w>":4419,"CONT":4420,"\"Unable</w>":4421,"sf</w>":4422,"records</w>":4423,"lates</w>":4424,"Coordinate</w>":4425,"vol":4426,"finds</w>":4427,"CENTER</w>":4428,"plot</w>":4429,"comple":4430,"sity</w>":4431,"quer":4432,"CE":4433,"br</w>":4434,"Graphics2D</w>":4435,"Buttons</w>":4436,"world</w>":4437,"abilities</w>":4438,"di</w>":4439,"factor</w>":4440,"media</w>":4441,"received</w>":4442,"em</w>":4443,"execution</w>":4444,"success</w>":4445,"slot</w>":4446,"ily</w>":4447,"sur":4448,"headers</w>":4449,"excep":4450,"Norm":4451,"g\"</w>":4452,"tru":4453,"validation</w>":4454,"needed</w>":4455,"Res</w>":4456,"asure</w>":4457,"Storage</w>":4458,"invalid</w>":4459,"Faces</w>":4460,"spath</w>":4461,"driver</w>":4462,"anno":4463,"cond":4464,"need</w>":4465,"SED</w>":4466,"seri":4467,"quare</w>":4468,"ton</w>":4469,"sol":4470,"insets</w>":4471,"obj":4472,"registry</w>":4473,"Iter</w>":4474,"ammar</w>":4475,"restore</w>":4476,"Connector</w>":4477,"table":4478,"populate</w>":4479,"criteria</w>":4480,"Depth</w>":4481,"\"M":4482,"Matrix":4483,"Center</w>":4484,"Dic":4485,"exc</w>":4486,"ATOR</w>":4487,"pm</w>":4488,"JEC":4489,"ware</w>":4490,"Render</w>":4491,"Arch":4492,"sy":4493,"preferences</w>":4494,"LAY":4495,"supports</w>":4496,"pass</w>":4497,"idden</w>":4498,"topic</w>":4499,"inste":4500,"cr</w>":4501,"Extr":4502,"Implemen":4503,"Persistence</w>":4504,"rag":4505,"Name\"</w>":4506,"Cast</w>":4507,"ument":4508,"tifact</w>":4509,"CES":4510,"instruction</w>":4511,"dim</w>":4512,"Import</w>":4513,"Maximum</w>":4514,"x2</w>":4515,"acement</w>":4516,"Plot</w>":4517,"Bits</w>":4518,"signed</w>":4519,"pack</w>":4520,"Tuple</w>":4521,"clip</w>":4522,"alys":4523,"ights</w>":4524,"Year</w>":4525,"expand</w>":4526,"peri":4527,"retval</w>":4528,"impl</w>":4529,"Resolver</w>":4530,"algorithm</w>":4531,"Mask</w>":4532,"ms":4533,"ood</w>":4534,"Audio</w>":4535,"clean":4536,"PAT":4537,"present</w>":4538,"necessary</w>":4539,"Flags</w>":4540,"connections</w>":4541,"Non</w>":4542,"Props</w>":4543,"navig":4544,"ierarchy</w>":4545,"wrapper</w>":4546,"xed</w>":4547,"ce\"</w>":4548,"Exists</w>":4549,"ario</w>":4550,"Pix":4551,"drop</w>":4552,"12":4553,"SV":4554,"fac":4555,"atom</w>":4556,"filters</w>":4557,"Cmd</w>":4558,"Horizontal</w>":4559,"SEVER":4560,"y2</w>":4561,"mode":4562,"Transfer</w>":4563,"STAR":4564,"matching</w>":4565,"\"D":4566,"p1</w>":4567,"maining</w>":4568,"oid</w>":4569,"Produc":4570,"Sty":4571,"arg0</w>":4572,"MIN</w>":4573,"Tur":4574,"Exit</w>":4575,"enting</w>":4576,"NONE</w>":4577,"Back":4578,"tering</w>":4579,"Detail</w>":4580,"Custom</w>":4581,"makes</w>":4582,"MODE</w>":4583,"Choice</w>":4584,"Signature</w>":4585,"cb</w>":4586,"I18":4587,"delay</w>":4588,"home</w>":4589,"tx":4590,"security</w>":4591,"ically</w>":4592,"sever":4593,"FIL":4594,"Arg</w>":4595,"Adap":4596,"EMP":4597,"commands</w>":4598,"going</w>":4599,"greg":4600,"tration</w>":4601,"Bad</w>":4602,"Month</w>":4603,"0x</w>":4604,"ders</w>":4605,"deo</w>":4606,"locity</w>":4607,"edges</w>":4608,"SY":4609,"Has</w>":4610,"tel":4611,"led\"</w>":4612,"Sensor</w>":4613,"umeric</w>":4614,"12</w>":4615,"trans</w>":4616,"XY</w>":4617,"Feed</w>":4618,"builds</w>":4619,"ison</w>":4620,"particular</w>":4621,"ment":4622,"cause</w>":4623,"Bag</w>":4624,"periment</w>":4625,"\"[":4626,"\"P":4627,"><":4628,"program</w>":4629,"person</w>":4630,"rec</w>":4631,"TION":4632,"Program</w>":4633,"Complete</w>":4634,"initiali":4635,"Before</w>":4636,"period</w>":4637,"GR":4638,"alpha</w>":4639,"panded</w>":4640,"AP</w>":4641,"So":4642,"=\\\"":4643,"ze":4644,"occur":4645,"external</w>":4646,"jar</w>":4647,"parts</w>":4648,"pointer</w>":4649,"Allowed</w>":4650,"light</w>":4651,"assign</w>":4652,"transition</w>":4653,"strings</w>":4654,"Angle</w>":4655,"equality</w>":4656,"LINE</w>":4657,"Sho":4658,"RG":4659,"s2</w>":4660,"Formatter</w>":4661,"room</w>":4662,"ALL</w>":4663,"produc":4664,"cp":4665,"ching</w>":4666,"mod</w>":4667,"Rules</w>":4668,"COLO":4669,"Validator</w>":4670,"finished</w>":4671,"Topic</w>":4672,"units</w>":4673,"lip":4674,"started</w>":4675,"origin</w>":4676,"List":4677,"rase</w>":4678,"ffec":4679,"Transformer</w>":4680,"ING":4681,"stitu":4682,"bit":4683,"cut</w>":4684,"appings</w>":4685,"Clone</w>":4686,"s1</w>":4687,"://":4688,"hoto</w>":4689,"Cook":4690,"pay":4691,"cells</w>":4692,"spec</w>":4693,"Dictionary</w>":4694,"patcher</w>":4695,"bum</w>":4696,"Geometry</w>":4697,"eu":4698,"Minimum</w>":4699,"BL</w>":4700,"Speed</w>":4701,"Look":4702,"instead</w>":4703,"figure</w>":4704,"ARG":4705,"dr</w>":4706,"Invocation</w>":4707,"lav":4708,"dit</w>":4709,"GRO":4710,"iler</w>":4711,"draws</w>":4712,"dings</w>":4713,"ERE</w>":4714,"Period</w>":4715,"sess":4716,"locate</w>":4717,"Accessible</w>":4718,"during</w>":4719,"path":4720,"pw</w>":4721,"apshot</w>":4722,"images</w>":4723,"automat":4724,"wizard</w>":4725,"UMENT</w>":4726,"Len</w>":4727,"o1</w>":4728,"define</w>":4729,"GHT</w>":4730,"Zoom</w>":4731,"marsh":4732,"SELECT</w>":4733,"Src</w>":4734,"calc</w>":4735,"Vertical</w>":4736,"Pdf</w>":4737,"WN</w>":4738,"firm</w>":4739,"gins</w>":4740,"ounding</w>":4741,"deleted</w>":4742,"Setting</w>":4743,"Failure</w>":4744,"spa":4745,"failed</w>":4746,"Func":4747,"Variables</w>":4748,"ither</w>":4749,"CLASS</w>":4750,"World</w>":4751,"Args</w>":4752,"missions</w>":4753,"Predicate</w>":4754,"editing</w>":4755,"\\\"</w>":4756,"labels</w>":4757,"Multip":4758,"Clause</w>":4759,"Tags</w>":4760,"ni":4761,"EMPTY</w>":4762,"fc</w>":4763,"enum</w>":4764,"Algorithm</w>":4765,"amework</w>":4766,"It</w>":4767,"The":4768,"ving</w>":4769,"sender</w>":4770,"Scan":4771,"Matcher</w>":4772,"lyph</w>":4773,"obs</w>":4774,"reload</w>":4775,"browser</w>":4776,"Syntax</w>":4777,"Highli":4778,"transfer</w>":4779,"Check":4780,"li</w>":4781,"Prop</w>":4782,"paren":4783,"recei":4784,"item":4785,"Dao</w>":4786,"Raw</w>":4787,"tasks</w>":4788,"environment</w>":4789,"WHERE</w>":4790,"Equal</w>":4791,"Plan</w>":4792,"result":4793,"policy</w>":4794,"Operand</w>":4795,"sation</w>":4796,"leased</w>":4797,"atal</w>":4798,"sorted</w>":4799,"Plan":4800,"zone</w>":4801,"working</w>":4802,"Lib</w>":4803,"ation\"</w>":4804,"Gen":4805,"o2</w>":4806,"Split</w>":4807,"overri":4808,"map":4809,"diff</w>":4810,"essage":4811,"exist</w>":4812,"Creation</w>":4813,"binary</w>":4814,"mut":4815,"views</w>":4816,"HO":4817,"ee</w>":4818,"concept</w>":4819,"ASE</w>":4820,"Users</w>":4821,"neg":4822,"look</w>":4823,"Standard</w>":4824,"ELE":4825,"cho":4826,"Sm":4827,"roo":4828,"processor</w>":4829,"11</w>":4830,"OUT</w>":4831,"Subscri":4832,"Tools</w>":4833,"|=</w>":4834,"Shared</w>":4835,"Temp":4836,"Library</w>":4837,"normal</w>":4838,"LEFT</w>":4839,"Bro":4840,"amples</w>":4841,"orig</w>":4842,"instanti":4843,"needs</w>":4844,"sequ":4845,"licate</w>":4846,"overrid":4847,"compile</w>":4848,"timestamp</w>":4849,"signature</w>":4850,"eval</w>":4851,"scan</w>":4852,"Gui</w>":4853,"peek</w>":4854,"Gu":4855,"cols</w>":4856,"mantic</w>":4857,"access":4858,"modify</w>":4859,"Extended</w>":4860,"serializ":4861,"OB":4862,"tables</w>":4863,"just":4864,"se\"</w>":4865,"fg</w>":4866,"ao</w>":4867,"exec</w>":4868,"Alias</w>":4869,"Bars</w>":4870,"OW":4871,"pic":4872,"creating</w>":4873,"spr":4874,"Structured</w>":4875,"gan":4876,"leton</w>":4877,"Question</w>":4878,"Username</w>":4879,"ATTRI":4880,"observer</w>":4881,"PS</w>":4882,"boo":4883,"interrup":4884,"SEVERE</w>":4885,"Cer":4886,"Car":4887,"representing</w>":4888,"clus":4889,"stops</w>":4890,"Methods</w>":4891,"counts</w>":4892,"Changes</w>":4893,"Metrics</w>":4894,"Association</w>":4895,"Forward</w>":4896,"Previous</w>":4897,"jb</w>":4898,"WARNING</w>":4899,"ways</w>":4900,"horizontal</w>":4901,"nested</w>":4902,"Unique</w>":4903,"Vol":4904,"rence</w>":4905,"predicate</w>":4906,"fail</w>":4907,"VALID</w>":4908,"'.":4909,"marker</w>":4910,"States</w>":4911,"MIN":4912,"WID":4913,"input":4914,"members</w>":4915,"chunk</w>":4916,"basic</w>":4917,"\"Failed</w>":4918,"cons</w>":4919,"separ":4920,"seq</w>":4921,"sent</w>":4922,"Diagram</w>":4923,"chars</w>":4924,"Disposed</w>":4925,"ory":4926,"Insets</w>":4927,"usp":4928,"Sig":4929,"jection</w>":4930,"Reply</w>":4931,"dirty</w>":4932,"enumeration</w>":4933,"EST</w>":4934,"Stats</w>":4935,"lg</w>":4936,"pn":4937,"capacity</w>":4938,"presentation</w>":4939,"LIST</w>":4940,"attribu":4941,"Room</w>":4942,"SOUR":4943,"rate</w>":4944,"links</w>":4945,"FIX</w>":4946,"they</w>":4947,"AND</w>":4948,"vals</w>":4949,"Bloc":4950,"PL":4951,"liter":4952,"Sync</w>":4953,"'.'</w>":4954,"preferred</w>":4955,"string":4956,"Cle":4957,"indows</w>":4958,"n't</w>":4959,"Register</w>":4960,"Classifier</w>":4961,"Amount</w>":4962,"attrs</w>":4963,"dp</w>":4964,"sign</w>":4965,"conf</w>":4966,"AS</w>":4967,"Navig":4968,"references</w>":4969,"times</w>":4970,"Worker</w>":4971,"OM</w>":4972,"acc":4973,"\"&":4974,"inside</w>":4975,"Elem</w>":4976,"itr</w>":4977,"Relative</w>":4978,"sv":4979,"ipe</w>":4980,"Live</w>":4981,"nel</w>":4982,"Leaf</w>":4983,"24</w>":4984,"Drop</w>":4985,"Pic":4986,"ev</w>":4987,"erial</w>":4988,"ire</w>":4989,"Proc</w>":4990,"direc":4991,"Drag</w>":4992,"Bam</w>":4993,"ense</w>":4994,"either</w>":4995,"CLO":4996,"orientation</w>":4997,"Sav":4998,"bec":4999,"COLUM":5000,"reco":5001,"allows</w>":5002,"host":5003,"END</w>":5004,"validates</w>":5005,"bling</w>":5006,"Chain</w>":5007,"Kind</w>":5008,"Created</w>":5009,"indices</w>":5010,"colo":5011,"question</w>":5012,"Mapper</w>":5013,"Checked</w>":5014,"alysis</w>":5015,"Batch</w>":5016,"VER</w>":5017,"simp":5018,"ful</w>":5019,"come</w>":5020,"AT</w>":5021,"drawing</w>":5022,"texture</w>":5023,"ache":5024,"follo":5025,"VM</w>":5026,"ler":5027,"ester</w>":5028,"\"\\\"</w>":5029,"chat</w>":5030,"BOO":5031,"aller</w>":5032,"Fragment</w>":5033,"Ontology</w>":5034,"additional</w>":5035,"Ext</w>":5036,"kind</w>":5037,"This</w>":5038,"neighb":5039,"atio</w>":5040,"clip":5041,"super":5042,"Static</w>":5043,"ma</w>":5044,"pk":5045,"audio</w>":5046,"\"]\"</w>":5047,"best</w>":5048,"ched</w>":5049,"persistent</w>":5050,"selector</w>":5051,".0</w>":5052,"Ex</w>":5053,"tern":5054,"READ</w>":5055,"Cancel</w>":5056,"Num":5057,"xs":5058,"ORY</w>":5059,"Wait</w>":5060,"mo</w>":5061,"p2</w>":5062,"Jar</w>":5063,"ow":5064,"pages</w>":5065,"most</w>":5066,"collec":5067,"Labels</w>":5068,"STRING</w>":5069,"Stre":5070,"rollback</w>":5071,"Construc":5072,"Track</w>":5073,"60</w>":5074,"Iter":5075,"uplicate</w>":5076,"DELE":5077,"fail":5078,"STATUS</w>":5079,"sing":5080,"until</w>":5081,"Deleted</w>":5082,"Units</w>":5083,"Auth</w>":5084,"cm</w>":5085,"Be</w>":5086,"api</w>":5087,"Mer":5088,"50</w>":5089,"dao</w>":5090,"Identity</w>":5091,"Ti":5092,"details</w>":5093,"Fro":5094,"radius</w>":5095,"lator</w>":5096,"ipant</w>":5097,"gb</w>":5098,"tent":5099,"Unknown</w>":5100,"nings</w>":5101,"Different</w>":5102,"receivers</w>":5103,"chain</w>":5104,"ours</w>":5105,"Diagnostic</w>":5106,"calling</w>":5107,"Updated</w>":5108,"Loo":5109,"ink</w>":5110,"checked</w>":5111,"Lookup</w>":5112,"DTO</w>":5113,"ity":5114,"Catalog</w>":5115,"lisec":5116,"bol":5117,"Organ":5118,"Piece</w>":5119,"Tab":5120,"utili":5121,"group":5122,"semb":5123,"Valu":5124,"sic</w>":5125,"Undo</w>":5126,"\"set</w>":5127,"MAN":5128,"scal":5129,"Sur":5130,"what</w>":5131,"ree":5132,"requested</w>":5133,"Rend":5134,"Join</w>":5135,"iness</w>":5136,"choice</w>":5137,"post":5138,"LIC":5139,"TRUE</w>":5140,"updat":5141,"\"name\"</w>":5142,"Scanner</w>":5143,"unlock</w>":5144,"Persistent</w>":5145,"mail":5146,"stri":5147,"alformed</w>":5148,"visits</w>":5149,"camera</w>":5150,"signal</w>":5151,"fragment</w>":5152,"Platform</w>":5153,"/\"</w>":5154,"Animation</w>":5155,"NODE</w>":5156,"AX":5157,"cates</w>":5158,"Warning</w>":5159,"pur":5160,"library</w>":5161,"pixel</w>":5162,"lavor</w>":5163,"non":5164,"rency</w>":5165,"seconds</w>":5166,"COLOR</w>":5167,"code":5168,"didate</w>":5169,"sertion</w>":5170,"minu":5171,"LED</w>":5172,"Slot</w>":5173,"vious":5174,"Headers</w>":5175,"clon":5176,"bot</w>":5177,"Delegate</w>":5178,"ite":5179,"thes":5180,"auth</w>":5181,"drag</w>":5182,"represents</w>":5183,"Machine</w>":5184,"such</w>":5185,"GET</w>":5186,"scene</w>":5187,"marks</w>":5188,"successful":5189,"Workflow</w>":5190,"property":5191,"ae</w>":5192,"blog</w>":5193,"vent":5194,"permission</w>":5195,"2\"</w>":5196,"field":5197,"rease</w>":5198,"buff</w>":5199,"copies</w>":5200,"lared</w>":5201,"reg</w>":5202,"unregister</w>":5203,"antity</w>":5204,"amily</w>":5205,"Jsp</w>":5206,"lank</w>":5207,"computes</w>":5208,"Strategy</w>":5209,"requency</w>":5210,"sr":5211,"vm</w>":5212,"pot</w>":5213,"LOW</w>":5214,"Used</w>":5215,"zy</w>":5216,">\\n\"</w>":5217,"e2</w>":5218,"Mu":5219,"fon":5220,"ank</w>":5221,"ask":5222,"endpoint</w>":5223,"Modifier</w>":5224,"vers":5225,"ELEMENT</w>":5226,"dot</w>":5227,"pause</w>":5228,"CH</w>":5229,"animation</w>":5230,"preference</w>":5231,"lement":5232,"describ":5233,"IT":5234,"absolute</w>":5235,"org.":5236,"Quo":5237,"cro":5238,"\">\"</w>":5239,"anchor</w>":5240,"Strings</w>":5241,"Sound</w>":5242,"dispatch</w>":5243,"preter</w>":5244,"Hex</w>":5245,"threads</w>":5246,"ational</w>":5247,"piece</w>":5248,"ep":5249,"Chunk</w>":5250,"Go":5251,"vertical</w>":5252,"annels</w>":5253,"Delta</w>":5254,"ii</w>":5255,"Alert</w>":5256,"ML":5257,"palette</w>":5258,"sx</w>":5259,"services</w>":5260,"TRAN":5261,"mm":5262,"high</w>":5263,"trigger</w>":5264,"\"#":5265,"JECT</w>":5266,"IM":5267,"cards</w>":5268,"raw":5269,"generator</w>":5270,"ca</w>":5271,"CUR":5272,"ants</w>":5273,"itten</w>":5274,"INVALID</w>":5275,"previous":5276,"IC":5277,"ki</w>":5278,"agrap":5279,"opens</w>":5280,"ifest</w>":5281,"tc</w>":5282,"use":5283,"Ds</w>":5284,"Span</w>":5285,"processes</w>":5286,"vec</w>":5287,"RIGHT</w>":5288,"normalize</w>":5289,"logs</w>":5290,"Phase</w>":5291,"NUM":5292,"download</w>":5293,"referen":5294,"deli":5295,"NOR":5296,"entities</w>":5297,"decor":5298,"BE":5299,"'/":5300,"incoming</w>":5301,"ymbol":5302,"console</w>":5303,"angle":5304,"Logging</w>":5305,"Bl":5306,"64</w>":5307,"EN</w>":5308,"atible</w>":5309,"COR":5310,"ticle</w>":5311,"rotation</w>":5312,"toggle</w>":5313,"object":5314,"Cached</w>":5315,"REF":5316,"Sw":5317,"dro":5318,"holder</w>":5319,"Anno":5320,"tag":5321,"chooser</w>":5322,"datas":5323,"dt</w>":5324,"implementations</w>":5325,"Caret</w>":5326,"scan":5327,"Initialized</w>":5328,"Delay</w>":5329,"controls</w>":5330,"Connections</w>":5331,"Scene</w>":5332,"FIEL":5333,"CR":5334,"Spr":5335,"Draw</w>":5336,"attach</w>":5337,"debu":5338,"INTER":5339,"Cookie</w>":5340,"ACK</w>":5341,"cleanup</w>":5342,"Radio</w>":5343,"Messag":5344,"Facade</w>":5345,"\"A":5346,"NEC":5347,"machine</w>":5348,"Inet</w>":5349,"cestor</w>":5350,"worker</w>":5351,"onical</w>":5352,"General</w>":5353,"ise</w>":5354,"ecut":5355,"feed</w>":5356,"parsed</w>":5357,"addres":5358,"Indices</w>":5359,"Observers</w>":5360,"btn</w>":5361,"zer</w>":5362,"Comp</w>":5363,"admin</w>":5364,"event":5365,"'/'</w>":5366,"imensions</w>":5367,"Finished</w>":5368,"td</w>":5369,"CONNEC":5370,"si</w>":5371,"dist</w>":5372,"reading</w>":5373,"BL":5374,"denti":5375,"customer</w>":5376,"MEN":5377,"selects</w>":5378,"server":5379,"ented</w>":5380,"Kno":5381,"vertices</w>":5382,"problem</w>":5383,"oder</w>":5384,"Chars</w>":5385,"Route</w>":5386,"tells</w>":5387,"xes</w>":5388,"ple</w>":5389,"DL</w>":5390,"Mode":5391,"pending</w>":5392,"Edges</w>":5393,"sound</w>":5394,"t1</w>":5395,"shared</w>":5396,"TIVE</w>":5397,"xpath</w>":5398,"alizer</w>":5399,"umn":5400,"choo":5401,"Zip</w>":5402,"phone</w>":5403,"CP</w>":5404,"ENG":5405,"web":5406,"UND</w>":5407,"Download</w>":5408,"true\"</w>":5409,"last":5410,"beans</w>":5411,"Rotation</w>":5412,"mpt</w>":5413,"both</w>":5414,"ually</w>":5415,"consume</w>":5416,"Started</w>":5417,"Workspace</w>":5418,"lt</w>":5419,"Destination</w>":5420,"\"un":5421,"ITE":5422,"Inte":5423,"Simul":5424,"prefs</w>":5425,"e.":5426,"URE</w>":5427,"cent":5428,"repe":5429,"LEAN</w>":5430,"ACK":5431,"irc":5432,"multiple</w>":5433,"irs</w>":5434,"Buf</w>":5435,"t2</w>":5436,"utility</w>":5437,"cookie</w>":5438,"bc</w>":5439,"LD</w>":5440,"Malformed</w>":5441,"Connect</w>":5442,"Services</w>":5443,"runs</w>":5444,"CRE":5445,"Primitive</w>":5446,"requests</w>":5447,"I18N</w>":5448,"GED</w>":5449,"formatted</w>":5450,"State":5451,"intersec":5452,"WT</w>":5453,"adv":5454,"overload</w>":5455,"toolbar</w>":5456,"including</w>":5457,"master</w>":5458,"enario</w>":5459,"Pages</w>":5460,"cd</w>":5461,"Colors</w>":5462,"previously</w>":5463,"render":5464,"diagram</w>":5465,"Old</w>":5466,"tk</w>":5467,"ARGUMENT</w>":5468,"sn</w>":5469,"resize</w>":5470,"track":5471,"ypo":5472,"initialization</w>":5473,"Stmt</w>":5474,"MSG</w>":5475,"\")</w>":5476,"metric</w>":5477,"pi</w>":5478,"could</w>":5479,"ROL":5480,"jj</w>":5481,"net":5482,"The</w>":5483,"volume</w>":5484,"ilation</w>":5485,"Price</w>":5486,"gments</w>":5487,"Commit</w>":5488,"Relationship</w>":5489,"Fixed</w>":5490,"md":5491,"AM</w>":5492,"ouse":5493,"onent":5494,"vert</w>":5495,"porter</w>":5496,"mime</w>":5497,"identity</w>":5498,"accessor</w>":5499,"impor":5500,"ysical</w>":5501,"Implementation</w>":5502,"SK</w>":5503,"er.":5504,"alignment</w>":5505,"Rendering</w>":5506,"Wire</w>":5507,"xml\"</w>":5508,"rotate</w>":5509,"ITY</w>":5510,"alle":5511,"locator</w>":5512,"Naming</w>":5513,"\"\\\\":5514,"atures</w>":5515,"cos</w>":5516,"terms</w>":5517,"BOOLEAN</w>":5518,"flic":5519,"CESS</w>":5520,"tition</w>":5521,"stat</w>":5522,"ameter":5523,"EVENT</w>":5524,"WIDTH</w>":5525,"bel":5526,"Done</w>":5527,"Orientation</w>":5528,"REC":5529,"Stop":5530,"ORDER</w>":5531,"Later</w>":5532,"Book</w>":5533,"example</w>":5534,"Decl</w>":5535,"ene":5536,"Leg":5537,"wled":5538,"orm</w>":5539,"declaration</w>":5540,"ac</w>":5541,"Images</w>":5542,"swing</w>":5543,"encies</w>":5544,"Loaded</w>":5545,"Pay":5546,"olders</w>":5547,"atype</w>":5548,"Translation</w>":5549,"startup</w>":5550,"Auto":5551,"Fill</w>":5552,"*\"</w>":5553,"Observ":5554,"edback</w>":5555,"adjust</w>":5556,"TIME</w>":5557,"plet</w>":5558,"Coord</w>":5559,"waiting</w>":5560,"label":5561,"Success</w>":5562,"Mime</w>":5563,"assign":5564,"route</w>":5565,"sys":5566,"batch</w>":5567,"esc":5568,"tm</w>":5569,"Us":5570,"v2</w>":5571,"velope</w>":5572,"does":5573,"UR</w>":5574,"contain</w>":5575,"\"http":5576,"yper":5577,"abstract</w>":5578,"ining</w>":5579,"remaining</w>":5580,"Console</w>":5581,"atterns</w>":5582,"opt</w>":5583,"yy":5584,"Export</w>":5585,"Decor":5586,"0xff</w>":5587,"via</w>":5588,"Display":5589,"Links</w>":5590,"Command":5591,"frames</w>":5592,"\"T":5593,"ival":5594,"Place</w>":5595,"anim":5596,"ats</w>":5597,"SOURCE</w>":5598,"dentials</w>":5599,"ells</w>":5600,"interrupt</w>":5601,"Consum":5602,"archive</w>":5603,"grid":5604,"PC</w>":5605,"trl</w>":5606,"ENTI":5607,"vement</w>":5608,"common</w>":5609,"aled</w>":5610,"Private</w>":5611,"dst</w>":5612,"gra":5613,"arr</w>":5614,"clause</w>":5615,"Certificate</w>":5616,"UTF":5617,"creation</w>":5618,"instal":5619,"te\"</w>":5620,"det":5621,"shift</w>":5622,"\"org.":5623,"ang</w>":5624,"Comple":5625,"Async</w>":5626,"orary</w>":5627,"oods</w>":5628,"Feat</w>":5629,"Turn</w>":5630,"cont":5631,"Transport</w>":5632,"every</w>":5633,"margin</w>":5634,"PATH</w>":5635,"ied</w>":5636,"zip</w>":5637,"PI</w>":5638,"WOR":5639,"Formula</w>":5640,"extra</w>":5641,"ontology</w>":5642,"UM</w>":5643,"USER</w>":5644,"literal</w>":5645,"Notify</w>":5646,"formatter</w>":5647,"Working</w>":5648,"Off</w>":5649,"servi":5650,"phase</w>":5651,"construct":5652,"analy":5653,"\"true\"</w>":5654,"Na</w>":5655,"th\"</w>":5656,"replaces</w>":5657,"CML</w>":5658,"pixels</w>":5659,"lable</w>":5660,"STE":5661,"start":5662,"n'</w>":5663,"vileg":5664,"COUN":5665,"model":5666,"individual</w>":5667,"Paths</w>":5668,"Principal</w>":5669,"COLUMN</w>":5670,"Dynamic</w>":5671,"xl</w>":5672,"fixed</w>":5673,"comparator</w>":5674,"inst</w>":5675,"OWL</w>":5676,"eded</w>":5677,"UB":5678,"ww":5679,"ernel</w>":5680,"launch</w>":5681,"ident</w>":5682,"AUT":5683,"different</w>":5684,"v1</w>":5685,"Public</w>":5686,"tokenizer</w>":5687,"jo</w>":5688,"Processing</w>":5689,"MON":5690,"asc":5691,"operations</w>":5692,"like</w>":5693,"span</w>":5694,"youll</w>":5695,"\"j":5696,"least</w>":5697,"parsing</w>":5698,"Archive</w>":5699,"unc</w>":5700,"AME</w>":5701,"Vector3f</w>":5702,"Business</w>":5703,"ED":5704,"Branch</w>":5705,"earance</w>":5706,"classcode</w>":5707,"Polygon</w>":5708,"byclasscode</w>":5709,"constructbyclasscode</w>":5710,"refresh":5711,"\"]</w>":5712,"Tracker</w>":5713,"getting</w>":5714,"HTTP</w>":5715,"\"SELECT</w>":5716,"Dependency</w>":5717,"siv":5718,"entr":5719,"nexp":5720,"fec":5721,"Finder</w>":5722,"Serializable</w>":5723,"wal":5724,"umul":5725,"ome</w>":5726,"long":5727,"Viewport</w>":5728,"Play</w>":5729,"maps</w>":5730,"About</w>":5731,"encoded</w>":5732,"persist</w>":5733,"Head</w>":5734,"Editing</w>":5735,"Native</w>":5736,"since</w>":5737,"tabs</w>":5738,"s:</w>":5739,"aught</w>":5740,"mark":5741,"failed\"</w>":5742,"detail</w>":5743,"val":5744,"author</w>":5745,"BO</w>":5746,"un</w>":5747,"Individual</w>":5748,"escape</w>":5749,"DEX</w>":5750,"CONFI":5751,"MASK</w>":5752,"acro</w>":5753,"Rectangle":5754,"message":5755,"executed</w>":5756,"lision</w>":5757,"Inst":5758,"DIS":5759,"Clip</w>":5760,"DO</w>":5761,"alert</w>":5762,"Anchor</w>":5763,"output":5764,"stats</w>":5765,"PREFIX</w>":5766,"START</w>":5767,"widgets</w>":5768,"Tables</w>":5769,"primitive</w>":5770,"PROP</w>":5771,"writing</w>":5772,"inverse</w>":5773,"colors</w>":5774,"design":5775,"alifier</w>":5776,"agraph</w>":5777,"always</w>":5778,"listen":5779,"art":5780,"lob</w>":5781,"pl</w>":5782,"ns":5783,"Stat</w>":5784,"JB</w>":5785,"suffix</w>":5786,"\"(":5787,"Cause</w>":5788,"fact":5789,"trum</w>":5790,"html":5791,"wd</w>":5792,"menu":5793,"PRI":5794,"Visual</w>":5795,"E\"</w>":5796,"Sets</w>":5797,"quote</w>":5798,"messag":5799,"Comman":5800,"ymbols</w>":5801,"Alpha</w>":5802,"rpc</w>":5803,"Pat":5804,"co</w>":5805,"Creator</w>":5806,"IS1":5807,"OD</w>":5808,"Rol":5809,"safe</w>":5810,"inted</w>":5811,"Loc</w>":5812,"configured</w>":5813,"\"0\"</w>":5814,"again":5815,"Conn</w>":5816,"Records</w>":5817,"Drawing</w>":5818,"Expi":5819,"RGB</w>":5820,"WS</w>":5821,"fatal</w>":5822,"organ":5823,"Enable</w>":5824,"terminate</w>":5825,"********":5826,"'\\n'</w>":5827,"ooter</w>":5828,"VIE":5829,"BUTE</w>":5830,"Theme</w>":5831,"Rectangle2D</w>":5832,"disabled</w>":5833,"ond":5834,"foreground</w>":5835,"unic":5836,"asyn":5837,"Serial</w>":5838,"Trigger</w>":5839,"roles</w>":5840,"tice</w>":5841,"ATTRIBUTE</w>":5842,"desktop</w>":5843,"rong</w>":5844,"procedure</w>":5845,"IGHT</w>":5846,"mapped</w>":5847,"alt</w>":5848,"bound":5849,"s.\"</w>":5850,"Mark</w>":5851,"Problem</w>":5852,"Super</w>":5853,"Part":5854,"Begin</w>":5855,"SCRI":5856,"DELETE</w>":5857,"igno":5858,"Prefs</w>":5859,"USE</w>":5860,"rank</w>":5861,"dri":5862,"applies</w>":5863,"DING</w>":5864,"nemon":5865,"FIELD</w>":5866,"ior</w>":5867,"Refresh</w>":5868,"Port":5869,"reign</w>":5870,"virtual</w>":5871,"Py</w>":5872,"TAL</w>":5873,"her</w>":5874,"reverse</w>":5875,"functions</w>":5876,"tuple</w>":5877,"begin":5878,"arning</w>":5879,"dictionary</w>":5880,"duce</w>":5881,"ax</w>":5882,"celer":5883,"ck</w>":5884,"Cond":5885,"Sum</w>":5886,"Attachment</w>":5887,"centage</w>":5888,"how</w>":5889,"summary</w>":5890,"*=</w>":5891,"CD":5892,"keep</w>":5893,"keyword</w>":5894,"wrapped</w>":5895,"steps</w>":5896,"Tic":5897,"method":5898,"tton":5899,"jdbc</w>":5900,"Sim</w>":5901,"DAY</w>":5902,"dc</w>":5903,"istic</w>":5904,"API</w>":5905,"da</w>":5906,"zes</w>":5907,"itness</w>":5908,"proto":5909,"expres":5910,"fference</w>":5911,"assigned</w>":5912,"cost</w>":5913,"Camera</w>":5914,"vec":5915,"lists</w>":5916,"fires</w>":5917,"\"W":5918,"high":5919,"spect</w>":5920,"Arguments</w>":5921,"loyment</w>":5922,"ci</w>":5923,"found":5924,"categories</w>":5925,"positions</w>":5926,"were</w>":5927,"Team</w>":5928,"\"Not</w>":5929,"enables</w>":5930,"mean</w>":5931,"gable</w>":5932,"loy</w>":5933,"oc</w>":5934,"Margin</w>":5935,"Tasks</w>":5936,"mb</w>":5937,"arity</w>":5938,"special</w>":5939,"lo</w>":5940,"Intent</w>":5941,"Authentication</w>":5942,"Sorted</w>":5943,"Desktop</w>":5944,"encryp":5945,"lated</w>":5946,"pad</w>":5947,"logging</w>":5948,"Find</w>":5949,"qualified</w>":5950,"descriptors</w>":5951,"certain</w>":5952,"Fast</w>":5953,"la</w>":5954,"Tw":5955,"VO</w>":5956,"rement</w>":5957,"translation</w>":5958,"x\"</w>":5959,"otype</w>":5960,"Other</w>":5961,"sen</w>":5962,"take</w>":5963,"optim":5964,"Lat":5965,"texts</w>":5966,"CAN":5967,"lems</w>":5968,"ism</w>":5969,"Lay":5970,"\"%":5971,"my":5972,"AV":5973,"yet</w>":5974,"Ast</w>":5975,"mk":5976,"dom":5977,"converter</w>":5978,"millisec":5979,"reason</w>":5980,"paths</w>":5981,"simulation</w>":5982,"aches</w>":5983,"managed</w>":5984,"\\n":5985,"lip</w>":5986,"sv</w>":5987,"days</w>":5988,"under</w>":5989,"reak":5990,"error\"</w>":5991,"Loop</w>":5992,"accepts</w>":5993,"CHANGED</w>":5994,"tod":5995,"File":5996,"classpath</w>":5997,"aux</w>":5998,"extensions</w>":5999,"gex</w>":6000,"implemented</w>":6001,"Assignment</w>":6002,"Received</w>":6003,"null.\"</w>":6004,"ives</w>":6005,"TIT":6006,"editable</w>":6007,"logic</w>":6008,"datab":6009,"Sender</w>":6010,"Modify</w>":6011,"ded":6012,"15":6013,"Defa":6014,"HORI":6015,"PORT</w>":6016,"ba":6017,"arg1</w>":6018,"file\"</w>":6019,"\")":6020,"Tit":6021,"rout":6022,"align</w>":6023,"ALI":6024,"Look</w>":6025,"plan</w>":6026,"ended</w>":6027,"Localized</w>":6028,"Commands</w>":6029,"handlers</w>":6030,"multi</w>":6031,"Fault</w>":6032,"Execute</w>":6033,"g2d</w>":6034,"hook</w>":6035,"verifi":6036,"Exec</w>":6037,"vs</w>":6038,"uron</w>":6039,"PAGE</w>":6040,"Pixel</w>":6041,"rename</w>":6042,"coords</w>":6043,"Players</w>":6044,"PTION</w>":6045,"emon</w>":6046,"deep</w>":6047,"sensor</w>":6048,"DED</w>":6049,"VERSION</w>":6050,"ft":6051,"completed</w>":6052,"edded</w>":6053,"Visibility</w>":6054,"Addr</w>":6055,"Customer</w>":6056,"limiter</w>":6057,"EJB</w>":6058,"image":6059,"nb</w>":6060,"coord</w>":6061,"8\"</w>":6062,"applet</w>":6063,"link":6064,"Ans":6065,"Launch</w>":6066,"Item":6067,"jor</w>":6068,"rv</w>":6069,"ound\"</w>":6070,"Neighb":6071,"ster</w>":6072,"UPDATE</w>":6073,"recision</w>":6074,"Utility</w>":6075,"\"=\"</w>":6076,"Codes</w>":6077,"shown</w>":6078,"Tabbed</w>":6079,"workbench</w>":6080,"pref</w>":6081,"some":6082,"vie</w>":6083,"collap":6084,"Trans</w>":6085,"Error":6086,"byte":6087,"cket</w>":6088,"edi":6089,"Ready</w>":6090,"deleg":6091,"Env</w>":6092,"detec":6093,"Configur":6094,"Exclu":6095,"USER":6096,"itors</w>":6097,"Comparable</w>":6098,"nr</w>":6099,"tax":6100,"Clicked</w>":6101,"nd</w>":6102,"ws":6103,"instruc":6104,"Cost</w>":6105,"validator</w>":6106,"nemonic</w>":6107,"fd</w>":6108,"elf</w>":6109,"Printer</w>":6110,"command":6111,"written</w>":6112,"describing</w>":6113,"local":6114,"complex</w>":6115,"APP":6116,"Side</w>":6117,"sw</w>":6118,"interfaces</w>":6119,"Outline</w>":6120,"rowse</w>":6121,"cl":6122,"ceptor</w>":6123,"255</w>":6124,"Procedure</w>":6125,"rel</w>":6126,"Setup</w>":6127,"Normal</w>":6128,"conditions</w>":6129,"ind":6130,"Receiver</w>":6131,"fecycle</w>":6132,"01</w>":6133,"Zero</w>":6134,"vars</w>":6135,"aced</w>":6136,"comb":6137,"Identifi":6138,"multiply</w>":6139,"ed.\"</w>":6140,"Constructor</w>":6141,"against</w>":6142,"SC</w>":6143,"ATTR</w>":6144,"Bottom</w>":6145,"HORIZ":6146,"Light</w>":6147,"Off":6148,"Capabilities</w>":6149,"indicating</w>":6150,"because</w>":6151,"catalog</w>":6152,"book":6153,"Volume</w>":6154,"Square</w>":6155,"ones</w>":6156,"grees</w>":6157,"Actor</w>":6158,"Threads</w>":6159,"Master</w>":6160,"Schedule</w>":6161,"16":6162,"drag":6163,"defines</w>":6164,"Do</w>":6165,"css</w>":6166,"terion</w>":6167,"Rec</w>":6168,"Statistics</w>":6169,"ix</w>":6170,"ression</w>":6171,"tail</w>":6172,"bi</w>":6173,"susp":6174,"FAL":6175,"effect</w>":6176,"000</w>":6177,"CS</w>":6178,"Den":6179,"deco":6180,"currency</w>":6181,"solution</w>":6182,"BER</w>":6183,"OP</w>":6184,"adcast</w>":6185,"Dispatcher</w>":6186,"Roles</w>":6187,"Id\"</w>":6188,"column":6189,"statements</w>":6190,"\"H":6191,"\"N":6192,"serial</w>":6193,"cnt</w>":6194,"json</w>":6195,"crete</w>":6196,"REQU":6197,"pstmt</w>":6198,"tures</w>":6199,"Radius</w>":6200,"tu":6201,"Reas":6202,"inher":6203,"serialize</w>":6204,"iss":6205,"line":6206,"Country</w>":6207,"poses</w>":6208,"Semantic</w>":6209,"WE":6210,"terminal</w>":6211,"kable</w>":6212,"logical</w>":6213,"workflow</w>":6214,"esh</w>":6215,"INSER":6216,"sqrt</w>":6217,"takes</w>":6218,"sha":6219,"Restric":6220,"country</w>":6221,"win</w>":6222,"tal":6223,"PUT</w>":6224,"ddy</w>":6225,"dd</w>":6226,"ant":6227,"generic</w>":6228,"\"Can't</w>":6229,"DT":6230,"suppor":6231,"REMO":6232,"returning</w>":6233,"lecule</w>":6234,"():</w>":6235,"Hint</w>":6236,"redo</w>":6237,"Calcul":6238,"espaces</w>":6239,"Tar":6240,"version":6241,"bb</w>":6242,"Cycle</w>":6243,"atis":6244,"VALU":6245,"white</w>":6246,"Search":6247,"var":6248,"admin":6249,"15</w>":6250,"INTE":6251,"Sibling</w>":6252,"pow</w>":6253,"imag":6254,"inten":6255,"ator":6256,"eri":6257,"classifier</w>":6258,"ATION":6259,"searches</w>":6260,"Stamp</w>":6261,"classname</w>":6262,"reser":6263,"Diff</w>":6264,"provides</w>":6265,"hex</w>":6266,"BUTT":6267,"lots</w>":6268,"visu":6269,"whose</w>":6270,"\"B":6271,"paints</w>":6272,"submit</w>":6273,"RED</w>":6274,"ales</w>":6275,"arm</w>":6276,"Retained</w>":6277,"sively</w>":6278,"##":6279,"&=</w>":6280,"iteration</w>":6281,"queu":6282,"pr</w>":6283,"Categories</w>":6284,"throwable</w>":6285,"Repe":6286,"tion:</w>":6287,"propag":6288,"ter\"</w>":6289,"\"-\"</w>":6290,"TOR</w>":6291,"retained</w>":6292,"scroll":6293,"\"\\n":6294,"Cro":6295,"Incre":6296,"removing</w>":6297,"tick</w>":6298,"ejb</w>":6299,"wards</w>":6300,"Phone</w>":6301,"diagnost":6302,"\"b":6303,"Messaging</w>":6304,"Sol":6305,"dirs</w>":6306,"currence</w>":6307,"vo</w>":6308,"MD</w>":6309,"stroke</w>":6310,"Virtual</w>":6311,"Palette</w>":6312,"Origin":6313,"Group":6314,"Over</w>":6315,"allocate</w>":6316,"SEPAR":6317,"blocks</w>":6318,"RES":6319,"soap</w>":6320,"Handlers</w>":6321,"nexpected</w>":6322,"Cells</w>":6323,"bin</w>":6324,"umb":6325,"fills</w>":6326,"performed</w>":6327,"param":6328,"40":6329,"XML":6330,"WRI":6331,"ring</w>":6332,"foc":6333,"sd</w>":6334,"ummy</w>":6335,"MAR":6336,"ipeline</w>":6337,"Tick</w>":6338,"ken</w>":6339,"redraw</w>":6340,"filtered</w>":6341,"Mid":6342,"spective</w>":6343,"press</w>":6344,"attribute":6345,"Stri":6346,"upload</w>":6347,"Loading</w>":6348,"dec</w>":6349,"With":6350,"intern":6351,"\"O":6352,"Btn</w>":6353,"effi":6354,"it\"</w>":6355,"ivalent</w>":6356,"rgb</w>":6357,"course</w>":6358,"HEIGHT</w>":6359,"desc":6360,"Numeric</w>":6361,"one":6362,"scape</w>":6363,"\"d":6364,"Dxl</w>":6365,"FLA":6366,"Flavor</w>":6367,"acqu":6368,"Defined</w>":6369,"Reg</w>":6370,"publish</w>":6371,"Artifact</w>":6372,"acer</w>":6373,"Open":6374,"distribution</w>":6375,"inc</w>":6376,"Course</w>":6377,"Sto":6378,"goal</w>":6379,"pd</w>":6380,"TIC":6381,"write":6382,"Controls</w>":6383,"comments</w>":6384,"MODE":6385,"comparison</w>":6386,"visibility</w>":6387,"sending</w>":6388,"shu":6389,"Dom</w>":6390,"black</w>":6391,"ENGTH</w>":6392,"\"U":6393,"SM</w>":6394,"highligh":6395,"following</w>":6396,"behavior</w>":6397,"close":6398,"Specification</w>":6399,"ventory</w>":6400,"IR":6401,"leaf</w>":6402,"uld":6403,"Released</w>":6404,"provide</w>":6405,"========":6406,"Answer</w>":6407,"nl</w>":6408,"orization</w>":6409,"divi":6410,"combin":6411,"Clip":6412,"designated</w>":6413,"\"delete</w>":6414,"Direc":6415,"disk</w>":6416,"sys</w>":6417,"team</w>":6418,"romo":6419,"represented</w>":6420,"clients</w>":6421,"Usage</w>":6422,"30</w>":6423,"OID</w>":6424,"Parts</w>":6425,"sembly</w>":6426,"LEV":6427,"bose</w>":6428,"onto</w>":6429,"low":6430,"LY</w>":6431,"processed</w>":6432,"configur":6433,"</":6434,"buff":6435,"shed</w>":6436,"dese":6437,"ne</w>":6438,"fit</w>":6439,"tabbed</w>":6440,"hit</w>":6441,"sl</w>":6442,"\"user":6443,"dian</w>":6444,"Lex":6445,"tok</w>":6446,"annotations</w>":6447,"licit</w>":6448,"depending</w>":6449,"0.0f</w>":6450,"Dispatch</w>":6451,"Representation</w>":6452,"DC</w>":6453,"ipher</w>":6454,"missing</w>":6455,"ush</w>":6456,"Filters</w>":6457,"FALSE</w>":6458,"ly":6459,"wap</w>":6460,"Hierarchy</w>":6461,"strategy</w>":6462,"PLAY":6463,"tear</w>":6464,"resource":6465,"Effect</w>":6466,"MI</w>":6467,"clic":6468,"pid</w>":6469,"Into</w>":6470,"rain</w>":6471,"geometry</w>":6472,"STY":6473,"theme</w>":6474,"ry</w>":6475,"automatically</w>":6476,"clicked</w>":6477,"\"http://":6478,"fn</w>":6479,"ory\"</w>":6480,"Present</w>":6481,"Extra</w>":6482,"cycle</w>":6483,"branch</w>":6484,"Typed</w>":6485,"LENGTH</w>":6486,"\"java":6487,"Atc</w>":6488,"DER":6489,"source":6490,"ately</w>":6491,"notes</w>":6492,"highlight</w>":6493,"threshold</w>":6494,"Scheme</w>":6495,"leng":6496,"White":6497,"haviour</w>":6498,"amb":6499,"References</w>":6500,"statistics</w>":6501,"Grammar</w>":6502,"mouse":6503,"also</w>":6504,"Behavior</w>":6505,"Alive</w>":6506,"Nr</w>":6507,"SEPARATOR</w>":6508,"ices</w>":6509,"ural</w>":6510,"ste</w>":6511,"observ":6512,"lets</w>":6513,"lon</w>":6514,"\";\"</w>":6515,"hold</w>":6516,"Threshold</w>":6517,"Boo":6518,"parameter":6519,"once</w>":6520,"compatible</w>":6521,"Slider</w>":6522,"ID\"</w>":6523,"EAR</w>":6524,"Pending</w>":6525,"dlg</w>":6526,"eds</w>":6527,"iv</w>":6528,"\"Exception</w>":6529,"robot</w>":6530,"outer</w>":6531,"INDEX</w>":6532,"Gre":6533,"adow</w>":6534,"change":6535,"fact</w>":6536,"Updat":6537,"\"Y":6538,"mc</w>":6539,"Adaptor</w>":6540,"connector</w>":6541,"transport</w>":6542,"fully</w>":6543,"AME":6544,"Pass</w>":6545,"='\"</w>":6546,"Cols</w>":6547,"ALLOW</w>":6548,"population</w>":6549,"stream":6550,"bg</w>":6551,"objec":6552,"tested</w>":6553,"activation</w>":6554,"style":6555,"broker</w>":6556,"failure</w>":6557,"Wid":6558,"association</w>":6559,"overrides</w>":6560,"firm":6561,"EDI":6562,"HORIZON":6563,"fri":6564,"sa</w>":6565,"crip":6566,"rhs</w>":6567,"ech</w>":6568,"grammar</w>":6569,"resolved</w>":6570,"\"This</w>":6571,"backup</w>":6572,"Patient</w>":6573,"umb</w>":6574,"mappings</w>":6575,"Compiled</w>":6576,"ate\"</w>":6577,"ircle</w>":6578,"Experiment</w>":6579,"Features</w>":6580,"ong":6581,"\"\\n</w>":6582,"JDB":6583,"Coords</w>":6584,"aries</w>":6585,"ght":6586,"tual</w>":6587,"task":6588,"anced</w>":6589,"Closing</w>":6590,"Warnings</w>":6591,"\"F":6592,"subtract</w>":6593,"T\"</w>":6594,"transformation</w>":6595,"PH":6596,"Rob":6597,"mm</w>":6598,"power</w>":6599,"CODE</w>":6600,"METH":6601,"po</w>":6602,"asser":6603,"Track":6604,"payload</w>":6605,"arc</w>":6606,"sib":6607,"trib</w>":6608,"Instanti":6609,"?,</w>":6610,"entered</w>":6611,"properti":6612,"Assignable</w>":6613,"s/":6614,"Confirm</w>":6615,"Sequ":6616,"ipient</w>":6617,"fet":6618,"Coordinates</w>":6619,"scanner</w>":6620,"UUID</w>":6621,"al\"</w>":6622,"Bus</w>":6623,"Broker</w>":6624,"\"Re":6625,"consi":6626,"ording</w>":6627,"locked</w>":6628,"aring</w>":6629,"Buil":6630,"orian</w>":6631,"indexes</w>":6632,"AI</w>":6633,"workspace</w>":6634,"greater</w>":6635,"LAB":6636,"resp</w>":6637,"formats</w>":6638,"caret</w>":6639,"option":6640,"Blog</w>":6641,"acao</w>":6642,"candidate</w>":6643,"digest</w>":6644,"Scheduler</w>":6645,"Completion</w>":6646,"restric":6647,"Tag":6648,"activated</w>":6649,"sources</w>":6650,"Qualified</w>":6651,"models</w>":6652,"CT</w>":6653,"Affine</w>":6654,"Lists</w>":6655,"Executor</w>":6656,"sprite</w>":6657,"Now</w>":6658,"RDF</w>":6659,"ordered</w>":6660,"SECON":6661,"patient</w>":6662,"slider</w>":6663,"features</w>":6664,"Album</w>":6665,"exceptions</w>":6666,"mx</w>":6667,"Definitions</w>":6668,"Metric</w>":6669,"specification</w>":6670,"Final</w>":6671,"parents</w>":6672,"Completed</w>":6673,"Members</w>":6674,"Author</w>":6675,"Rank</w>":6676,"Encr":6677,"Functions</w>":6678,"HORIZONTAL</w>":6679,"author":6680,"price</w>":6681,"color":6682,"Navigation</w>":6683,"VIEW</w>":6684,"velocity</w>":6685,"authentication</w>":6686,"wledge</w>":6687,"measure</w>":6688,"Terminal</w>":6689,"Sprite</w>":6690,"99":6691,"Positions</w>":6692,"i1</w>":6693,"Assertion</w>":6694,"kill</w>":6695,"sin</w>":6696,"Inner</w>":6697,"Indent</w>":6698,"plus</w>":6699,"Keyword</w>":6700,"Validate</w>":6701,"POSI":6702,"Snapshot</w>":6703,"recogn":6704,"variant</w>":6705,"js</w>":6706,"custom":6707,"PE</w>":6708,"ony</w>":6709,"sher</w>":6710,"Locked</w>":6711,"YES</w>":6712,"uled</w>":6713,"immedi":6714,"runtime</w>":6715,"value\"</w>":6716,"Hit</w>":6717,"tmp":6718,"formula</w>":6719,"Origin</w>":6720,"\"new</w>":6721,"Fact":6722,"sid</w>":6723,"expanded</w>":6724,"able\"</w>":6725,"elap":6726,"VK</w>":6727,"ecutable</w>":6728,"modifier</w>":6729,"SSION</w>":6730,"WA":6731,"Reset</w>":6732,"describe</w>":6733,"c1</w>":6734,"mag":6735,"operand</w>":6736,"spe":6737,"word":6738,"probability</w>":6739,"multi":6740,"Any</w>":6741,"Feel</w>":6742,"asure":6743,"resume</w>":6744,"increase</w>":6745,"choose</w>":6746,"ENCE</w>":6747,"JMS</w>":6748,"Vars</w>":6749,"c2</w>":6750,"fm</w>":6751,"Conversion</w>":6752,"Ratio</w>":6753,"video</w>":6754,"Set":6755,"Views</w>":6756,"Char":6757,"\"G":6758,"OUT":6759,"Same</w>":6760,"ger":6761,"vered</w>":6762,"overridden</w>":6763,"Defaults</w>":6764,"MP</w>":6765,"Video</w>":6766,"belon":6767,"\"c":6768,"included</w>":6769,"SYSTE":6770,"TRANS":6771,"aggreg":6772,"found\"</w>":6773,"Original</w>":6774,"ived</w>":6775,"rendering</w>":6776,"Replace</w>":6777,"issue</w>":6778,"atial</w>":6779,"glyph</w>":6780,"windows</w>":6781,"Adjust":6782,"Recur":6783,"documents</w>":6784,"Extent</w>":6785,"UML</w>":6786,"outline</w>":6787,"b\"</w>":6788,"artifact</w>":6789,"Material</w>":6790,"Impor":6791,"Velocity</w>":6792,"initialise</w>":6793,"itself</w>":6794,"atts</w>":6795,"Include</w>":6796,"layers</w>":6797,"unity</w>":6798,"umentation</w>":6799,"Sources</w>":6800,"tty</w>":6801,"Signal</w>":6802,"Measure</w>":6803,"framework</w>":6804,"TITLE</w>":6805,"usage</w>":6806,"beginning</w>":6807,"Mi":6808,"Scal":6809,"bar":6810,"got</w>":6811,"Const</w>":6812,"temporary</w>":6813,"GROUP</w>":6814,"Goal</w>":6815,"hi":6816,"mapper</w>":6817,"mento</w>":6818,"default":6819,"many</w>":6820,"GC</w>":6821,"dynamic</w>":6822,"Playlist</w>":6823,"WS":6824,"made</w>":6825,"ase":6826,"Addres":6827,"attempt</w>":6828,"execut":6829,"charset</w>":6830,"targets</w>":6831,"Sess":6832,"cmp</w>":6833,"saving</w>":6834,"hierarchy</w>":6835,"VICE</w>":6836,"versal</w>":6837,"Lang</w>":6838,"OT</w>":6839,"PDF</w>":6840,"Solution</w>":6841,"CHEC":6842,".j":6843,"hidden</w>":6844,"Revision</w>":6845,"listen</w>":6846,"playlist</w>":6847,"Encoder</w>":6848,"numbers</w>":6849,"photo</w>":6850,"sessions</w>":6851,"sitive</w>":6852,"alog":6853,"31</w>":6854,"Quer":6855,"def":6856,"syntax</w>":6857,"modules</w>":6858,"UNK":6859,"tell</w>":6860,"covery</w>":6861,"Resolution</w>":6862,"\"id\"</w>":6863,"Accessor</w>":6864,"printer</w>":6865,"lc</w>":6866,"who</w>":6867,"Modifiers</w>":6868,"cn":6869,"Cont":6870,"busin":6871,"preview</w>":6872,"Week</w>":6873,"Disabled</w>":6874,"resolver</w>":6875,"duplicate</w>":6876,"0L</w>":6877,"CF</w>":6878,"ined</w>":6879,"scrol":6880,"Author":6881,"Compound</w>":6882,"Where</w>":6883,"Management</w>":6884,"MONTH</w>":6885,"elapsed</w>":6886,"Runner</w>":6887,"DIREC":6888,"Variant</w>":6889,"sting</w>":6890,"identified</w>":6891,"disables</w>":6892,"full":6893,"XS":6894,"ything</w>":6895,"Visu":6896,"whole</w>":6897,"hes</w>":6898,"Analysis</w>":6899,"navigation</w>":6900,"arrow</w>":6901,"CP":6902,"Error\"</w>":6903,"Greg":6904,"styles</w>":6905,"Gregorian</w>":6906,"\"(\"</w>":6907,"BI":6908,"Photo</w>":6909,"gging</w>":6910,"Highligh":6911,"Fal":6912,"L\"</w>":6913,"sco":6914,"Ref\"</w>":6915,"Bin</w>":6916,"cfg</w>":6917,"obtain</w>":6918,"Expanded</w>":6919,"logged</w>":6920,"Dst</w>":6921,"tree":6922,"leave</w>":6923,"radio</w>":6924,"hol":6925,"checking</w>":6926,"dependency</w>":6927,"Distribution</w>":6928,"Line":6929,"Participant</w>":6930,"occurs</w>":6931,"scalar</w>":6932,"pkg</w>":6933,"Comments</w>":6934,"attachment</w>":6935,"dependent</w>":6936,"effec":6937,"Resolve</w>":6938,"sym</w>":6939,"relationship</w>":6940,"oub":6941,"Cards</w>":6942,"m\"</w>":6943,"prompt</w>":6944,"Privileg":6945,"opened</w>":6946,"ty\"</w>":6947,"yed</w>":6948,"alm</w>":6949,"Err</w>":6950,"JDBC</w>":6951,"3\"</w>":6952,"gree</w>":6953,"occu":6954,"a.":6955,"zz":6956,"STYLE</w>":6957,"PK</w>":6958,"Uml</w>":6959,"Vo":6960,"paque</w>":6961,"referenced</w>":6962,"Mod</w>":6963,"Minu":6964,"ai</w>":6965,"hel":6966,"poll</w>":6967,"dos</w>":6968,"\"\\t":6969,"\"p":6970,"ences</w>":6971,"cepts</w>":6972,"Switch</w>":6973,"Annotations</w>":6974,"LEVEL</w>":6975,"Bit":6976,"FAC":6977,"dam":6978,"implement</w>":6979,"status":6980,"CS":6981,"pdf</w>":6982,"experiment</w>":6983,"labor":6984,"Field":6985,"emb":6986,"Mark":6987,"LOCK</w>":6988,"LS</w>":6989,"a\"</w>":6990,"Analy":6991,"order":6992,"none</w>":6993,"validat":6994,"directly</w>":6995,"Br":6996,"Fu":6997,"atom":6998,"ioned</w>":6999,"EOF</w>":7000,"ou</w>":7001,"Attemp":7002,"token":7003,"base":7004,"Dot</w>":7005,"cator</w>":7006,"ox</w>":7007,"whene":7008,"graphic</w>":7009,"ITEM</w>":7010,"WRITE</w>":7011,"whenever</w>":7012,"rb</w>":7013,"square</w>":7014,"resul":7015,"loyee</w>":7016,"Super":7017,"Frames</w>":7018,"NG</w>":7019,"restart</w>":7020,"Motion</w>":7021,"\"\\t\"</w>":7022,"SCROL":7023,"ague</w>":7024,"ateway</w>":7025,"WIN":7026,"MF</w>":7027,"pp</w>":7028,"queries</w>":7029,"Clear</w>":7030,"pect</w>":7031,"Respon":7032,"Presentation</w>":7033,"hashcode</w>":7034,"icon":7035,"OBJECT</w>":7036,"Break</w>":7037,"El":7038,"df":7039,"Ent":7040,"Arc</w>":7041,"Shi":7042,"UNKNO":7043,"percent</w>":7044,"invocation</w>":7045,"Bound":7046,"Applet</w>":7047,"replacement</w>":7048,"spaces</w>":7049,"Registration</w>":7050,"Organization</w>":7051,"MUL":7052,"Song</w>":7053,"specify</w>":7054,"formance</w>":7055,"ATE":7056,"\"I":7057,"CR</w>":7058,"din":7059,"uc</w>":7060,"blue</w>":7061,"Jml</w>":7062,"METHOD</w>":7063,"Blank</w>":7064,"own</w>":7065,"Exist":7066,"document":7067,"equivalent</w>":7068,"cance":7069,"sures</w>":7070,"average</w>":7071,"rectly</w>":7072,"SIG":7073,"Second</w>":7074,"album</w>":7075,"Logic</w>":7076,"seed</w>":7077,"orders</w>":7078,"Cr":7079,"JAX":7080,"milliseconds</w>":7081,"GL":7082,"mutable</w>":7083,"ud</w>":7084,"Listen":7085,"Aware</w>":7086,"PP":7087,"RS</w>":7088,"TIME":7089,"Upload</w>":7090,"40</w>":7091,"Emb":7092,"child":7093,"LES</w>":7094,"----------------":7095,"Emp":7096,"IL</w>":7097,"hour</w>":7098,"build":7099,"Moved</w>":7100,"Direct</w>":7101,"Suffix</w>":7102,"TES</w>":7103,"UTF-":7104,"Ui</w>":7105,"sy</w>":7106,"short":7107,"unication</w>":7108,"CANC":7109,"progr":7110,"Compiler</w>":7111,"observers</w>":7112,"\"select</w>":7113,"clock</w>":7114,"DOWN</w>":7115,"Operations</w>":7116,"specifies</w>":7117,"notified</w>":7118,"ridge</w>":7119,"hashtable</w>":7120,"esting</w>":7121,"FILL</w>":7122,"ftp</w>":7123,"abort</w>":7124,"scrip":7125,"lare</w>":7126,"Managed</w>":7127,"uldn't</w>":7128,"Expected</w>":7129,"NUMBER</w>":7130,"apes</w>":7131,"Dist</w>":7132,"Permissions</w>":7133,"count":7134,"AGE</w>":7135,"Currency</w>":7136,"!!":7137,"runnable</w>":7138,"revalidate</w>":7139,"Loggable</w>":7140,"Evaluation</w>":7141,"surface</w>":7142,"Contin":7143,"phab":7144,"cient</w>":7145,"Sip</w>":7146,"Simulation</w>":7147,"{\"</w>":7148,"Envelope</w>":7149,"element":7150,"iden":7151,"Bounding</w>":7152,"TA</w>":7153,"Cannot</w>":7154,"SOAP</w>":7155,"Manifest</w>":7156,"set\"</w>":7157,"Mappings</w>":7158,"Deli":7159,"scheme</w>":7160,"checkbox</w>":7161,"RAN":7162,"TEN":7163,"permissions</w>":7164,"avail":7165,"Increment</w>":7166,"caught</w>":7167,"quantity</w>":7168,"desired</w>":7169,"dict</w>":7170,"Framework</w>":7171,"green</w>":7172,"dc":7173,"ted.\"</w>":7174,"snapshot</w>":7175,"es.":7176,"singleton</w>":7177,"sest</w>":7178,"Portlet</w>":7179,"dimensions</w>":7180,"BY":7181,"dont</w>":7182,"yption</w>":7183,"Conf</w>":7184,"indicate</w>":7185,"ooth</w>":7186,"Obj":7187,"ANY</w>":7188,"attempts</w>":7189,"onym":7190,"recent</w>":7191,"minutes</w>":7192,"gres":7193,"agram</w>":7194,"session":7195,"resultset</w>":7196,"ADER</w>":7197,"CSS</w>":7198,"href</w>":7199,"doable</w>":7200,"connection":7201,"celled</w>":7202,"Styles</w>":7203,"COUNT</w>":7204,"content":7205,"Slide</w>":7206,"Aspect</w>":7207,"Clus":7208,"l.":7209,"ld":7210,"ym</w>":7211,"Compare</w>":7212,"instance\"</w>":7213,"declared</w>":7214,"updating</w>":7215,"\"J":7216,"channels</w>":7217,"Highlight</w>":7218,"lst</w>":7219,"nick</w>":7220,"alance</w>":7221,"Indic":7222,"Compilation</w>":7223,"cn</w>":7224,"eq</w>":7225,"pers</w>":7226,"ignored</w>":7227,"Whitespace</w>":7228,"bool</w>":7229,"jsx</w>":7230,"Percent</w>":7231,"Modification</w>":7232,"dto</w>":7233,"tracker</w>":7234,"Person":7235,"expec":7236,"Seconds</w>":7237,"Extensions</w>":7238,"CHAR":7239,"instantiate</w>":7240,"\"]":7241,"Family</w>":7242,"attached</w>":7243,"SUB":7244,"font":7245,"Infos</w>":7246,"Dele":7247,"modifiers</w>":7248,"acy</w>":7249,"Canonical</w>":7250,"detach</w>":7251,"lbl</w>":7252,"mid</w>":7253,"Matching</w>":7254,"plugins</w>":7255,"Drag":7256,"GRE":7257,"DESCRI":7258,"Web":7259,"persistence</w>":7260,"Multiple</w>":7261,"\"In":7262,"Json</w>":7263,"Phrase</w>":7264,"GRAP":7265,"De</w>":7266,"mgr</w>":7267,"CON</w>":7268,"flict</w>":7269,"Destro":7270,"Exceptions</w>":7271,"refreshes</w>":7272,"k\"</w>":7273,"Words</w>":7274,"32":7275,"runner</w>":7276,"defaults</w>":7277,"Station</w>":7278,"Picture</w>":7279,"lier</w>":7280,"upon</w>":7281,"phrase</w>":7282,"recursively</w>":7283,"INI":7284,"doesnt</w>":7285,"func</w>":7286,"info":7287,"extended</w>":7288,"inputstream</w>":7289,"jn":7290,"leav":7291,"ouch</w>":7292,"Cho":7293,"Aggreg":7294,"Glyph</w>":7295,"buffered</w>":7296,"prepa":7297,"ypoint</w>":7298,".g":7299,"200</w>":7300,"Dri":7301,"red\"</w>":7302,"indow":7303,"recursive</w>":7304,"Interpreter</w>":7305,"slice</w>":7306,"YEAR</w>":7307,"collect</w>":7308,"dai</w>":7309,"GI":7310,"LAY</w>":7311,"ships</w>":7312,"Entities</w>":7313,"ERR</w>":7314,"DISPO":7315,"linked</w>":7316,"Surface</w>":7317,"sr</w>":7318,"assignment</w>":7319,"Gap</w>":7320,"sient</w>":7321,"Neg":7322,"Round</w>":7323,"romosome</w>":7324,"atory</w>":7325,"umerator</w>":7326,"\"[\"</w>":7327,"metrics</w>":7328,"failed":7329,"Indicator</w>":7330,"thrown</w>":7331,"classifi":7332,"CLOSE</w>":7333,"IS1Bam</w>":7334,"Hidden</w>":7335,"white":7336,"deno":7337,"connects</w>":7338,"fixes</w>":7339,"qname</w>":7340,"Api</w>":7341,"bindings</w>":7342,"adaptor</w>":7343,"stopped</w>":7344,"Portal</w>":7345,"RP</w>":7346,"0.5</w>":7347,"TIONS</w>":7348,"issu":7349,"64":7350,"Bool</w>":7351,"rep</w>":7352,"SVG</w>":7353,"negative</w>":7354,"component":7355,"substitu":7356,"Align</w>":7357,"responsible</w>":7358,"11":7359,"hand</w>":7360,"Partner</w>":7361,"\"update</w>":7362,"BORDER</w>":7363,"eclip":7364,"cond</w>":7365,"panels</w>":7366,"Keyboard</w>":7367,"Must</w>":7368,"ef</w>":7369,"sett":7370,"diagnostics</w>":7371,"Tech":7372,"Painter</w>":7373,"wp</w>":7374,"Times</w>":7375,"oldsystem</w>":7376,"par</w>":7377,"ange":7378,"ops</w>":7379,"outgoing</w>":7380,"String":7381,"difference</w>":7382,"Accept</w>":7383,"concat</w>":7384,"ATED</w>":7385,"Steps</w>":7386,"\"En":7387,"itation</w>":7388,"severity</w>":7389,"intersects</w>":7390,"OI</w>":7391,"bounding</w>":7392,"Fetch</w>":7393,"2f</w>":7394,"ascript</w>":7395,"spli":7396,"Drawable</w>":7397,"Probability</w>":7398,"pk</w>":7399,"confirm</w>":7400,"prepared</w>":7401,"Registered</w>":7402,"Projection</w>":7403,"false\"</w>":7404,"visited</w>":7405,"building</w>":7406,"50":7407,"Finish</w>":7408,"http":7409,"etc</w>":7410,"Toolbar</w>":7411,"\"g":7412,"arest</w>":7413,"oner</w>":7414,"geo</w>":7415,"BP":7416,"bus</w>":7417,"Digits</w>":7418,"Digit</w>":7419,"severe</w>":7420,"UNKNOWN</w>":7421,"visual</w>":7422,"function":7423,"SOR</w>":7424,"ng</w>":7425,"fis</w>":7426,"ARD</w>":7427,"Mnemonic</w>":7428,"gap</w>":7429,"Days</w>":7430,"smart</w>":7431,"Fact</w>":7432,"projects</w>":7433,"Repl":7434,"pointment</w>":7435,"require</w>":7436,"25</w>":7437,"VED</w>":7438,"p\"</w>":7439,"swap</w>":7440,"sun</w>":7441,"polygon</w>":7442,"bri":7443,"broadcast</w>":7444,"finalize</w>":7445,"Wiki</w>":7446,"FORM":7447,"dm</w>":7448,"flu":7449,"sec</w>":7450,"quit</w>":7451,"call":7452,"Activation</w>":7453,"Est":7454,"segments</w>":7455,"Ctx</w>":7456,"Spacing</w>":7457,"CHAR</w>":7458,"Marsh":7459,"nail</w>":7460,"mitted</w>":7461,"SM":7462,"Needed</w>":7463,"Best</w>":7464,"Img</w>":7465,"ail</w>":7466,"iff</w>":7467,"those</w>":7468,"Serializer</w>":7469,"cont</w>":7470,"percentage</w>":7471,"matched</w>":7472,"exclude</w>":7473,"ondary</w>":7474,"bj</w>":7475,"city</w>":7476,"Checker</w>":7477,"COMMAN":7478,"Existing</w>":7479,"Jdbc</w>":7480,"logout</w>":7481,"Vertices</w>":7482,"Toggle</w>":7483,"></":7484,"Proto":7485,"scheduler</w>":7486,"Hints</w>":7487,"ado</w>":7488,"1.0f</w>":7489,"Models</w>":7490,"LABEL</w>":7491,"uman</w>":7492,"Tax":7493,"Fri":7494,"esture</w>":7495,"CONTENT</w>":7496,"Merge</w>":7497,"\"save</w>":7498,"D\"</w>":7499,"sim</w>":7500,"editors</w>":7501,"numeric</w>":7502,"Panels</w>":7503,"Interaction</w>":7504,"includes</w>":7505,"SUC":7506,"constants</w>":7507,"VAR":7508,"nothing</w>":7509,"Starting</w>":7510,"Saved</w>":7511,"Consumer</w>":7512,"4j</w>":7513,"endor</w>":7514,"Lifecycle</w>":7515,"AG":7516,"Learning</w>":7517,"normalized</w>":7518,"PARAME":7519,"rese":7520,"estions</w>":7521,"Me</w>":7522,"TORY</w>":7523,"ator\"</w>":7524,"proc</w>":7525,"Detec":7526,"if\"</w>":7527,"charge</w>":7528,"Power</w>":7529,"isto":7530,"class\"</w>":7531,"Overlay</w>":7532,"hic":7533,"wo":7534,"Inser":7535,"Retri":7536,"principal</w>":7537,"debugging</w>":7538,"Pre</w>":7539,"lib</w>":7540,"jac":7541,"ensures</w>":7542,"acket</w>":7543,"transformer</w>":7544,"Generation</w>":7545,"Graphic</w>":7546,"inv":7547,"DIR</w>":7548,"ONLY</w>":7549,"Spectrum</w>":7550,"company</w>":7551,"Beans</w>":7552,"clipboard</w>":7553,"CANCEL</w>":7554,"frequency</w>":7555,"star</w>":7556,"tos</w>":7557,"platform</w>":7558,"Notes</w>":7559,"marked</w>":7560,"plug</w>":7561,"bod":7562,"abul":7563,"PI":7564,"station</w>":7565,"apache</w>":7566,"caller</w>":7567,"Servi":7568,"Classpath</w>":7569,">>":7570,"update":7571,"Feedback</w>":7572,"client":7573,"inv</w>":7574,"article</w>":7575,"modification</w>":7576,"from":7577,"picture</w>":7578,"interpre":7579,"swit":7580,"lm</w>":7581,"millis</w>":7582,"FON":7583,"playing</w>":7584,"estim":7585,"regular</w>":7586,"Book":7587,"ipu":7588,"Special</w>":7589,"FE":7590,"Scenario</w>":7591,"Face</w>":7592,"High</w>":7593,"curve</w>":7594,"izable</w>":7595,"first":7596,"edited</w>":7597,"JAXB</w>":7598,"-\"</w>":7599,"Instance":7600,"FORMA":7601,"annot":7602,"2.":7603,"RU":7604,"viewport</w>":7605,"TT":7606,"Convert</w>":7607,"\"E":7608,"pf</w>":7609,"portion</w>":7610,"declare</w>":7611,"oldinsert</w>":7612,"\"Unknown</w>":7613,"ICON</w>":7614,"Pt</w>":7615,"WI":7616,"norm</w>":7617,"truc":7618,"Colo":7619,"ipped</w>":7620,"tooltip</w>":7621,"umbnail</w>":7622,"Frequency</w>":7623,"moved</w>":7624,"Formatted</w>":7625,"SHO":7626,"plane</w>":7627,"TICAL</w>":7628,"Scan</w>":7629,"sig</w>":7630,"pairs</w>":7631,"Terms</w>":7632,"colour</w>":7633,"\"s":7634,"cap</w>":7635,"Reser":7636,"Spinner</w>":7637,"Letter</w>":7638,"oldupdate</w>":7639,"CIM</w>":7640,"WINDO":7641,"City</w>":7642,"Self</w>":7643,"Actual</w>":7644,"weigh":7645,"Numbers</w>":7646,"service":7647,"n1</w>":7648,"uples</w>":7649,"Attribu":7650,"wat":7651,"UTE</w>":7652,"cross</w>":7653,"INSERT</w>":7654,"AWT</w>":7655,"Sing":7656,"game":7657,"nm</w>":7658,"den\"</w>":7659,"BLE</w>":7660,"indicator</w>":7661,"continu":7662,"hal":7663,"t.":7664,"PARAM</w>":7665,"200":7666,"ol</w>":7667,"sax</w>":7668,"pick</w>":7669,"text\"</w>":7670,"deploy</w>":7671,"floor</w>":7672,"Synchron":7673,"CONFIG</w>":7674,"\\t":7675,"fp</w>":7676,"consis":7677,"actually</w>":7678,"Compu":7679,"decimal</w>":7680,"certificate</w>":7681,"APPLIC":7682,"re\"</w>":7683,"ocke":7684,"Bind</w>":7685,"Ow":7686,"redirect</w>":7687,"lies</w>":7688,"RAY</w>":7689,"celerator</w>":7690,"FORMAT</w>":7691,"13</w>":7692,"cv</w>":7693,"r\\n\"</w>":7694,"tb</w>":7695,"ancestor</w>":7696,"Release</w>":7697,"Requested</w>":7698,"PER</w>":7699,"amo":7700,"still</w>":7701,"general</w>":7702,"ui":7703,"reports</w>":7704,"Quick</w>":7705,"Smart</w>":7706,"Safe</w>":7707,"fi</w>":7708,"urls</w>":7709,"leases</w>":7710,"intersection</w>":7711,"PR":7712,"ender</w>":7713,"PT</w>":7714,"gene</w>":7715,"tl</w>":7716,"Spe":7717,"drop":7718,"ently</w>":7719,"Bindings</w>":7720,"intent</w>":7721,"player":7722,"UD":7723,"accessible</w>":7724,"testing</w>":7725,"Triple</w>":7726,"XA</w>":7727,"ternative</w>":7728,"unknown</w>":7729,"Preview</w>":7730,"Ship</w>":7731,"Music</w>":7732,"LIMI":7733,"registration</w>":7734,"invokes</w>":7735,"Mediator</w>":7736,"Skill</w>":7737,"txn</w>":7738,"Kb</w>":7739,"bp</w>":7740,"kernel</w>":7741,"ERROR":7742,"ema":7743,"codes</w>":7744,"lorer</w>":7745,"button":7746,"he</w>":7747,"AND":7748,"latest</w>":7749,"Pag":7750,"cup":7751,"padding</w>":7752,"regex</w>":7753,"el\"</w>":7754,"overwrite</w>":7755,"overlay</w>":7756,"reakpoint</w>":7757,"Grad":7758,"itter</w>":7759,"ilds</w>":7760,"ra</w>":7761,"Fig</w>":7762,"DOC":7763,"keyboard</w>":7764,"advance</w>":7765,"80</w>":7766,"ZER":7767,"ification</w>":7768,"Collision</w>":7769,"business</w>":7770,"Co</w>":7771,"cf</w>":7772,"has":7773,"ia</w>":7774,"ros</w>":7775,"MM</w>":7776,"wers</w>":7777,"instructions</w>":7778,"precision</w>":7779,"prox":7780,"inputs</w>":7781,"Arr</w>":7782,"TRACE</w>":7783,"midlet</w>":7784,"hyper":7785,"lat</w>":7786,"size":7787,"around</w>":7788,".get</w>":7789,"simil":7790,"record":7791,"lap</w>":7792,"superclass</w>":7793,"Instantiation</w>":7794,"Foc":7795,"tis":7796,"handling</w>":7797,"MAP</w>":7798,"mat</w>":7799,"andatory</w>":7800,"SERVICE</w>":7801,"front</w>":7802,"Scrip":7803,"init":7804,"Int":7805,"Objec":7806,"partner</w>":7807,"Wrap</w>":7808,"url":7809,"Com</w>":7810,"application":7811,"Evaluator</w>":7812,"Matrix2D</w>":7813,"0'</w>":7814,"Type\"</w>":7815,"Front</w>":7816,"\"UTF-":7817,"sz</w>":7818,"Robot</w>":7819,"revision</w>":7820,"laun":7821,"usted</w>":7822,"ascending</w>":7823,"Ps</w>":7824,"jc</w>":7825,"vc</w>":7826,"pus</w>":7827,"title\"</w>":7828,"hostname</w>":7829,"Ant</w>":7830,"band</w>":7831,"TOP</w>":7832,"Windows</w>":7833,"satis":7834,"vt</w>":7835,"REF</w>":7836,"analysis</w>":7837,"sip</w>":7838,"generation</w>":7839,"entire</w>":7840,"dis</w>":7841,"Exist</w>":7842,"JID</w>":7843,"divide</w>":7844,"jid</w>":7845,"Asset</w>":7846,"MD":7847,"VO":7848,"released</w>":7849,"major</w>":7850,"Post":7851,"256</w>":7852,"Indexes</w>":7853,"chosen</w>":7854,"ek":7855,"push":7856,"dispatcher</w>":7857,"ga</w>":7858,"heap</w>":7859,"Der":7860,"jobs</w>":7861,"wn\"</w>":7862,"DATAB":7863,"VISI":7864,"stage</w>":7865,"Transformation</w>":7866,"instr":7867,"motion</w>":7868,"Pref</w>":7869,"Deployment</w>":7870,"verbose</w>":7871,"ing:</w>":7872,"Ancestor</w>":7873,"ickness</w>":7874,"IMP":7875,"directories</w>":7876,"Struct</w>":7877,"ffice</w>":7878,"Success":7879,"GUID</w>":7880,"Force</w>":7881,"='":7882,"Eval</w>":7883,"Many</w>":7884,"weights</w>":7885,"showing</w>":7886,"Generated</w>":7887,"indexed</w>":7888,"Digest</w>":7889,"Ctrl</w>":7890,"uuid</w>":7891,"ERS</w>":7892,"Curve</w>":7893,"executor</w>":7894,"Already</w>":7895,"Specific</w>":7896,"std":7897,"ENT":7898,"S\"</w>":7899,"cy":7900,"patterns</w>":7901,"KEY":7902,"MODEL</w>":7903,"Article</w>":7904,"\"R":7905,"SP</w>":7906,"OFF":7907,"in\"</w>":7908,"png\"</w>":7909,"\"1\"</w>":7910,"os":7911,"pas":7912,"ners</w>":7913,"achments</w>":7914,"declar":7915,"mains</w>":7916,"Ful":7917,"aper</w>":7918,"imp</w>":7919,"Indexed</w>":7920,"encoder</w>":7921,"COMMAND</w>":7922,"fw</w>":7923,"samples</w>":7924,"thme":7925,"locations</w>":7926,"member":7927,"MT":7928,"ARY</w>":7929,"Generate</w>":7930,"Two</w>":7931,"Asc":7932,"gd</w>":7933,"ources":7934,"ipment</w>":7935,"Population</w>":7936,"Blocks</w>":7937,"False</w>":7938,"places</w>":7939,"requires</w>":7940,"2.0</w>":7941,"Instance\"</w>":7942,"Subscription</w>":7943,"song</w>":7944,"subscribe</w>":7945,"ZERO</w>":7946,"PAS":7947,"ud":7948,"SSL</w>":7949,"ressed</w>":7950,"Bug</w>":7951,"tains</w>":7952,"deleting</w>":7953,"Legend</w>":7954,"orph":7955,"RESOURCE</w>":7956,"FFFF":7957,"Pixels</w>":7958,"Hand</w>":7959,"Sys</w>":7960,"r2</w>":7961,"partial</w>":7962,"Paragraph</w>":7963,"looks</w>":7964,"completion</w>":7965,"family</w>":7966,"c\"</w>":7967,"unset</w>":7968,"NEW</w>":7969,"mem</w>":7970,"coll</w>":7971,"Credentials</w>":7972,"something</w>":7973,"abulary</w>":7974,"lobals</w>":7975,"Daemon</w>":7976,"INITI":7977,"oos</w>":7978,"f\"</w>":7979,"ato":7980,"itical</w>":7981,"Aux</w>":7982,"evaluates</w>":7983,"sparency</w>":7984,"IF</w>":7985,"ban":7986,"ines</w>":7987,"inform</w>":7988,"Company</w>":7989,"Shutdown</w>":7990,"ACTI":7991,"Rating</w>":7992,"authentic":7993,"SERVER</w>":7994,"accepted</w>":7995,"FR":7996,"routine</w>":7997,"lid</w>":7998,"Error:</w>":7999,"reotype</w>":8000,"interpreter</w>":8001,"org/":8002,"Declared</w>":8003,"Class":8004,"PLAYER</w>":8005,"ak":8006,"due</w>":8007,"flip</w>":8008,"gge":8009,"these</w>":8010,"delegates</w>":8011,"VALUES</w>":8012,"\"}\"</w>":8013,"nod":8014,"DEFIN":8015,"physical</w>":8016,"deactivate</w>":8017,"VERTICAL</w>":8018,"ACH":8019,"packages</w>":8020,"Goods</w>":8021,"SING":8022,"dn</w>":8023,"Logical</w>":8024,"Stopped</w>":8025,"onymous</w>":8026,"algo</w>":8027,"creen":8028,"gives</w>":8029,"\"<\"</w>":8030,"listening</w>":8031,"eces</w>":8032,"Fol":8033,"big":8034,"BUFF":8035,"participant</w>":8036,"19":8037,"Quantity</w>":8038,"goto</w>":8039,"Cod":8040,"Push</w>":8041,"ba</w>":8042,"exper":8043,"reng":8044,"Apply</w>":8045,"ymboli":8046,"occurrence</w>":8047,"lock":8048,"SELECTED</w>":8049,"digits</w>":8050,"streams</w>":8051,"pa</w>":8052,"partment</w>":8053,"symbols</w>":8054,"renders</w>":8055,"legend</w>":8056,"Object":8057,"Busy</w>":8058,"ranges</w>":8059,"random":8060,"Physical</w>":8061,"message\"</w>":8062,"FLAG</w>":8063,"Ordered</w>":8064,"asurement</w>":8065,"hours</w>":8066,"assum":8067,"\"UTF-8\"</w>":8068,"JP":8069,"Sdai</w>":8070,"apon</w>":8071,"Accep":8072,"Transform":8073,"ADD</w>":8074,"outputstream</w>":8075,"mkdirs</w>":8076,"DN</w>":8077,"theta</w>":8078,"caption</w>":8079,"along</w>":8080,"foreign</w>":8081,"verifies</w>":8082,"500</w>":8083,"Maps</w>":8084,"ni</w>":8085,"releases</w>":8086,"Prev</w>":8087,"TRY</w>":8088,"ATEG":8089,"Vio":8090,"bpm</w>":8091,"train</w>":8092,"abstr":8093,"union</w>":8094,"conversion</w>":8095,"ever":8096,"fmt</w>":8097,"TEMP":8098,"Criterion</w>":8099,"HEADER</w>":8100,"noun":8101,"ably</w>":8102,"Arrow</w>":8103,"ROOT</w>":8104,"ample":8105,"Comparison</w>":8106,"applied</w>":8107,"\"File</w>":8108,"Proper":8109,"Quality</w>":8110,"ients</w>":8111,"med</w>":8112,"tency</w>":8113,"except</w>":8114,"Channels</w>":8115,"ape":8116,"Visit</w>":8117,"datasource</w>":8118,"Tabs</w>":8119,"vp</w>":8120,"Example</w>":8121,"decess":8122,"thmetic</w>":8123,"inform":8124,"ativ":8125,"div</w>":8126,"\"re":8127,"Long":8128,"minator</w>":8129,"positive</w>":8130,"ardware</w>":8131,"query":8132,"za</w>":8133,"project":8134,"sep</w>":8135,"argument":8136,"can't</w>":8137,"consumer</w>":8138,".new</w>":8139,"BACK":8140,"give</w>":8141,"sentence</w>":8142,"skill</w>":8143,"REFID</w>":8144,"Without</w>":8145,"mf</w>":8146,"Inv":8147,"ROW</w>":8148,"Optional</w>":8149,"bn</w>":8150,"Than</w>":8151,"Filtered</w>":8152,"iterate</w>":8153,"watch</w>":8154,"Projects</w>":8155,"Neuron</w>":8156,"Redo</w>":8157,"caten":8158,"Matches</w>":8159,"Design</w>":8160,"repeat</w>":8161,"DISPOSED</w>":8162,"Is":8163,"degrees</w>":8164,"Expres":8165,"Submit</w>":8166,"istogram</w>":8167,"Padding</w>":8168,"gl":8169,"rdf</w>":8170,"Declar":8171,"Mean</w>":8172,"levant</w>":8173,"Waiting</w>":8174,"Paren":8175,"show":8176,"Payload</w>":8177,"Conditions</w>":8178,"Gene</w>":8179,"Perspective</w>":8180,"QUE":8181,"successful\"</w>":8182,"lang":8183,"Appearance</w>":8184,"Base":8185,"EXTEN":8186,"niture</w>":8187,"Footer</w>":8188,"urniture</w>":8189,"abo":8190,"une</w>":8191,"imension":8192,"\"Null</w>":8193,"Voc":8194,"Stock</w>":8195,"Graphical</w>":8196,"Clipboard</w>":8197,"istr":8198,"movie</w>":8199,"GRAPH":8200,"\"@":8201,"':":8202,"Levels</w>":8203,"overridden\"</w>":8204,"belongs</w>":8205,"20":8206,"dev</w>":8207,"fied</w>":8208,"REE</w>":8209,"Tax</w>":8210,"Included</w>":8211,"Shift</w>":8212,"ather</w>":8213,"person":8214,"upli":8215,"angles</w>":8216,"dential</w>":8217,"jt</w>":8218,"shut</w>":8219,"Low</w>":8220,"minim":8221,"Sorter</w>":8222,"SUCCESS</w>":8223,"FONT</w>":8224,"\"Implementation</w>":8225,"Vec</w>":8226,"n2</w>":8227,"usable</w>":8228,"Unsigned</w>":8229,"drawable</w>":8230,"expressions</w>":8231,"DY</w>":8232,"ent\"</w>":8233,"ALO":8234,"LOAD</w>":8235,"UTF</w>":8236,"When</w>":8237,"strip</w>":8238,"Opaque</w>":8239,"ball</w>":8240,"sta":8241,"tributor</w>":8242,"Assembly</w>":8243,"Money</w>":8244,"Ruby</w>":8245,"Producer</w>":8246,"nical</w>":8247,"Targets</w>":8248,"Stored</w>":8249,"vey</w>":8250,"probe</w>":8251,"position":8252,"REQUEST</w>":8253,"Ou":8254,"Bean":8255,"extracts</w>":8256,"training</w>":8257,"definitions</w>":8258,"ADD":8259,"Effec":8260,"blank</w>":8261,"seek</w>":8262,"Resize</w>":8263,"rendered</w>":8264,"relation":8265,"backs</w>":8266,"bitr":8267,"\"is</w>":8268,"dd":8269,"spot</w>":8270,"':'</w>":8271,"Sent</w>":8272,"Star</w>":8273,"tools</w>":8274,"acc</w>":8275,"shor":8276,"BUTTON</w>":8277,"Instance()</w>":8278,"\\n</w>":8279,"\"false\"</w>":8280,"Hel":8281,"too</w>":8282,"monit":8283,"cert</w>":8284,"highest</w>":8285,"Obj.new</w>":8286,"Dto</w>":8287,"Quote</w>":8288,"Oid</w>":8289,"bad</w>":8290,"BY</w>":8291,"DU":8292,"a1</w>":8293,"page":8294,"rep":8295,"scaled</w>":8296,"ANG":8297,"wire</w>":8298,"Sentence</w>":8299,"manifest</w>":8300,"ifying</w>":8301,"Requi":8302,"SCH":8303,"Stream":8304,"acquire</w>":8305,"Audit</w>":8306,"du</w>":8307,"ph</w>":8308,"authenti":8309,"elt</w>":8310,"Initialization</w>":8311,"Iss":8312,"LF</w>":8313,"gt</w>":8314,"material</w>":8315,"svg</w>":8316,"Sessions</w>":8317,"bile</w>":8318,"fired</w>":8319,"filled</w>":8320,"comma</w>":8321,"ESP":8322,"CREATE</w>":8323,"DESCRIPTION</w>":8324,"BR":8325,"free":8326,"gran":8327,"TAS":8328,"man</w>":8329,"bean":8330,"addresses</w>":8331,"Samples</w>":8332,"yes</w>":8333,"textfield</w>":8334,"CURSOR</w>":8335,"Dest</w>":8336,"minus</w>":8337,"embedded</w>":8338,"EM":8339,"rand</w>":8340,"ttle</w>":8341,"hibernate</w>":8342,"agents</w>":8343,"seq":8344,"relations</w>":8345,"Wat":8346,"rd</w>":8347,"Decorator</w>":8348,"macro</w>":8349,"ratio</w>":8350,"ture":8351,"esta":8352,"Put</w>":8353,"i2</w>":8354,"Type":8355,"sql":8356,"ained</w>":8357,"',":8358,"GIN</w>":8359,"value1</w>":8360,"semantic</w>":8361,"Plugins</w>":8362,"cell":8363,"COMPON":8364,"alogs</w>":8365,"White</w>":8366,"ous":8367,"projection</w>":8368,"pansion</w>":8369,"hosts</w>":8370,"\"$":8371,"bars</w>":8372,"coeffi":8373,"mic</w>":8374,"vation</w>":8375,"thread":8376,"boxes</w>":8377,"WINDOW</w>":8378,"dummy</w>":8379,"ze\"</w>":8380,"escap":8381,"ital</w>":8382,"ALIG":8383,"next":8384,"Iteration</w>":8385,"rength</w>":8386,"rating</w>":8387,"Expand</w>":8388,"deselect</w>":8389,"occured</w>":8390,"4\"</w>":8391,"na</w>":8392,"credentials</w>":8393,"decl</w>":8394,"ordinal</w>":8395,"async</w>":8396,"\"add</w>":8397,"ears</w>":8398,"appearance</w>":8399,"letter</w>":8400,"KA":8401,"Exchange</w>":8402,"5f</w>":8403,"creator</w>":8404,"dist":8405,"Automat":8406,"folders</w>":8407,"ians</w>":8408,"lp</w>":8409,"well</w>":8410,"copy":8411,"marshal</w>":8412,"Modules</w>":8413,"Statements</w>":8414,"CM</w>":8415,"OL</w>":8416,"tbl</w>":8417,"try":8418,"feat</w>":8419,"Forum</w>":8420,"Datagram</w>":8421,"sors</w>":8422,"tt</w>":8423,"nology</w>":8424,"Custom":8425,"Activated</w>":8426,"\":":8427,"Patterns</w>":8428,"splash</w>":8429,"html\"</w>":8430,"Qualifier</w>":8431,"grad":8432,"Conversation</w>":8433,"GS</w>":8434,"VE":8435,"licity</w>":8436,"creat":8437,"handled</w>":8438,"levels</w>":8439,"ar\"</w>":8440,"Refs</w>":8441,"Receive</w>":8442,"au</w>":8443,"scenario</w>":8444,"sorts</w>":8445,"datatype</w>":8446,"canonical</w>":8447,"Cap</w>":8448,"minute</w>":8449,"cache":8450,"ier</w>":8451,"Inher":8452,"vidu":8453,"Decoder</w>":8454,"increments</w>":8455,"Veto</w>":8456,"1024</w>":8457,"NAL</w>":8458,"Nick</w>":8459,"delimiter</w>":8460,"Choo":8461,"viation</w>":8462,"Charset</w>":8463,"squ":8464,"atern":8465,"quality</w>":8466,"Buff":8467,"Based</w>":8468,"heading</w>":8469,"Ip</w>":8470,"Sco":8471,"Win</w>":8472,"URN</w>":8473,"Disk</w>":8474,"cm":8475,"r1</w>":8476,"{0":8477,"CTION</w>":8478,"ner":8479,"inf</w>":8480,"Acc":8481,"enumer":8482,"arrays</w>":8483,"de\"</w>":8484,"possib":8485,"ghts</w>":8486,"Nested</w>":8487,"bank</w>":8488,"craw":8489,"mutator</w>":8490,"establi":8491,"sable</w>":8492,"inserted</w>":8493,"DATABASE</w>":8494,"ri</w>":8495,"Linear</w>":8496,"ACTIVE</w>":8497,"would</w>":8498,"oogle</w>":8499,"rag</w>":8500,"Fitness</w>":8501,"Map":8502,"ALE</w>":8503,"portlet</w>":8504,"Showing</w>":8505,"HL":8506,"Locations</w>":8507,"discard</w>":8508,"Card":8509,"Rest":8510,"fixture</w>":8511,"interest</w>":8512,"idue</w>":8513,"Classifi":8514,"+\"</w>":8515,"lot":8516,"Sever":8517,"changing</w>":8518,"\"You</w>":8519,"Comm</w>":8520,"file:</w>":8521,"Multi":8522,"/=</w>":8523,"nom":8524,"Dim</w>":8525,"Displayed</w>":8526,"\"no</w>":8527,"RD":8528,"itted</w>":8529,"suitable</w>":8530,"utions</w>":8531,"filter":8532,"1D</w>":8533,"Gran":8534,"Access":8535,"Algo</w>":8536,"evaluation</w>":8537,"propagate</w>":8538,"Contribution</w>":8539,"mult</w>":8540,"ill":8541,"subclass</w>":8542,"configures</w>":8543,"dependencies</w>":8544,"Parsed</w>":8545,"Selectable</w>":8546,"\"Stu":8547,"represent</w>":8548,"boundary</w>":8549,"Modal</w>":8550,"dk</w>":8551,"Undoable</w>":8552,"CATEG":8553,"enum":8554,"Decision</w>":8555,"Scroll":8556,"EXP":8557,"SPEC":8558,"EQU":8559,"rot</w>":8560,"Desc":8561,"Vector3D</w>":8562,"Additional</w>":8563,"LP</w>":8564,"pan</w>":8565,"send":8566,"mpo":8567,"geo":8568,"Datatype</w>":8569,"refs</w>":8570,"extend</w>":8571,"Docs</w>":8572,"immediately</w>":8573,"PARAMETER</w>":8574,"JX</w>":8575,"Anim":8576,"inherited</w>":8577,"\"A</w>":8578,"22</w>":8579,"attrib</w>":8580,"ordering</w>":8581,"FORM</w>":8582,"echan":8583,"turns</w>":8584,"RT":8585,"spector</w>":8586,"flow":8587,"passes</w>":8588,"Presence</w>":8589,"\"java.":8590,"Hyper":8591,"are":8592,"ration</w>":8593,"reas</w>":8594,"draw":8595,"BA</w>":8596,"SK":8597,"VAL</w>":8598,"atar</w>":8599,"latitude</w>":8600,".xml\"</w>":8601,"Macro</w>":8602,"NAMESP":8603,"Possible</w>":8604,"cloned</w>":8605,"Gradient</w>":8606,"lave</w>":8607,"drawn</w>":8608,"Bitmap</w>":8609,"Whe":8610,"Inten":8611,"qualifier</w>":8612,"Remaining</w>":8613,"Color":8614,"opcode</w>":8615,"RECOR":8616,"SHORT</w>":8617,"number":8618,"21</w>":8619,"chun":8620,"Rel</w>":8621,"Adv":8622,"argu</w>":8623,"aternion</w>":8624,"mass</w>":8625,"ione":8626,"mps</w>":8627,"Fraction</w>":8628,"SECOND</w>":8629,"acle</w>":8630,"share</w>":8631,"Recent</w>":8632,"News</w>":8633,"guid</w>":8634,"ickname</w>":8635,"JS</w>":8636,"Red</w>":8637,"Molecule</w>":8638,"sqle</w>":8639,"LAYOUT</w>":8640,"asserts</w>":8641,"Issue</w>":8642,"xx</w>":8643,"posal</w>":8644,"atoms</w>":8645,"browse</w>":8646,"dt":8647,"dispat":8648,"Translator</w>":8649,"vertis":8650,"Lost</w>":8651,"disposes</w>":8652,"ACT</w>":8653,"Collector</w>":8654,"SCROLL</w>":8655,"\"com":8656,"aching</w>":8657,"INFOR":8658,"trait</w>":8659,"Pipe</w>":8660,"bucket</w>":8661,"Referen":8662,"expect</w>":8663,"Building</w>":8664,"SYSTEM</w>":8665,"zzle</w>":8666,"adjust":8667,"ough</w>":8668,"exchange</w>":8669,"\"m":8670,"Mock</w>":8671,"ale":8672,"mes</w>":8673,"ence":8674,"emit</w>":8675,"FIR":8676,"Secret</w>":8677,"keywords</w>":8678,"occurred</w>":8679,"ftw":8680,"kb</w>":8681,"ento</w>":8682,"closest</w>":8683,"QUER":8684,"Ops</w>":8685,"fr</w>":8686,"|\"</w>":8687,"stack":8688,"plain</w>":8689,"SPACE</w>":8690,"\"value\"</w>":8691,"fre":8692,"Ga":8693,"Interfaces</w>":8694,"outputs</w>":8695,"\"Stub\"</w>":8696,"interaction</w>":8697,"Relations</w>":8698,"Port\"</w>":8699,"Mag":8700,"a2</w>":8701,"arb":8702,"expir":8703,"Observation</w>":8704,"COMPONENT</w>":8705,"%s":8706,"arri":8707,"ver\"</w>":8708,"BODY</w>":8709,"OPER":8710,"anguages</w>":8711,"longitude</w>":8712,"resolution</w>":8713,"feedback</w>":8714,"compiler</w>":8715,"hicle</w>":8716,"Bot</w>":8717,"Globals</w>":8718,"JC</w>":8719,"cing</w>":8720,"udo</w>":8721,"enger</w>":8722,"locks</w>":8723,"Laun":8724,"BOT":8725,"encoun":8726,"luet":8727,"walk</w>":8728,"b1</w>":8729,"bt</w>":8730,"ber\"</w>":8731,"ule":8732,"er:</w>":8733,"word\"</w>":8734,"javascript</w>":8735,"Outgoing</w>":8736,"nav</w>":8737,"SVN</w>":8738,"collapse</w>":8739,"\"Ex":8740,"37</w>":8741,"Void</w>":8742,"Writable</w>":8743,"ybe</w>":8744,"lover</w>":8745,"note":8746,"GRAPHIC</w>":8747,"Mil":8748,"pub</w>":8749,"altern":8750,"spacing</w>":8751,"Att</w>":8752,"Combin":8753,"sink</w>":8754,"cookies</w>":8755,"Analyzer</w>":8756,"Txt</w>":8757,"tely</w>":8758,"Repaint</w>":8759,"ournal</w>":8760,"0.0":8761,"title":8762,"El</w>":8763,"MATION</w>":8764,"TRI":8765,"jsp</w>":8766,"Sec</w>":8767,"minor</w>":8768,"having</w>":8769,"Known</w>":8770,"FIED</w>":8771,"Can</w>":8772,"grade</w>":8773,"Sink</w>":8774,"gad":8775,"MAX":8776,"Bond</w>":8777,"Blob</w>":8778,"jax</w>":8779,"tural</w>":8780,"Logged</w>":8781,"SHA":8782,"SELECTION</w>":8783,"successful</w>":8784,"AXIS</w>":8785,"Rese":8786,"IDENTI":8787,"Occur":8788,"angular</w>":8789,"sugg":8790,"out\"</w>":8791,"SESSION</w>":8792,"newline</w>":8793,"CT":8794,"Dimensions</w>":8795,"tiles</w>":8796,"concaten":8797,"moving</w>":8798,"Suite</w>":8799,"templates</w>":8800,"neighbor</w>":8801,"wsdl</w>":8802,"ron</w>":8803,"aspect</w>":8804,"Movement</w>":8805,"STOR":8806,"ACL</w>":8807,"Weights</w>":8808,"sorting</w>":8809,"allel</w>":8810,"Pin</w>":8811,"separated</w>":8812,"Lat</w>":8813,"nfe</w>":8814,"ROLE</w>":8815,"traverse</w>":8816,",\"</w>":8817,"ye</w>":8818,"izes</w>":8819,"POCD":8820,"000040":8821,"Backup</w>":8822,"MT000040":8823,"POCDMT000040":8824,"utils</w>":8825,"ITE</w>":8826,"tential</w>":8827,"converted</w>":8828,"serialized</w>":8829,"marshaller</w>":8830,"mesh</w>":8831,"Chang":8832,"Restriction</w>":8833,"lean":8834,"probably</w>":8835,"inting</w>":8836,"CONTEXT</w>":8837,"MODI":8838,"solver</w>":8839,"DTD</w>":8840,"Inserted</w>":8841,"Cart</w>":8842,"Symbols</w>":8843,"pb</w>":8844,"asset</w>":8845,"localized</w>":8846,"arv":8847,"','</w>":8848,"KAON</w>":8849,"Discovery</w>":8850,"OPEN</w>":8851,"DD</w>":8852,"d2</w>":8853,"iling</w>":8854,"Seed</w>":8855,"filen":8856,"clones</w>":8857,"combob":8858,"Negative</w>":8859,"Band</w>":8860,"Mass</w>":8861,"ills</w>":8862,"Hook</w>":8863,"gate</w>":8864,"lhs</w>":8865,"ul</w>":8866,"Related</w>":8867,"Hour</w>":8868,"bd</w>":8869,"footer</w>":8870,"econ":8871,"create":8872,"Model":8873,"Short":8874,"Encoded</w>":8875,"system":8876,"buddy</w>":8877,"LOCATION</w>":8878,"cpu</w>":8879,"pathname</w>":8880,"PLA":8881,"nf</w>":8882,"Order":8883,"Value":8884,"NAMESPACE</w>":8885,"Raster</w>":8886,"bw</w>":8887,"d1</w>":8888,"longer</w>":8889,"subset</w>":8890,"Reason</w>":8891,"BIN":8892,"CES</w>":8893,"produce</w>":8894,"ORD</w>":8895,"Displayable</w>":8896,"SINGLE</w>":8897,"Cy":8898,"partition</w>":8899,"Segments</w>":8900,"sers</w>":8901,"ing3d</w>":8902,"Candidate</w>":8903,"EXCE":8904,"Checkbox</w>":8905,"imports</w>":8906,"Act</w>":8907,"DOUB":8908,"b2</w>":8909,"orth</w>":8910,"arbitr":8911,"Rep</w>":8912,"licies</w>":8913,"Authorization</w>":8914,"Kernel</w>":8915,"QL</w>":8916,"pipe</w>":8917,"ifier</w>":8918,"Collap":8919,"compound</w>":8920,"Interceptor</w>":8921,"echo</w>":8922,"SSF</w>":8923,"HAND":8924,"gps</w>":8925,"ptr</w>":8926,"trying</w>":8927,"shadow</w>":8928,"luetooth</w>":8929,"ctrl</w>":8930,"hy":8931,"lear":8932,"ment\"</w>":8933,"Ptr</w>":8934,"happ":8935,"readable</w>":8936,"frag":8937,"executing</w>":8938,"BUFFER</w>":8939,"Ari":8940,"paragraph</w>":8941,"Contains</w>":8942,"Tele":8943,"\"type\"</w>":8944,"<\"</w>":8945,"Clock</w>":8946,"Sys":8947,"cx</w>":8948,"goods</w>":8949,"flat":8950,"CLU":8951,"fname</w>":8952,"Patch</w>":8953,"Documents</w>":8954,"'\"'</w>":8955,"Req</w>":8956,"Panel":8957,"buffers</w>":8958,"ALOG</w>":8959,"Ding3d</w>":8960,"Tre":8961,"entering</w>":8962,"produ":8963,"Spaces</w>":8964,"\"\\t</w>":8965,"Exception\"</w>":8966,"128</w>":8967,"Sign</w>":8968,"fast</w>":8969,"bos</w>":8970,"READ":8971,"0x0":8972,"Activator</w>":8973,"value2</w>":8974,"sons</w>":8975,"jected</w>":8976,"Characters</w>":8977,"Agents</w>":8978,"Formats</w>":8979,"Green</w>":8980,"Jobs</w>":8981,"cover</w>":8982,"outs</w>":8983,"movement</w>":8984,"extent</w>":8985,"Divider</w>":8986,"Pipeline</w>":8987,"Rpc</w>":8988,"vb</w>":8989,"Pop</w>":8990,"reques":8991,"integr":8992,"Age</w>":8993,"Using</w>":8994,"stock</w>":8995,"asy</w>":8996,"Namespaces</w>":8997,"Counts</w>":8998,"offer</w>":8999,"dere":9000,"Stage</w>":9001,"Idle</w>":9002,"CLI":9003,"Flus":9004,"gp</w>":9005,"nc</w>":9006,"vie":9007,"Spatial</w>":9008,"ipp":9009,"Foreign</w>":9010,"Wrong</w>":9011,"hint</w>":9012,"Under":9013,"MAL</w>":9014,"ATIVE</w>":9015,"APPRO":9016,"::":9017,"tle</w>":9018,"Incoming</w>":9019,"Recon":9020,"indicated</w>":9021,"contacts</w>":9022,"CHECK</w>":9023,"pin</w>":9024,"rp</w>":9025,"know</w>":9026,"Load":9027,"arg2</w>":9028,"subscription</w>":9029,"FOL":9030,"CAP":9031,"Dev</w>":9032,"Component":9033,"namespaces</w>":9034,"bre":9035,"pred</w>":9036,"uts</w>":9037,"FX</w>":9038,"Inventory</w>":9039,"GROUND</w>":9040,"organization</w>":9041,"HI":9042,"Susp":9043,"Inverse</w>":9044,"uction</w>":9045,"presence</w>":9046,"Encryp":9047,"JO":9048,"sem":9049,"recipient</w>":9050,"INPUT</w>":9051,"payment</w>":9052,"serialization</w>":9053,"14</w>":9054,"rements</w>":9055,"trigg":9056,"Heading</w>":9057,"Severity</w>":9058,"400</w>":9059,"pg</w>":9060,"ticket</w>":9061,"deck</w>":9062,"Craw":9063,"DI</w>":9064,"Date":9065,"pv</w>":9066,"tele":9067,"ards</w>":9068,"alive</w>":9069,"Layers</w>":9070,"RUN":9071,"Sparse</w>":9072,"gi</w>":9073,"i18":9074,"tro</w>":9075,"Endian</w>":9076,"1f</w>":9077,"licable</w>":9078,"Ban":9079,"wind</w>":9080,"triple</w>":9081,"Until</w>":9082,"transforms</w>":9083,"Dependencies</w>":9084,"big</w>":9085,"NORMAL</w>":9086,"Editors</w>":9087,"place":9088,"TAR":9089,"atable</w>":9090,"stable</w>":9091,"proper</w>":9092,"Direct":9093,"Queu":9094,"mart":9095,"whitespace</w>":9096,"arbitrary</w>":9097,"\"con":9098,"5\"</w>":9099,"PUB":9100,"hi</w>":9101,"inct</w>":9102,"Are</w>":9103,"answers</w>":9104,"iro</w>":9105,"K\"</w>":9106,"late":9107,"window":9108,"acion</w>":9109,"Executable</w>":9110,"met":9111,"Rot":9112,"decrement</w>":9113,"Playing</w>":9114,"guard</w>":9115,"FINE</w>":9116,"Hide</w>":9117,"degree</w>":9118,"contexts</w>":9119,"collision</w>":9120,"modal</w>":9121,"Shown</w>":9122,"Duplicate</w>":9123,"ven</w>":9124,"Fire</w>":9125,"recycle</w>":9126,"box":9127,"sion\"</w>":9128,"pnl</w>":9129,"rebuild</w>":9130,"road</w>":9131,"age\"</w>":9132,"ed:</w>":9133,"Technical</w>":9134,"Colour</w>":9135,"Redirect</w>":9136,"Unary</w>":9137,"LONG</w>":9138,"Assign</w>":9139,"assigns</w>":9140,"descend":9141,"\"file":9142,"lv</w>":9143,"ince</w>":9144,"ios</w>":9145,"swt</w>":9146,"DATE":9147,"\"An</w>":9148,"\"null\"</w>":9149,"Squ":9150,"save":9151,"above</w>":9152,"instant</w>":9153,"recording</w>":9154,"...":9155,"G:</w>":9156,"Behaviour</w>":9157,"Blue</w>":9158,"vectors</w>":9159,"Buddy</w>":9160,"COL</w>":9161,"future</w>":9162,"Production</w>":9163,"INFORMATION</w>":9164,"NUM</w>":9165,"entity":9166,"week</w>":9167,"warnings</w>":9168,"allow":9169,"TOM</w>":9170,"opening</w>":9171,"CHANGE</w>":9172,"\"L":9173,"Mut":9174,"gbc</w>":9175,"modifiable</w>":9176,"Ports</w>":9177,"start\"</w>":9178,"corner</w>":9179,"limited</w>":9180,"Particle</w>":9181,"\"Unexpected</w>":9182,"Singleton</w>":9183,"MAT":9184,"die</w>":9185,"validated</w>":9186,"BLACK</w>":9187,"J3d</w>":9188,"Validat":9189,"Opened</w>":9190,"Updater</w>":9191,"Ftp</w>":9192,"fx</w>":9193,"hits</w>":9194,"charac":9195,"Weak</w>":9196,"Tiles</w>":9197,"Pur":9198,"oi":9199,"DEP":9200,"Updates</w>":9201,"home":9202,"sections</w>":9203,"Secure</w>":9204,"Publisher</w>":9205,"Stub</w>":9206,"Browse</w>":9207,"predic":9208,"linear</w>":9209,"POINT</w>":9210,"adoc</w>":9211,"money</w>":9212,"Poly":9213,"phabet</w>":9214,"Wheel</w>":9215,"px</w>":9216,"ary":9217,"dbc":9218,"Router</w>":9219,"Scalar</w>":9220,"ide":9221,"rink</w>":9222,"proj</w>":9223,"Packages</w>":9224,"causes</w>":9225,"Invoice</w>":9226,"indentation</w>":9227,"TASK</w>":9228,"CU":9229,"FTP</w>":9230,"paused</w>":9231,"checksum</w>":9232,"lexer</w>":9233,"DT</w>":9234,"Wal":9235,"circle</w>":9236,"ram":9237,"socke":9238,"ded\"</w>":9239,"prototype</w>":9240,"pretty</w>":9241,"IDE</w>":9242,"accumul":9243,"firmation</w>":9244,"BS</w>":9245,"DN":9246,"scop":9247,"paste</w>":9248,"Cur</w>":9249,"textual</w>":9250,"\"DELETE</w>":9251,"'-":9252,"eled</w>":9253,"forces</w>":9254,"transaction":9255,"inclusive</w>":9256,"suspend</w>":9257,"orable</w>":9258,"asing</w>":9259,"idle</w>":9260,"ysics</w>":9261,"authenticate</w>":9262,"\"create</w>":9263,"Kit</w>":9264,"struct</w>":9265,"scheduled</w>":9266,"alleng":9267,"markers</w>":9268,"INTEGR":9269,"SF</w>":9270,"ahead</w>":9271,"Def":9272,"Attrs</w>":9273,"porting</w>":9274,"emas</w>":9275,"Notifier</w>":9276,"hides</w>":9277,"CG</w>":9278,"compilation</w>":9279,"Parsing</w>":9280,"Shader</w>":9281,"capabilities</w>":9282,"choices</w>":9283,"OFFSET</w>":9284,"Arithmetic</w>":9285,"\"insert</w>":9286,"SCO":9287,"jjt</w>":9288,"Appli":9289,"Cert</w>":9290,"Icons</w>":9291,"SEN":9292,"aff":9293,"synchronize</w>":9294,"Contacts</w>":9295,"resulting</w>":9296,"CODE":9297,"509":9298,"Estim":9299,"Rtf</w>":9300,"Delimiter</w>":9301,"transitions</w>":9302,"'\\\\":9303,"Observable</w>":9304,"Ticket</w>":9305,"Average</w>":9306,"Review</w>":9307,"Continu":9308,"GES</w>":9309,"Tu":9310,"nearest</w>":9311,"Partition</w>":9312,"Record":9313,"Optim":9314,"Scrol":9315,"Requests</w>":9316,"index1</w>":9317,"INFIN":9318,"everything</w>":9319,"\"*\"</w>":9320,"CA</w>":9321,"GWT</w>":9322,"comm</w>":9323,"Adding</w>":9324,"Org</w>":9325,"convention</w>":9326,"\"#\"</w>":9327,"Queries</w>":9328,"viduals</w>":9329,"INTEGRAL</w>":9330,"tra</w>":9331,"\"in":9332,"sibling</w>":9333,"Reporter</w>":9334,"lazy</w>":9335,"Setter</w>":9336,"INFINITY</w>":9337,"Dam":9338,"FLO":9339,"GO":9340,"own":9341,"ark</w>":9342,"ARRAY</w>":9343,"Verify</w>":9344,"calculated</w>":9345,"attle</w>":9346,"Integr":9347,"jndi</w>":9348,"DRA":9349,"Mesh</w>":9350,"pn</w>":9351,"digit</w>":9352,"clusters</w>":9353,"Payment</w>":9354,"AF":9355,"CB</w>":9356,"Tmp</w>":9357,"wiz":9358,"Conflict</w>":9359,"Plus</w>":9360,"mediate</w>":9361,"clusion</w>":9362,"zip":9363,"maybe</w>":9364,"TIES</w>":9365,"ferable</w>":9366,"middle</w>":9367,"error.":9368,"www":9369,"acted</w>":9370,"aliases</w>":9371,"Accelerator</w>":9372,"Road</w>":9373,"frame":9374,"Bridge</w>":9375,"LLI":9376,"pec":9377,"suite</w>":9378,"remove":9379,"bra</w>":9380,"receives</w>":9381,"CONNECTION</w>":9382,"pipeline</w>":9383,"essenger</w>":9384,".gif\"</w>":9385,"ha":9386,"je</w>":9387,"perio":9388,"ion\"</w>":9389,"packets</w>":9390,"WHITE</w>":9391,"\"null</w>":9392,"Large</w>":9393,"Ring</w>":9394,"rm</w>":9395,"zen</w>":9396,"UND":9397,"fitness</w>":9398,"reached</w>":9399,"erializ":9400,"return":9401,"STOP":9402,"MEDI":9403,"umulative</w>":9404,"Embedded</w>":9405,"molecule</w>":9406,"associate</w>":9407,"production</w>":9408,"Cnt</w>":9409,"forum</w>":9410,"SOUT":9411,"sam":9412,"m1</w>":9413,"live</w>":9414,"Allow</w>":9415,"prepares</w>":9416,"DOUBLE</w>":9417,"'\\\\'</w>":9418,"\"error</w>":9419,"\"Illegal</w>":9420,"lr</w>":9421,"review</w>":9422,"Defs</w>":9423,"Collabor":9424,"achable</w>":9425,"ENAB":9426,"14":9427,"Cipher</w>":9428,"Go</w>":9429,"iom</w>":9430,"Propag":9431,"comps</w>":9432,"decoder</w>":9433,"trees</w>":9434,"PD":9435,"devices</w>":9436,"maxim":9437,"exclusive</w>":9438,"Ls</w>":9439,"outh</w>":9440,"sensitive</w>":9441,"owned</w>":9442,"abstract":9443,"nomial</w>":9444,"Each</w>":9445,"Hours</w>":9446,"Ret</w>":9447,"transform":9448,"target":9449,"serializer</w>":9450,"Gra":9451,"Man</w>":9452,"Voice</w>":9453,"visor</w>":9454,"Study</w>":9455,"PATTER":9456,"incompatible</w>":9457,"Dict</w>":9458,"todo</w>":9459,"cardin":9460,"spring</w>":9461,"supported\"</w>":9462,"Tray</w>":9463,"iters</w>":9464,"league</w>":9465,"Instruc":9466,"Con</w>":9467,"built</w>":9468,"music</w>":9469,"scores</w>":9470,"TEMPL":9471,"icons</w>":9472,"jump</w>":9473,"lf</w>":9474,"neuron</w>":9475,"ucene</w>":9476,"Suppli":9477,"capture</w>":9478,"successfully</w>":9479,"Js</w>":9480,"deseri":9481,"SWG</w>":9482,"identifiers</w>":9483,"INTEGER</w>":9484,"did</w>":9485,"prior</w>":9486,"som</w>":9487,"properties\"</w>":9488,"'0'</w>":9489,"perform":9490,"diff":9491,"Mail":9492,"Admin":9493,"Mem</w>":9494,"ALIZ":9495,"PLAIN</w>":9496,"SHOW</w>":9497,"\"f":9498,"CEL":9499,"ceeded</w>":9500,"ims</w>":9501,"id=\"</w>":9502,"Online</w>":9503,"Rendered</w>":9504,"block":9505,"NORTH</w>":9506,"installs</w>":9507,"CMD</w>":9508,"pling</w>":9509,"cant</w>":9510,"EXT</w>":9511,"Array":9512,"tics</w>":9513,"posite</w>":9514,"Exception:</w>":9515,"gain</w>":9516,"nu":9517,"inventory</w>":9518,"relevant</w>":9519,"childs</w>":9520,"not":9521,"subtree</w>":9522,"Life</w>":9523,"request":9524,"construction</w>":9525,"'-'</w>":9526,"Pas":9527,"Vals</w>":9528,"es/":9529,"Std</w>":9530,"Watch</w>":9531,"later</w>":9532,"smart":9533,"Host":9534,"EXIT</w>":9535,"baos</w>":9536,"'s</w>":9537,"cas":9538,"correctly</w>":9539,"Append</w>":9540,"Instant</w>":9541,"amma</w>":9542,"\"BU":9543,"sock</w>":9544,"persi":9545,"exiting</w>":9546,"clicks</w>":9547,"ously</w>":9548,"\"Con":9549,"Css</w>":9550,"menus</w>":9551,"153":9552,"wiki</w>":9553,"label\"</w>":9554,"Ont</w>":9555,"math</w>":9556,"mock</w>":9557,"unload</w>":9558,"finest</w>":9559,"Explorer</w>":9560,"Styled</w>":9561,"Attempt</w>":9562,"half</w>":9563,"17</w>":9564,"cg</w>":9565,"vis</w>":9566,"seen</w>":9567,"med":9568,"ing.\"</w>":9569,"Knowledge</w>":9570,"damage</w>":9571,"Wri":9572,"tide</w>":9573,"behaviour</w>":9574,"rule":9575,"MAIN</w>":9576,"I18n</w>":9577,"ggered</w>":9578,"Re</w>":9579,"envelope</w>":9580,"human</w>":9581,"en\"</w>":9582,"mac</w>":9583,"translates</w>":9584,"Suppress</w>":9585,"UNI":9586,"ipants</w>":9587,"HOUR</w>":9588,"roots</w>":9589,"focused</w>":9590,"internally</w>":9591,"OSM</w>":9592,"tcp</w>":9593,"Prox":9594,"File\"</w>":9595,"occup":9596,"CL</w>":9597,"qn</w>":9598,"alty</w>":9599,"onal</w>":9600,"accounts</w>":9601,"beta</w>":9602,"CD</w>":9603,"Tex</w>":9604,"plugin":9605,"\\n\\n\"</w>":9606,"version\"</w>":9607,"combobox</w>":9608,"held</w>":9609,"p.":9610,"r'</w>":9611,"ru</w>":9612,"xn</w>":9613,"tee</w>":9614,"uninstall</w>":9615,"bund":9616,"Dependent</w>":9617,"blocking</w>":9618,"BOTTOM</w>":9619,"encountered</w>":9620,"tech":9621,"finite</w>":9622,"TEST</w>":9623,"DIALOG</w>":9624,"Ax":9625,"Fon":9626,"chat":9627,"crit</w>":9628,"Image":9629,"insertion</w>":9630,"particle</w>":9631,"Bookmark</w>":9632,"bond</w>":9633,"dence</w>":9634,"enqueue</w>":9635,"Initializer</w>":9636,"small</w>":9637,"Nav</w>":9638,"installed</w>":9639,"VT</w>":9640,"yy</w>":9641,"ERENCE</w>":9642,"mutation</w>":9643,"json":9644,"of":9645,"ooled</w>":9646,"FULL</w>":9647,"PAN":9648,"ips</w>":9649,"alth</w>":9650,"Movie</w>":9651,"closure</w>":9652,"FAI":9653,"Label":9654,"Expired</w>":9655,"uml</w>":9656,"meas":9657,"outside</w>":9658,"Node":9659,"refer":9660,"validity</w>":9661,"ssl</w>":9662,"arbage</w>":9663,"Sizes</w>":9664,"defaul":9665,"Dragged</w>":9666,"ENABLED</w>":9667,"UD</w>":9668,"gwt</w>":9669,"Inline</w>":9670,"ticast</w>":9671,"waits</w>":9672,"categ":9673,"QUERY</w>":9674,":\\n\"</w>":9675,"cid</w>":9676,"car</w>":9677,"doub":9678,"ances</w>":9679,"chk</w>":9680,"apache":9681,"Bucket</w>":9682,"urer</w>":9683,"populates</w>":9684,"non-":9685,"Sel</w>":9686,"ipients</w>":9687,"student</w>":9688,"BAR</w>":9689,"Folders</w>":9690,"Ping</w>":9691,"tf":9692,"t:</w>":9693,"Invoke</w>":9694,"amodel</w>":9695,"\"not</w>":9696,"EP":9697,"Uid</w>":9698,"cs":9699,"ub</w>":9700,"rested</w>":9701,"meter</w>":9702,"Button":9703,"New":9704,"digester</w>":9705,"Minutes</w>":9706,"illegal</w>":9707,"means</w>":9708,"Sig</w>":9709,"secondary</w>":9710,"Plain</w>":9711,"binds</w>":9712,"allocated</w>":9713,"Unicode</w>":9714,"Annot":9715,"PASSW":9716,"sess</w>":9717,"rever":9718,"Prompt</w>":9719,"TYPES</w>":9720,"graphical</w>":9721,"Searcher</w>":9722,"i18n</w>":9723,"bf</w>":9724,"xp</w>":9725,"ceed</w>":9726,"spectrum</w>":9727,"Abs</w>":9728,"****************":9729,"CDATA</w>":9730,"len":9731,"large</w>":9732,"ergy</w>":9733,"alled</w>":9734,"\"Couldn't</w>":9735,"grab</w>":9736,"SOUTH</w>":9737,"\".</w>":9738,"wall</w>":9739,"anim</w>":9740,"elcome</w>":9741,"requis":9742,"properly</w>":9743,"AC</w>":9744,"atio":9745,"never</w>":9746,"documentation</w>":9747,"Templates</w>":9748,"bookmark</w>":9749,"zoo":9750,"raf</w>":9751,"Debu":9752,"Compatible</w>":9753,"Ability</w>":9754,"Simil":9755,"Ranges</w>":9756,"grow</w>":9757,"pho":9758,"busy</w>":9759,"Ack</w>":9760,"displaying</w>":9761,"poly":9762,"length":9763,"EDIT</w>":9764,"Personal</w>":9765,"SN":9766,"voice</w>":9767,"anned</w>":9768,"MILLI":9769,"Boundary</w>":9770,"\"User</w>":9771,"Nul":9772,"vic":9773,"Caption</w>":9774,"Subscriber</w>":9775,"\"Error:</w>":9776,"RE</w>":9777,"Tod":9778,"ndx</w>":9779,"ious</w>":9780,"online</w>":9781,"Pause</w>":9782,"goti":9783,"Skip</w>":9784,"APPROVE</w>":9785,"Circle</w>":9786,"Rout":9787,"jax":9788,"cha</w>":9789,"seudo</w>":9790,"COS</w>":9791,"manage</w>":9792,"\"x":9793,"Mapped</w>":9794,"nc":9795,"OUTPUT</w>":9796,"Bank</w>":9797,"pen":9798,"prog</w>":9799,"Progr":9800,"works</w>":9801,"corresponds</w>":9802,"Frog</w>":9803,"allenge</w>":9804,"HIG":9805,"Io</w>":9806,"l2</w>":9807,"registr":9808,"phi</w>":9809,"slide</w>":9810,"Navigator</w>":9811,"Repeat</w>":9812,"Gate</w>":9813,"Leng":9814,"contract</w>":9815,"REGI":9816,"DISP":9817,"userid</w>":9818,"Member":9819,"Peak</w>":9820,"SI</w>":9821,"gtk</w>":9822,"mbean</w>":9823,"one\"</w>":9824,"1.0":9825,"doesn't</w>":9826,"zzy</w>":9827,"ance":9828,"ATURE</w>":9829,"SEAR":9830,"Cance":9831,"playback</w>":9832,"Diagnostics</w>":9833,"imported</w>":9834,"\"?\"</w>":9835,"BACK</w>":9836,"mys":9837,"didates</w>":9838,"Genome</w>":9839,"Superclass</w>":9840,"news</w>":9841,"Contract</w>":9842,"exis":9843,"planation</w>":9844,"BASE</w>":9845,"JN":9846,"aa</w>":9847,"td":9848,"SOL":9849,"Trim</w>":9850,"RESULT</w>":9851,"sian</w>":9852,"Pairs</w>":9853,"Dense</w>":9854,"vas":9855,"this":9856,"STORE</w>":9857,"reduce</w>":9858,"ime":9859,"LINK</w>":9860,"CATION</w>":9861,"TI</w>":9862,"pcs</w>":9863,"touch</w>":9864,"selection":9865,"docs</w>":9866,"cipher</w>":9867,"Encode</w>":9868,"Meas":9869,"Atomic</w>":9870,"artist</w>":9871,"holds</w>":9872,"Vocabulary</w>":9873,"SCOPE</w>":9874,"MM":9875,"painter</w>":9876,"Credit</w>":9877,"Plane</w>":9878,"observation</w>":9879,"Parents</w>":9880,"ALIGN</w>":9881,"EXCEPTION</w>":9882,"TING</w>":9883,"bold</w>":9884,"lations</w>":9885,"informs</w>":9886,"sizes</w>":9887,"ipping</w>":9888,"Biz</w>":9889,"variance</w>":9890,"detect</w>":9891,"effective</w>":9892,"Escape</w>":9893,"ding":9894,"eting</w>":9895,"covered</w>":9896,"progres":9897,"Sett":9898,"conditional</w>":9899,"Csp</w>":9900,"enc</w>":9901,"onus</w>":9902,"below</w>":9903,"Altern":9904,"PLU":9905,"minal</w>":9906,"Position":9907,"FOUND</w>":9908,"ypoints</w>":9909,"hib":9910,"rl</w>":9911,"usr</w>":9912,"Alarm</w>":9913,"fferen":9914,"02</w>":9915,"C\"</w>":9916,"good</w>":9917,"ised</w>":9918,"essment</w>":9919,"Degrees</w>":9920,"ople</w>":9921,"Install</w>":9922,"Employee</w>":9923,"Em</w>":9924,"cms</w>":9925,"ium</w>":9926,"alibr":9927,"togg":9928,"excluded</w>":9929,"Soft</w>":9930,"Flush</w>":9931,"Correlation</w>":9932,"PATTERN</w>":9933,"ab</w>":9934,"Fit</w>":9935,"INIT</w>":9936,"newly</w>":9937,"centr":9938,"Planet</w>":9939,"Bar":9940,"ET</w>":9941,"tray</w>":9942,"REL":9943,"Transient</w>":9944,"Cardin":9945,"echanism</w>":9946,"\"e":9947,"Au</w>":9948,"jm":9949,"\"\\r\\n\"</w>":9950,"pped</w>":9951,"shapes</w>":9952,"Moves</w>":9953,"COM</w>":9954,"encrypt</w>":9955,"APPLICATION</w>":9956,"Opt</w>":9957,"dir":9958,"--></w>":9959,"derived</w>":9960,"data\"</w>":9961,"Validity</w>":9962,"Skin</w>":9963,"Table":9964,"balance</w>":9965,"sector</w>":9966,"interceptor</w>":9967,"reflect</w>":9968,"LIST":9969,"ird</w>":9970,"Resolved</w>":9971,"FILTER</w>":9972,"IMSS</w>":9973,"Authority</w>":9974,"CATEGORY</w>":9975,"SR":9976,"flavor</w>":9977,"m2</w>":9978,"frm</w>":9979,"keystore</w>":9980,"TARGET</w>":9981,"\"BUG:</w>":9982,"CC</w>":9983,"tg</w>":9984,"tv</w>":9985,"wrong</w>":9986,"ERX</w>":9987,"Shadow</w>":9988,"simply</w>":9989,"inits</w>":9990,"ASH</w>":9991,"daemon</w>":9992,"\"Please</w>":9993,"Neighbor</w>":9994,"PUBLI":9995,"REN":9996,"dable</w>":9997,"concrete</w>":9998,"Probe</w>":9999,"Reco":10000,"peak</w>":10001,"Associations</w>":10002,"Student</w>":10003,"simulator</w>":10004,"objs</w>":10005,"Longitude</w>":10006,"LDA":10007,"Ocl</w>":10008,"PL</w>":10009,"vi</w>":10010,"cho</w>":10011,"RESS</w>":10012,"\"There</w>":10013,"300</w>":10014,"XS</w>":10015,"gateway</w>":10016,"hr</w>":10017,"hood</w>":10018,"nan":10019,"Enter</w>":10020,"Art":10021,"Heap</w>":10022,"0000</w>":10023,"mitter</w>":10024,"Addresses</w>":10025,"Hyperlink</w>":10026,"Uuid</w>":10027,"gers</w>":10028,"rs":10029,"tz</w>":10030,"pojo</w>":10031,"dir\"</w>":10032,"Seri":10033,"Monit":10034,"\"S1":10035,"stub</w>":10036,"MINUTE</w>":10037,"src":10038,"Markers</w>":10039,"shortcut</w>":10040,"cardinality</w>":10041,"mas":10042,"lig":10043,"Redraw</w>":10044,"criterion</w>":10045,"Community</w>":10046,"Correct</w>":10047,"simpli":10048,"Rollback</w>":10049,"\"Error\"</w>":10050,"Ball</w>":10051,"stamp</w>":10052,"iso":10053,"Instr":10054,"liste":10055,"looking</w>":10056,"mediator</w>":10057,"COMPLE":10058,"\";</w>":10059,"\"from</w>":10060,"xs</w>":10061,"licit":10062,"REQ</w>":10063,"Cancelled</w>":10064,"subscriber</w>":10065,"sparent</w>":10066,"asynchron":10067,"RPC</w>":10068,"Inst</w>":10069,"Rep":10070,"activates</w>":10071,"compose</w>":10072,"\"',</w>":10073,"producer</w>":10074,"neighbors</w>":10075,"purposes</w>":10076,"vertisement</w>":10077,"36":10078,"Dlg</w>":10079,"GP</w>":10080,"Tester</w>":10081,"slots</w>":10082,"thumb</w>":10083,"location":10084,"resources":10085,"LOW":10086,"PRIORI":10087,"encrypted</w>":10088,"Latitude</w>":10089,"closed\"</w>":10090,"ian</w>":10091,"lays</w>":10092,"Rest</w>":10093,"Appro":10094,"Solver</w>":10095,"MX</w>":10096,"ated":10097,"Comb":10098,"hole</w>":10099,"decryp":10100,"activities</w>":10101,"\"com.":10102,"4f</w>":10103,"=?</w>":10104,"Jax":10105,"bid</w>":10106,"profiles</w>":10107,"species</w>":10108,"Place":10109,"collections</w>":10110,"#\"</w>":10111,"Recipient</w>":10112,"SPE":10113,"NUMER":10114,"erature</w>":10115,"dicates</w>":10116,"beat</w>":10117,"fraction</w>":10118,"pitch</w>":10119,"atural</w>":10120,"transactions</w>":10121,"scr":10122,"PROJECT</w>":10123,"Getter</w>":10124,"sequences</w>":10125,"ftware</w>":10126,"BLOCK</w>":10127,"pts</w>":10128,"pul":10129,"context":10130,"\"y":10131,"caches</w>":10132,"stant</w>":10133,"Dispose</w>":10134,"ASN":10135,"backing</w>":10136,"magn":10137,"real":10138,"learning</w>":10139,"ildcard</w>":10140,"Keywords</w>":10141,"Scheduled</w>":10142,"SYN":10143,"BUTTON":10144,"CAL":10145,"Deleg":10146,"Launcher</w>":10147,".com":10148,"LAST</w>":10149,"freq</w>":10150,"apse</w>":10151,"ATTRIBU":10152,"\"no":10153,"csv</w>":10154,"tier</w>":10155,"sed":10156,"Recording</w>":10157,"RANGE</w>":10158,"gradient</w>":10159,"Tests</w>":10160,"lb</w>":10161,"atives</w>":10162,"acl</w>":10163,"sex</w>":10164,"\"user.":10165,"90</w>":10166,"cases</w>":10167,"eps</w>":10168,"ites</w>":10169,"enclosing</w>":10170,"Inside</w>":10171,"Descriptions</w>":10172,"Roster</w>":10173,"Terrain</w>":10174,"authorization</w>":10175,"retrieved</w>":10176,"text/":10177,"Publish</w>":10178,"allest</w>":10179,"found.\"</w>":10180,"Fully</w>":10181,"decessor</w>":10182,"possibly</w>":10183,"\"r":10184,"ional</w>":10185,"rounding</w>":10186,"replaced</w>":10187,"manipu":10188,"Communication</w>":10189,"TEXT":10190,"aggregate</w>":10191,"wants</w>":10192,"iner</w>":10193,"served</w>":10194,"spac":10195,"Geom</w>":10196,"BYTE</w>":10197,"Artist</w>":10198,"EO</w>":10199,"Freq</w>":10200,"eable</w>":10201,"qs</w>":10202,"three</w>":10203,"trail":10204,"stances</w>":10205,"Datum</w>":10206,"initialises</w>":10207,"Soap</w>":10208,"lowest</w>":10209,"Expressions</w>":10210,"Fatal</w>":10211,"py</w>":10212,"Major</w>":10213,"Percentage</w>":10214,"secure</w>":10215,"receiving</w>":10216,"WSDL</w>":10217,"fluence</w>":10218,".png\"</w>":10219,"Cut</w>":10220,"Furniture</w>":10221,"Reading</w>":10222,"mean":10223,"Action":10224,"Thro":10225,"Marked</w>":10226,"BUIL":10227,"Poly</w>":10228,"FORE":10229,"Encryption</w>":10230,"Cal</w>":10231,"cd":10232,"x0</w>":10233,"eset</w>":10234,"Fix":10235,"Memento</w>":10236,"energy</w>":10237,"ranking</w>":10238,"associates</w>":10239,"simple":10240,"Lit":10241,"blob</w>":10242,"cf":10243,"addition</w>":10244,"readed</w>":10245,"RET":10246,"Subset</w>":10247,"toolkit</w>":10248,"HL7":10249,"LDAP</w>":10250,"Cen":10251,"Wall</w>":10252,"las</w>":10253,"shader</w>":10254,"Transitions</w>":10255,"ORDER":10256,"increases</w>":10257,"joint</w>":10258,"pushes</w>":10259,"Tx</w>":10260,"c2":10261,"cart</w>":10262,"stic</w>":10263,"seg</w>":10264,"memento</w>":10265,"Keep</w>":10266,"hashmap</w>":10267,"dragged</w>":10268,"Gesture</w>":10269,"Hits</w>":10270,"sf":10271,"ora</w>":10272,"finder</w>":10273,"tives</w>":10274,"REMOVE</w>":10275,"DEFINED</w>":10276,"gm</w>":10277,"ased</w>":10278,"again</w>":10279,"Paused</w>":10280,"Deco":10281,"communication</w>":10282,"abled\"</w>":10283,"Streams</w>":10284,"KE</w>":10285,"liday</w>":10286,"appointment</w>":10287,"heigh":10288,"cleans</w>":10289,"inters</w>":10290,"Translate</w>":10291,"Between</w>":10292,"SION":10293,"deriv":10294,"MOVE</w>":10295,"Clients</w>":10296,"\"'.\"</w>":10297,"bitmap</w>":10298,"\"ERROR":10299,"ential</w>":10300,"Chro":10301,"Activate</w>":10302,"compiled</w>":10303,"Vector3</w>":10304,"Atoms</w>":10305,"Clusters</w>":10306,"CA":10307,"JDOM</w>":10308,"TY":10309,"bag</w>":10310,"rss</w>":10311,"thumbnail</w>":10312,"Provi":10313,"WARN</w>":10314,"Configured</w>":10315,"MENU</w>":10316,"friend</w>":10317,"jacent</w>":10318,"rmi</w>":10319,"sul":10320,"chr</w>":10321,"obtains</w>":10322,"deployment</w>":10323,"ircu":10324,"Text":10325,"Inclusive</w>":10326,"WORD</w>":10327,"Recursive</w>":10328,"\"the</w>":10329,"\"test":10330,"Gateway</w>":10331,"MT</w>":10332,"restores</w>":10333,"triangle</w>":10334,"Spring</w>":10335,"BE</w>":10336,"KED</w>":10337,"face":10338,"Resizable</w>":10339,"Little</w>":10340,"\"**":10341,"span":10342,"Tail</w>":10343,"conversation</w>":10344,"levation</w>":10345,"evaluator</w>":10346,"FOLDER</w>":10347,"BA":10348,"Lite</w>":10349,"Demo</w>":10350,"END":10351,"encer</w>":10352,"currences</w>":10353,"density</w>":10354,"employee</w>":10355,"automaton</w>":10356,"scaling</w>":10357,"TC</w>":10358,"tostring</w>":10359,"connecting</w>":10360,"ycles</w>":10361,"PD</w>":10362,"jb":10363,"exact</w>":10364,"design</w>":10365,"NOM</w>":10366,"stylesheet</w>":10367,"ish</w>":10368,"alic</w>":10369,"toable</w>":10370,"Assigned</w>":10371,"Poll</w>":10372,"IDENTIFI":10373,"IM</w>":10374,"hm</w>":10375,"es.\"</w>":10376,"Inf</w>":10377,"Regex</w>":10378,"STI":10379,"AMP</w>":10380,"ackgroun":10381,"MPP</w>":10382,"actionlistener</w>":10383,"Adjustment</w>":10384,"TIMEOUT</w>":10385,"PRIORITY</w>":10386,"gri":10387,"or.":10388,"naming</w>":10389,"Lear":10390,"facility</w>":10391,"Future</w>":10392,"cancels</w>":10393,"announ":10394,"izing</w>":10395,"troid</w>":10396,"root":10397,"Widgets</w>":10398,"Critical</w>":10399,"Violation</w>":10400,"EXTENSION</w>":10401,"Message":10402,"Sy":10403,"ires</w>":10404,"ryption</w>":10405,"ups</w>":10406,"ounded</w>":10407,"INT":10408,"older":10409,"Training</w>":10410,"CSV</w>":10411,"Delivery</w>":10412,"1L</w>":10413,"NER</w>":10414,"Pk</w>":10415,"Pan</w>":10416,"================":10417,"X509":10418,"bul":10419,"anti":10420,"concepts</w>":10421,"decrease</w>":10422,"deploy":10423,"Canceled</w>":10424,"nb":10425,"disp</w>":10426,"Datas":10427,"alloc</w>":10428,"Traffi":10429,"list\"</w>":10430,"STOPP":10431,"++":10432,"Rename</w>":10433,"ues</w>":10434,"Info":10435,"ell":10436,"import":10437,"calculation</w>":10438,"finish":10439,"completely</w>":10440,"lipse</w>":10441,"ine":10442,"actu":10443,"respond</w>":10444,"highlighted</w>":10445,"Vis</w>":10446,"etence</w>":10447,"fa</w>":10448,"jms</w>":10449,"dep</w>":10450,"end\"</w>":10451,"intersect</w>":10452,"ature":10453,"ity\"</w>":10454,"Ind":10455,"Energy</w>":10456,"wether</w>":10457,"Publication</w>":10458,"txt\"</w>":10459,"####":10460,"Replacement</w>":10461,"ever</w>":10462,"RESP":10463,"\"Setting</w>":10464,"Dlet</w>":10465,"Spot</w>":10466,"dimension":10467,"sym":10468,"inactive</w>":10469,"infos</w>":10470,"Chromosome</w>":10471,"midi</w>":10472,"Blocking</w>":10473,"POSITION</w>":10474,"Compile</w>":10475,"icro":10476,"Sensitive</w>":10477,"Midi</w>":10478,"apache.":10479,"PASSWORD</w>":10480,"\"on</w>":10481,"-></w>":10482,"Href</w>":10483,"I\"</w>":10484,"Precision</w>":10485,"w3":10486,"ads</w>":10487,"unsigned</w>":10488,"password\"</w>":10489,"vector":10490,"Visualization</w>":10491,"www.":10492,"\"de":10493,"ned":10494,"idl</w>":10495,"Privilege</w>":10496,"Clean</w>":10497,"land</w>":10498,"ase\"</w>":10499,"Consis":10500,"recorder</w>":10501,"Ident</w>":10502,"Extractor</w>":10503,"INGS</w>":10504,"shuff":10505,"DOCUMENT</w>":10506,"instrument</w>":10507,"\"|\"</w>":10508,"bp":10509,"making</w>":10510,"Note":10511,"Fail</w>":10512,"error:</w>":10513,"analyze</w>":10514,"escaped</w>":10515,"SB</w>":10516,"precated</w>":10517,"follow</w>":10518,"vendor</w>":10519,"'\\r'</w>":10520,"study</w>":10521,"changelistener</w>":10522,"XSD</w>":10523,"Ju":10524,"eff</w>":10525,"elems</w>":10526,"reject</w>":10527,"retain</w>":10528,"chromosome</w>":10529,"taken</w>":10530,"avel":10531,"pieces</w>":10532,"mainder</w>":10533,"body":10534,"Pick</w>":10535,"ly\"</w>":10536,"rw</w>":10537,"atibility</w>":10538,"unmodifiable</w>":10539,"alizes</w>":10540,"SCRE":10541,"Waypoint</w>":10542,"COMMENT</w>":10543,"Recogn":10544,"BR</w>":10545,"mv</w>":10546,"Drawer</w>":10547,"genome</w>":10548,"titles</w>":10549,"clipse</w>":10550,"storing</w>":10551,"assertion</w>":10552,"prob</w>":10553,"unless</w>":10554,"Dead</w>":10555,"Disable</w>":10556,"animate</w>":10557,"Buffers</w>":10558,"Breakpoint</w>":10559,"Hardware</w>":10560,"Source":10561,"uling</w>":10562,"actly</w>":10563,"correlation</w>":10564,"implemented\"</w>":10565,"computed</w>":10566,"Clean":10567,"authority</w>":10568,"Traffic</w>":10569,"A\"</w>":10570,"yna</w>":10571,"Sugg":10572,"ACCESS</w>":10573,"modifies</w>":10574,"Exclusive</w>":10575,"combine</w>":10576,"\"IO</w>":10577,"f1</w>":10578,"ga":10579,"located</w>":10580,"mote</w>":10581,"associations</w>":10582,"unicode</w>":10583,"FIRST</w>":10584,"Nb</w>":10585,"gray</w>":10586,"structures</w>":10587,"ilities</w>":10588,"notifications</w>":10589,"taxon":10590,"Prototype</w>":10591,"INITIAL</w>":10592,"NUMERIC</w>":10593,"expired</w>":10594,"0xff":10595,"bm</w>":10596,"cam</w>":10597,"quick</w>":10598,"Reverse</w>":10599,"submenu</w>":10600,"offsets</w>":10601,"Privileged</w>":10602,"VISIBLE</w>":10603,"SPECI":10604,"alternative</w>":10605,"submitted</w>":10606,"store":10607,"SETT":10608,"Misc</w>":10609,"msg":10610,"queued</w>":10611,"Cardinality</w>":10612,"70</w>":10613,"Ns</w>":10614,"ske":10615,"vl</w>":10616,"ini</w>":10617,"nes</w>":10618,"fidence</w>":10619,"Trade</w>":10620,"regions</w>":10621,"selections</w>":10622,"TAB</w>":10623,"JSC</w>":10624,"described</w>":10625,"cients</w>":10626,"Bri":10627,"hyp":10628,"std</w>":10629,"Acl</w>":10630,"Difference</w>":10631,"Thing</w>":10632,"Edit":10633,"ROW":10634,"Processed</w>":10635,"tracking</w>":10636,"Lic":10637,"gned</w>":10638,"aler":10639,"irth</w>":10640,"grp</w>":10641,"planet</w>":10642,"INTERVAL</w>":10643,"Owned</w>":10644,"Fo</w>":10645,"justed</w>":10646,"ponent</w>":10647,"privileg":10648,"Separ":10649,"spatial</w>":10650,"RAM</w>":10651,"lyphs</w>":10652,"Style":10653,"fonts</w>":10654,"uplicates</w>":10655,"CACH":10656,"roi</w>":10657,"chan</w>":10658,"tributed</w>":10659,"Lazy</w>":10660,"bracket</w>":10661,"selected":10662,"restriction</w>":10663,"BACKGROUND</w>":10664,"enode</w>":10665,"stm":10666,"site":10667,"REPL":10668,"Scaled</w>":10669,"responses</w>":10670,"cryp":10671,"type:</w>":10672,"dtd</w>":10673,"lost</w>":10674,"Dec</w>":10675,"aud":10676,"Tooltip</w>":10677,"Calculator</w>":10678,"\"New</w>":10679,"OFF</w>":10680,"Tor":10681,"executable</w>":10682,"versions</w>":10683,"portal</w>":10684,"signals</w>":10685,"KEN</w>":10686,"Activities</w>":10687,"Issu":10688,"SA</w>":10689,"air":10690,"mandatory</w>":10691,"ot":10692,"realm</w>":10693,"Inputs</w>":10694,"Charge</w>":10695,"lab</w>":10696,"IND</w>":10697,"get\"</w>":10698,"cancelled</w>":10699,"rtp</w>":10700,"applications</w>":10701,"Descend":10702,"\"invalid</w>":10703,"Was</w>":10704,"brow":10705,"et\"</w>":10706,"job":10707,"poly</w>":10708,"thon</w>":10709,"decision</w>":10710,"Creating</w>":10711,"MULTI":10712,"VARI":10713,"ymbolic</w>":10714,"23</w>":10715,"PACK":10716,"aid</w>":10717,"mkdir</w>":10718,"Intensity</w>":10719,"WN":10720,"ker":10721,"se.":10722,"diag</w>":10723,"REP":10724,"Alt</w>":10725,"Species</w>":10726,"WORK":10727,"eclipse</w>":10728,"\"Set</w>":10729,"Hyp":10730,"fb</w>":10731,"Inform":10732,"Qui":10733,"interpo":10734,"invoice</w>":10735,"step":10736,"exception":10737,"msgs</w>":10738,"Small</w>":10739,"REMOVED</w>":10740,"RUNNING</w>":10741,"EP</w>":10742,"GPS</w>":10743,"TF</w>":10744,"WO</w>":10745,"ada</w>":10746,"projec":10747,"datastore</w>":10748,"Interest</w>":10749,"fetches</w>":10750,"1p":10751,"l1</w>":10752,"ython</w>":10753,"Positive</w>":10754,"Slice</w>":10755,"directed</w>":10756,"\"></w>":10757,"Ben":10758,"encodes</w>":10759,"Supplier</w>":10760,"speci":10761,"Anonymous</w>":10762,"runn":10763,"attachments</w>":10764,"mul</w>":10765,"sequent</w>":10766,"FAILED</w>":10767,"Office</w>":10768,"Rational</w>":10769,"hc</w>":10770,"sms</w>":10771,"inver":10772,"Code":10773,"generating</w>":10774,"Structural</w>":10775,"oimodel</w>":10776,"Car</w>":10777,"iev":10778,"tly</w>":10779,"va</w>":10780,"abor":10781,"Partial</w>":10782,"SAVE</w>":10783,"Transparency</w>":10784,"solve</w>":10785,"\"--":10786,"leading</w>":10787,"trip":10788,"sphere</w>":10789,"Picker</w>":10790,"\"u":10791,"Scop":10792,"f2</w>":10793,"his</w>":10794,"mes":10795,"s2":10796,"unit":10797,"tection</w>":10798,"igner</w>":10799,"Size":10800,"printing</w>":10801,"CHIL":10802,"merged</w>":10803,"database":10804,"Reasoner</w>":10805,".\\n\"</w>":10806,"TD</w>":10807,"XMPP</w>":10808,"invert</w>":10809,"revert</w>":10810,"tarea</w>":10811,"mented</w>":10812,"ENAME</w>":10813,"purge</w>":10814,"ambda</w>":10815,"CPU</w>":10816,"'>":10817,"By":10818,"Dummy</w>":10819,"eg</w>":10820,"{}\"</w>":10821,"isnt</w>":10822,"unbind</w>":10823,"Called</w>":10824,"oldactive</w>":10825,"Readable</w>":10826,"xsl</w>":10827,"ATTRIBUTES</w>":10828,"Balance</w>":10829,"Gain</w>":10830,"Expansion</w>":10831,"perm</w>":10832,"reasoner</w>":10833,"Cryp":10834,"Tst</w>":10835,"eof</w>":10836,"junit</w>":10837,"lue</w>":10838,"wer":10839,"inline</w>":10840,"wake</w>":10841,"Plug</w>":10842,"delete":10843,"gui":10844,"functionality</w>":10845,"WMF</w>":10846,"estion":10847,"Department</w>":10848,"Menu":10849,"cular</w>":10850,"notifier</w>":10851,"reserved</w>":10852,"WEST</w>":10853,"bat":10854,"inf":10855,"attr":10856,"alarm</w>":10857,"perspective</w>":10858,"silon</w>":10859,"translated</w>":10860,"knowledge</w>":10861,"obj1</w>":10862,"Temporary</w>":10863,"collector</w>":10864,"PLUGIN</w>":10865,"BC</w>":10866,"develo":10867,"even</w>":10868,"Pretty</w>":10869,"refers</w>":10870,"Print":10871,"Detector</w>":10872,"\"title\"</w>":10873,"bran":10874,"wl</w>":10875,"publisher</w>":10876,"reali":10877,"intervals</w>":10878,"destin":10879,"sorter</w>":10880,"turned</w>":10881,"Concurrency</w>":10882,"INTO</w>":10883,"placed</w>":10884,"attack</w>":10885,"KS</w>":10886,"pig":10887,"zy":10888,"League</w>":10889,"Subtree</w>":10890,"Fox</w>":10891,"Tagged</w>":10892,"need":10893,"raise</w>":10894,"forwar":10895,"STER</w>":10896,"oldversion</w>":10897,"arraylist</w>":10898,"Warn</w>":10899,"Value\"</w>":10900,"\"INSERT</w>":10901,"FG</w>":10902,"Ms</w>":10903,"Ri":10904,"^=</w>":10905,"leet</w>":10906,"loj":10907,"exits</w>":10908,"affi":10909,"irror</w>":10910,"Triangle</w>":10911,"Simulator</w>":10912,"AUTO</w>":10913,"Conditional</w>":10914,"mposition</w>":10915,"RESPON":10916,"TCP</w>":10917,"on\"</w>":10918,"core":10919,"Concepts</w>":10920,"Titled</w>":10921,"recognized</w>":10922,"$\"</w>":10923,"')":10924,"fld</w>":10925,"mig":10926,"tac":10927,"transpose</w>":10928,"audit</w>":10929,"FAIL":10930,"empty":10931,"AUTH":10932,"optimize</w>":10933,"Marshaller</w>":10934,"triggers</w>":10935,"=?,</w>":10936,"fl</w>":10937,"t;\"</w>":10938,"zation</w>":10939,"forwards</w>":10940,"domains</w>":10941,"wheel</w>":10942,"Datab":10943,"APP</w>":10944,"obj2</w>":10945,"stitution</w>":10946,"\"error\"</w>":10947,"ele</w>":10948,"y.":10949,"placement</w>":10950,"ENTRY</w>":10951,"Predefined</w>":10952,"constructed</w>":10953,"orient</w>":10954,"Black</w>":10955,"writeln</w>":10956,"itec":10957,"really</w>":10958,"abber</w>":10959,"UNIT</w>":10960,"Guard</w>":10961,"ij":10962,"total":10963,"Resume</w>":10964,"object\"</w>":10965,"SIGN":10966,"program":10967,"%s\"</w>":10968,"Norm</w>":10969,"Pad</w>":10970,"license</w>":10971,"kets</w>":10972,"braries</w>":10973,"width":10974,"decorator</w>":10975,"today</w>":10976,"Tracking</w>":10977,"atomic</w>":10978,"denominator</w>":10979,"\"Starting</w>":10980,"=?\"</w>":10981,"Ms":10982,"foo":10983,"rf</w>":10984,"vable</w>":10985,"KET</w>":10986,"Destroy</w>":10987,"substitute</w>":10988,"WF</w>":10989,"cam":10990,"screen":10991,"tel</w>":10992,"anc":10993,"Execut":10994,"tile":10995,"align":10996,"spinner</w>":10997,"Dirs</w>":10998,"present":10999,"ENCO":11000,"ORTED</w>":11001,"SHI":11002,"Implemented</w>":11003,"overriden</w>":11004,"leaves</w>":11005,"\"*":11006,"eper</w>":11007,"hist":11008,"tuples</w>":11009,"rem</w>":11010,"blocked</w>":11011,"Checksum</w>":11012,"negate</w>":11013,"shuts</w>":11014,"RDFS</w>":11015,"yi":11016,"deal</w>":11017,"locat":11018,"Contributor</w>":11019,"ENTS</w>":11020,"tifying</w>":11021,"interested</w>":11022,"describes</w>":11023,"Decoration</w>":11024,"switches</w>":11025,"18</w>":11026,"DA</w>":11027,"az":11028,"dash":11029,"dead</w>":11030,"alizing</w>":11031,"Versions</w>":11032,"Regions</w>":11033,"lane</w>":11034,"resolves</w>":11035,"html>\"</w>":11036,"combination</w>":11037,"lojsom</w>":11038,"\"X":11039,"Page":11040,"bble</w>":11041,"p0</w>":11042,"reo</w>":11043,"replay</w>":11044,"collabor":11045,"acks</w>":11046,"goes</w>":11047,"multiplier</w>":11048,"Friend</w>":11049,"Millisec":11050,"\"UPDATE</w>":11051,"ffor":11052,"assembly</w>":11053,"sit</w>":11054,"VALID":11055,"Minor</w>":11056,"MSB</w>":11057,"method\"</w>":11058,"queues</w>":11059,"Lexical</w>":11060,"WAIT</w>":11061,"\"Missing</w>":11062,"cdata</w>":11063,"ntk</w>":11064,"lem":11065,"exactly</w>":11066,"listed</w>":11067,"Path":11068,"enda</w>":11069,"Calc</w>":11070,"iterations</w>":11071,"Directories</w>":11072,"Routing</w>":11073,"SEARCH</w>":11074,"FC</w>":11075,"VS</w>":11076,"ho</w>":11077,"acting</w>":11078,"compression</w>":11079,"Measurement</w>":11080,"Transferable</w>":11081,"Credential</w>":11082,"\\\">\"</w>":11083,"://\"</w>":11084,"boolean":11085,"triggered</w>":11086,"Make</w>":11087,"argest</w>":11088,"Splash</w>":11089,"tracks</w>":11090,"\"?":11091,"hints</w>":11092,"thickness</w>":11093,"ross</w>":11094,"extern":11095,"Modes</w>":11096,"Been</w>":11097,"Statistic</w>":11098,"Listing</w>":11099,"\"user</w>":11100,"Pie</w>":11101,"Quad</w>":11102,"EVAL</w>":11103,"Normalized</w>":11104,"considered</w>":11105,"Automaton</w>":11106,"Pack</w>":11107,"Inc":11108,"Appointment</w>":11109,"secur":11110,"operands</w>":11111,"avoid</w>":11112,"colli":11113,"archer</w>":11114,"BOX</w>":11115,"shake</w>":11116,"enumerate</w>":11117,"Dro":11118,"GAME</w>":11119,"t'</w>":11120,"enium</w>":11121,"rights</w>":11122,"ing.":11123,"initializer</w>":11124,"Closure</w>":11125,"ldap</w>":11126,"raft</w>":11127,"andwidth</w>":11128,"subtr":11129,"times":11130,"java\"</w>":11131,"Destroyed</w>":11132,"licitly</w>":11133,"bbox</w>":11134,"fur":11135,"figures</w>":11136,"deserializ":11137,"Stereotype</w>":11138,"transient</w>":11139,"ierarchical</w>":11140,"Shortcut</w>":11141,"\"remove</w>":11142,"):</w>":11143,"p3</w>":11144,"Intersection</w>":11145,"flushes</w>":11146,"Bul":11147,"DM</w>":11148,"Div":11149,"High":11150,"garbage</w>":11151,"numer":11152,"win":11153,"ente</w>":11154,"lope</w>":11155,"trict</w>":11156,"float":11157,"empty\"</w>":11158,"separator\"</w>":11159,"analyzer</w>":11160,"crs</w>":11161,"expire</w>":11162,"Deploy</w>":11163,"incipals</w>":11164,"administr":11165,";\\n\"</w>":11166,"Dates</w>":11167,"KB</w>":11168,"TAB":11169,"npc</w>":11170,"w\"</w>":11171,"Residue</w>":11172,"STOP</w>":11173,"Limits</w>":11174,"Func</w>":11175,"LT</w>":11176,"Val":11177,"Vendor</w>":11178,"urs</w>":11179,"ancy</w>":11180,"dialog":11181,"toler":11182,"Roots</w>":11183,"String\"</w>":11184,"Categ":11185,"Frag":11186,"\"Can</w>":11187,"Scores</w>":11188,"Instructions</w>":11189,"PID</w>":11190,"RENT</w>":11191,"alect</w>":11192,"cbuf</w>":11193,"ka</w>":11194,"xy":11195,"life</w>":11196,"Chun":11197,"geom</w>":11198,"....":11199,"Im</w>":11200,"ane</w>":11201,"performance</w>":11202,"resum":11203,"Sta":11204,"compressed</w>":11205,"Performance</w>":11206,"Deck</w>":11207,"Written</w>":11208,"drive</w>":11209,"FRAME</w>":11210,"ippet</w>":11211,"TEMPLATE</w>":11212,"alisation</w>":11213,"edcom</w>":11214,"filtering</w>":11215,"cancel":11216,"0x7":11217,"Train</w>":11218,"NEW":11219,"Classification</w>":11220,"Lon</w>":11221,"o\"</w>":11222,"instr</w>":11223,"appear</w>":11224,"known\"</w>":11225,"skipped</w>":11226,"exception\"</w>":11227,"\"Connection</w>":11228,"Echo</w>":11229,"Tree":11230,"isk</w>":11231,"POS</w>":11232,"schedules</w>":11233,"separate</w>":11234,"ADDRESS</w>":11235,"FLOAT</w>":11236,"FUN":11237,"Entered</w>":11238,"don</w>":11239,"prep</w>":11240,"strap</w>":11241,"Checking</w>":11242,"terminated</w>":11243,"ircuit</w>":11244,"Ear":11245,"Offer</w>":11246,"\\t\"</w>":11247,"ceil</w>":11248,"mag</w>":11249,"Advertisement</w>":11250,"LOC</w>":11251,"ticker</w>":11252,"explo":11253,"depends</w>":11254,"condition":11255,"nickname</w>":11256,"size\"</w>":11257,"Status":11258,"omic</w>":11259,"Multiplicity</w>":11260,"GM</w>":11261,"Test":11262,"had</w>":11263,"les":11264,"demo</w>":11265,"Build":11266,"discovery</w>":11267,"successor</w>":11268,"Startup</w>":11269,"estimate</w>":11270,"membership</w>":11271,"Element":11272,"mac":11273,"slash</w>":11274,"tstrap</w>":11275,"chase</w>":11276,"finer</w>":11277,"colony</w>":11278,"geome":11279,"UPDAT":11280,"holding</w>":11281,"Fav":11282,"Tuples</w>":11283,"iso</w>":11284,"Menus</w>":11285,"backward</w>":11286,"TOKEN</w>":11287,"intensity</w>":11288,"24":11289,"DD":11290,"SING</w>":11291,"y0</w>":11292,"recalculate</w>":11293,"Exc</w>":11294,"unsaved</w>":11295,"comes</w>":11296,"Quaternion</w>":11297,"cube</w>":11298,"Regular</w>":11299,"MOUSE</w>":11300,"List\"</w>":11301,"Lexer</w>":11302,"Outer</w>":11303,"deserialize</w>":11304,"55":11305,"Cat</w>":11306,"deregister</w>":11307,"ourc":11308,"Throw</w>":11309,"DEF</w>":11310,"Orders</w>":11311,"BOTH</w>":11312,"smallest</w>":11313,"Listening</w>":11314,"Successful</w>":11315,"Bid</w>":11316,"story</w>":11317,"asci":11318,"Exper":11319,"Story</w>":11320,"ucli":11321,"URL":11322,"let.":11323,"CAR":11324,"ois</w>":11325,"raster</w>":11326,"lifecycle</w>":11327,"Sch153":11328,"Keystore</w>":11329,"Identifiers</w>":11330,"SYSTEM":11331,"consistent</w>":11332,"\"log":11333,"FOR</w>":11334,"Rights</w>":11335,"So</w>":11336,"any":11337,"Degree</w>":11338,"copied</w>":11339,"Wrapped</w>":11340,"SCALE</w>":11341,"searching</w>":11342,"Particip":11343,"facade</w>":11344,"Should</w>":11345,"Cross</w>":11346,"configurations</w>":11347,"/>\"</w>":11348,"AID</w>":11349,"aci</w>":11350,"priv":11351,"port\"</w>":11352,"key\"</w>":11353,"0.5f</w>":11354,"Mission</w>":11355,"Base64</w>":11356,"adjustment</w>":11357,"Histogram</w>":11358,"None</w>":11359,"dg</w>":11360,"kids</w>":11361,"spo":11362,"curacy</w>":11363,"community</w>":11364,"scrollbar</w>":11365,"Minute</w>":11366,"ASN1":11367,"Ruler</w>":11368,"Satis":11369,"dr":11370,"ei</w>":11371,"orded</w>":11372,"publish":11373,"modes</w>":11374,"potential</w>":11375,"containers</w>":11376,"months</w>":11377,"TAIN":11378,"Objective</w>":11379,"\"Adding</w>":11380,"bis</w>":11381,"dfs</w>":11382,"move":11383,"avatar</w>":11384,"Allocation</w>":11385,"Traversal</w>":11386,"Configurator</w>":11387,"es:</w>":11388,"dic</w>":11389,"opposite</w>":11390,"log4j</w>":11391,"ygons</w>":11392,"Joint</w>":11393,"genes</w>":11394,"directory":11395,".set</w>":11396,"Air":11397,"FY</w>":11398,"might</w>":11399,"spor":11400,"auge</w>":11401,"duced</w>":11402,"29</w>":11403,"Cache":11404,"Insn</w>":11405,"regexp</w>":11406,"orial</w>":11407,"Weigh":11408,"Legal</w>":11409,"menuitem</w>":11410,"ptions</w>":11411,"vity</w>":11412,"west</w>":11413,"Maker</w>":11414,"collected</w>":11415,"ANTI":11416,"Struc</w>":11417,"Workbook</w>":11418,"Reflection</w>":11419,"menubar</w>":11420,"Offsets</w>":11421,"Imports</w>":11422,"EQUAL</w>":11423,"cumulative</w>":11424,"far</w>":11425,"85":11426,"Touch</w>":11427,"mnemonic</w>":11428,"put\"</w>":11429,"unused</w>":11430,"ental</w>":11431,"Opcode</w>":11432,"classloader</w>":11433,"Matrix1D</w>":11434,"navigator</w>":11435,"CONNECTED</w>":11436,"setting":11437,"Coding</w>":11438,"hex":11439,"vy</w>":11440,"wf</w>":11441,"prod</w>":11442,"actoring</w>":11443,"Thickness</w>":11444,"Disconnect</w>":11445,"tadat":11446,"EXI":11447,"LOCAL</w>":11448,"Attached</w>":11449,"stuff</w>":11450,"viewing</w>":11451,"IR</w>":11452,"ored</w>":11453,"Coverage</w>":11454,"terrain</w>":11455,"Parameter":11456,"ROL</w>":11457,"rud</w>":11458,"Callable</w>":11459,"amming</w>":11460,"Snmp</w>":11461,"Ajax</w>":11462,"OM":11463,"race</w>":11464,"tein</w>":11465,"Contexts</w>":11466,"endly</w>":11467,"Tier</w>":11468,"POSITIVE</w>":11469,"help":11470,"Slash</w>":11471,"Sym</w>":11472,"i\"</w>":11473,"ena</w>":11474,"roster</w>":11475,"00\"</w>":11476,"UNDEFINED</w>":11477,"identifies</w>":11478,"FA</w>":11479,"Messenger</w>":11480,"hp</w>":11481,"enough</w>":11482,"Try</w>":11483,"\"@\"</w>":11484,"CI</w>":11485,"ered</w>":11486,"mn</w>":11487,"tas</w>":11488,"remainder</w>":11489,"aving</w>":11490,"Spli":11491,"Identification</w>":11492,"stdout</w>":11493,"\"x\"</w>":11494,"wr</w>":11495,"things</w>":11496,"resid":11497,"Predic":11498,"exponent</w>":11499,"Weapon</w>":11500,"taxon</w>":11501,"visualization</w>":11502,"similar</w>":11503,"fragments</w>":11504,"\"full":11505,"::</w>":11506,"gesture</w>":11507,"jvm</w>":11508,"channe":11509,"qualifi":11510,"expan":11511,"URATION</w>":11512,"translator</w>":11513,"Handling</w>":11514,"cise</w>":11515,"Sortable</w>":11516,"FINER</w>":11517,"mailbox</w>":11518,"UDP</w>":11519,"expiration</w>":11520,"License</w>":11521,"\"...\"</w>":11522,"48</w>":11523,"const</w>":11524,"Mobile</w>":11525,"Method":11526,"Sections</w>":11527,"Cube</w>":11528,"Attack</w>":11529,"artbeat</w>":11530,"Restrictions</w>":11531,"CLIENT</w>":11532,"Propagation</w>":11533,"\"cannot</w>":11534,"reposit":11535,"Formal</w>":11536,"Writing</w>":11537,"workers</w>":11538,"universe</w>":11539,"Authentic":11540,"datetime</w>":11541,"FINEST</w>":11542,"survey</w>":11543,"'>'</w>":11544,"BT</w>":11545,"ider</w>":11546,"pick":11547,"er2</w>":11548,"erase</w>":11549,"Servers</w>":11550,"INE</w>":11551,"Lease</w>":11552,"timeline</w>":11553,"colon</w>":11554,"\"org.apache.":11555,"Neighbors</w>":11556,"%\"</w>":11557,"''</w>":11558,"JAV":11559,"SG</w>":11560,"xmin</w>":11561,"yst":11562,"terer</w>":11563,"prites</w>":11564,"dbl</w>":11565,"Minim":11566,"Corner</w>":11567,"MC</w>":11568,"omy</w>":11569,"SEQU":11570,"secret</w>":11571,"Asser":11572,"CONTROL</w>":11573,"Mailbox</w>":11574,"itting</w>":11575,"lement\"</w>":11576,"ignoring</w>":11577,"adapt</w>":11578,"180</w>":11579,"WARD</w>":11580,"snap</w>":11581,"authenticated</w>":11582,"titude</w>":11583,"keup</w>":11584,"weapon</w>":11585,"rowset</w>":11586,"emes</w>":11587,"individuals</w>":11588,"counting</w>":11589,"Specified</w>":11590,"Warn":11591,"Ct</w>":11592,"alg</w>":11593,"preser":11594,"aux":11595,"Output":11596,"Alternative</w>":11597,"PROPERTIES</w>":11598,"viders</w>":11599,"actional</w>":11600,"INTERNAL</w>":11601,"Widths</w>":11602,"identical</w>":11603,"\"text/":11604,"Party</w>":11605,"utf":11606,"Clob</w>":11607,"Texts</w>":11608,"Radians</w>":11609,"REFERENCE</w>":11610,"Titles</w>":11611,"objective</w>":11612,"\\t</w>":11613,"glob":11614,"ll":11615,"Fix</w>":11616,"\"\\\">\"</w>":11617,"replacing</w>":11618,"dcmi</w>":11619,"\"n":11620,"Rod":11621,"err":11622,"Strength</w>":11623,"explicit</w>":11624,"Contained</w>":11625,"AMP":11626,"Binder</w>":11627,"node2</w>":11628,"xsd</w>":11629,"identify</w>":11630,"NUL":11631,"Oval</w>":11632,"sdf</w>":11633,"ame\"</w>":11634,"outcome</w>":11635,"destroys</w>":11636,"guess</w>":11637,"date\"</w>":11638,"server\"</w>":11639,"callbacks</w>":11640,"\"Parameter</w>":11641,"OK":11642,"Press</w>":11643,"faction</w>":11644,"fade</w>":11645,"gno":11646,"pt":11647,"Construction</w>":11648,"sites</w>":11649,"find":11650,"Localization</w>":11651,"ticks</w>":11652,"module":11653,"password":11654,"zero":11655,"Deriv":11656,"Entr":11657,"cuts</w>":11658,"graphs</w>":11659,"While</w>":11660,"Aggregate</w>":11661,"CACHE</w>":11662,"tolerance</w>":11663,"\"l":11664,"Dump</w>":11665,"Good</w>":11666,"ice":11667,"od</w>":11668,"ptide</w>":11669,"onym</w>":11670,"applicable</w>":11671,"avail</w>":11672,"wrap":11673,"Geo":11674,"HEL":11675,"stm</w>":11676,"prop":11677,"quad</w>":11678,"illing</w>":11679,"prep":11680,"HOST</w>":11681,"\"&\"</w>":11682,"SKIP</w>":11683,"Membership</w>":11684,"Bold</w>":11685,"Catch</w>":11686,"Icon":11687,"LR":11688,"breakpoint</w>":11689,"say</w>":11690,"w2</w>":11691,"reporter</w>":11692,"Interpre":11693,"transformed</w>":11694,"implementing</w>":11695,"STOPPED</w>":11696,"Cou":11697,"pwd</w>":11698,"loa":11699,"ucle":11700,"encryption</w>":11701,"viewers</w>":11702,"offs</w>":11703,"last4":11704,"authorized</w>":11705,"6\"</w>":11706,";'</w>":11707,"Race</w>":11708,"cg":11709,"retry</w>":11710,"role":11711,"Consts</w>":11712,"divider</w>":11713,"Thumbnail</w>":11714,"Capture</w>":11715,"allery</w>":11716,"decoration</w>":11717,"\"%\"</w>":11718,"collapsed</w>":11719,"XMLDB</w>":11720,"SECONDS</w>":11721,"Polynomial</w>":11722,".org/":11723,"Y\"</w>":11724,"s,</w>":11725,"anything</w>":11726,"oon</w>":11727,"Leading</w>":11728,"Needs</w>":11729,"providers</w>":11730,"Copy":11731,"ted:</w>":11732,"ATIONS</w>":11733,"Referenced</w>":11734,"toggles</w>":11735,"\"full/":11736,"7\"</w>":11737,"SIP</w>":11738,"Market</w>":11739,"10000</w>":11740,"Gray</w>":11741,"areas</w>":11742,"see":11743,"qui":11744,"Parallel</w>":11745,"descr</w>":11746,"exist\"</w>":11747,"Cloud</w>":11748,"fore":11749,"CLOSED</w>":11750,"coefficients</w>":11751,"Chronology</w>":11752,"\"Problem</w>":11753,"Fed":11754,"dw</w>":11755,"udp</w>":11756,"invisible</w>":11757,"revo":11758,"acceler":11759,"timp":11760,"Proposal</w>":11761,"minder</w>":11762,"Link":11763,"stereotype</w>":11764,"axes</w>":11765,"controllers</w>":11766,"Manipu":11767,"ationex":11768,"mre</w>":11769,"aler</w>":11770,"tid":11771,"poch</w>":11772,"Enumerator</w>":11773,"datum</w>":11774,"Internet</w>":11775,"Notice</w>":11776,"router</w>":11777,"maph":11778,"routing</w>":11779,"combined</w>":11780,"\">":11781,"SID</w>":11782,"wb</w>":11783,"Chapter</w>":11784,"interrupted</w>":11785,"lution</w>":11786,"Caller</w>":11787,"ASCI":11788,"genre</w>":11789,"accord":11790,"Density</w>":11791,"Directed</w>":11792,"QUESTI":11793,"\"system</w>":11794,"Pho":11795,"est\"</w>":11796,"tin</w>":11797,"Devices</w>":11798,"Connection":11799,"Vector2f</w>":11800,"Avail":11801,"limits</w>":11802,"\"Select</w>":11803,"Slots</w>":11804,"cement</w>":11805,"ador</w>":11806,"Seq":11807,"ROP</w>":11808,"Spell</w>":11809,"Calls</w>":11810,"overall</w>":11811,"Broadcast</w>":11812,"Highlighter</w>":11813,"Eclipse</w>":11814,"Ground</w>":11815,"Ske":11816,"V3":11817,"dynam":11818,"eping</w>":11819,"sbuf</w>":11820,"intr":11821,"uple":11822,"differen":11823,"Accounts</w>":11824,"clear":11825,"Sphere</w>":11826,"Boxes</w>":11827,"PREF":11828,"SUF":11829,"\"</\"</w>":11830,"md5</w>":11831,"\"Data</w>":11832,"';'</w>":11833,"Mandatory</w>":11834,"TT</w>":11835,"jp":11836,"nbr</w>":11837,"aged</w>":11838,"matic</w>":11839,"Configs</w>":11840,"Exception":11841,"Cookies</w>":11842,"'<":11843,"LANG":11844,"OL":11845,"lio</w>":11846,"chant</w>":11847,"Concurrent</w>":11848,"sil":11849,"Develo":11850,"Mac</w>":11851,"prefixes</w>":11852,"izations</w>":11853,"assoc</w>":11854,"week":11855,"PREF</w>":11856,"cedence</w>":11857,"number\"</w>":11858,"Configurable</w>":11859,"Taxon</w>":11860,"HSSF</w>":11861,"SO</w>":11862,"SL</w>":11863,"bridge</w>":11864,"iface</w>":11865,"land":11866,"range":11867,"tid</w>":11868,"rier</w>":11869,"imen</w>":11870,"Anim</w>":11871,"ORT":11872,"passing</w>":11873,"rupt</w>":11874,"BOLD</w>":11875,"cestors</w>":11876,"Document":11877,"delivery</w>":11878,"Twitter</w>":11879,"Adjusting</w>":11880,"DIRECTORY</w>":11881,"Accepted</w>":11882,"Effective</w>":11883,"0.</w>":11884,"xf</w>":11885,"xmax</w>":11886,"publication</w>":11887,"che</w>":11888,"vidence</w>":11889,"CONTROL":11890,"delim</w>":11891,"Focused</w>":11892,"Transform3D</w>":11893,"past</w>":11894,"z2":11895,"robo":11896,"Colony</w>":11897,"Modifiable</w>":11898,"effects</w>":11899,"listens</w>":11900,"CLE":11901,"dh</w>":11902,"ymax</w>":11903,"stor":11904,"Facet</w>":11905,"host\"</w>":11906,"leaving</w>":11907,"Choose</w>":11908,"maphore</w>":11909,"Cls</w>":11910,"Gat":11911,"mor":11912,"ostream</w>":11913,"p3":11914,"reconnect</w>":11915,"tically</w>":11916,"unwrap</w>":11917,"creature</w>":11918,"Ang":11919,"waypoint</w>":11920,"Relation":11921,"node1</w>":11922,"STATE":11923,"IMUM</w>":11924,"WEE":11925,"CELL</w>":11926,"Rodin</w>":11927,"80":11928,"Caches</w>":11929,"GU":11930,"Sym":11931,"tted</w>":11932,"tcha</w>":11933,"unread</w>":11934,"pops</w>":11935,"Perio":11936,"NOTI":11937,"Placement</w>":11938,"Physics</w>":11939,"Avg</w>":11940,"mmed</w>":11941,"Sequence":11942,"Bracket</w>":11943,"FAILURE</w>":11944,"SHIFT</w>":11945,"away</w>":11946,"cmd":11947,"orbit</w>":11948,"aco":11949,"Reload</w>":11950,"peers</w>":11951,"ISO</w>":11952,"FACTORY</w>":11953,"Rotate</w>":11954,"languages</w>":11955,"orite</w>":11956,"dead":11957,"jector</w>":11958,"ive":11959,"textarea</w>":11960,"Equipment</w>":11961,"workbook</w>":11962,"MEM":11963,"PRES":11964,"decoded</w>":11965,"Advanced</w>":11966,"Usu":11967,"hdr</w>":11968,"trade</w>":11969,"stit":11970,"Most</w>":11971,"Throu":11972,"encap":11973,"blings</w>":11974,"'\\''</w>":11975,"Attachments</w>":11976,"'a":11977,"bra":11978,"css":11979,"atri":11980,"itance</w>":11981,"printed</w>":11982,"Struts</w>":11983,"Crawl</w>":11984,"2000</w>":11985,"BG</w>":11986,"Bluetooth</w>":11987,"FREE</w>":11988,"Pic</w>":11989,"lest":11990,"doing</w>":11991,"Para</w>":11992,"COP":11993,"descriptions</w>":11994,"corpus</w>":11995,"Strict</w>":11996,"CASE</w>":11997,"Db":11998,"Google</w>":11999,"winner</w>":12000,"eld\"</w>":12001,"tributions</w>":12002,"feel</w>":12003,"\"Test</w>":12004,"Gad":12005,"Prob</w>":12006,"disconnected</w>":12007,"ic\"</w>":12008,"ircular</w>":12009,"VERBO":12010,"searcher</w>":12011,"Corpus</w>":12012,"Iterations</w>":12013,"Grid":12014,"Glue</w>":12015,"wc</w>":12016,"recon":12017,"er1</w>":12018,"valid\"</w>":12019,"Immutable</w>":12020,"Verbose</w>":12021,"Hosts</w>":12022,"mission":12023,"Event":12024,"topics</w>":12025,"ui.":12026,"FL":12027,"Flex</w>":12028,"NA":12029,"TP":12030,"cu</w>":12031,"ymin</w>":12032,"thand":12033,"ann</w>":12034,"coverage</w>":12035,"conflict</w>":12036,"Filled</w>":12037,"CONTAIN":12038,"oral</w>":12039,"volution</w>":12040,"ung</w>":12041,"Quit</w>":12042,"\"<br":12043,"flag":12044,"Posit":12045,"xmlbeans</w>":12046,"Ticker</w>":12047,"security":12048,"'<'</w>":12049,"BP</w>":12050,"BUND":12051,"DONE</w>":12052,"Free":12053,"bal":12054,"igu":12055,"Meter</w>":12056,"Unavailable</w>":12057,"mods</w>":12058,"Secondary</w>":12059,"NOT":12060,"selectable</w>":12061,"IS1Gen</w>":12062,"'a'</w>":12063,"Ba":12064,"vot</w>":12065,"Contr":12066,"seman":12067,"prime</w>":12068,"LOB":12069,"rank":12070,"traversal</w>":12071,"Viewable</w>":12072,"owl</w>":12073,"Street</w>":12074,"360</w>":12075,"aks</w>":12076,"fun":12077,"gamma</w>":12078,"numerator</w>":12079,"measurement</w>":12080,"party</w>":12081,"Transactions</w>":12082,"correc":12083,"institu":12084,"header":12085,"listing</w>":12086,"Sims</w>":12087,"Survey</w>":12088,"Reservation</w>":12089,"ascii</w>":12090,"Cfg</w>":12091,"Sle":12092,"sdl</w>":12093,"alone</w>":12094,"perman":12095,"readonly</w>":12096,"SCR</w>":12097,"TERS</w>":12098,"useful</w>":12099,"various</w>":12100,"ative":12101,"distinct</w>":12102,"%s</w>":12103,"MID":12104,"Om":12105,"nv</w>":12106,"report":12107,"defs</w>":12108,"st\"</w>":12109,"dies</w>":12110,"opacity</w>":12111,"0x00</w>":12112,"foo</w>":12113,"Setted</w>":12114,"ffort</w>":12115,"\"J</w>":12116,"\"Remo":12117,"\"net":12118,"Own":12119,"RM</w>":12120,"jdom</w>":12121,"north</w>":12122,"ager</w>":12123,"spell</w>":12124,"ENDING</w>":12125,"Visited</w>":12126,"wered</w>":12127,"SIF</w>":12128,"vehicle</w>":12129,"Processes</w>":12130,"Signed</w>":12131,"CURRENT</w>":12132,"Choices</w>":12133,"DISPLAY</w>":12134,"Dt\"</w>":12135,"Sel":12136,"xt":12137,"xref</w>":12138,"thm</w>":12139,"detected</w>":12140,"unary</w>":12141,"fav":12142,"ingu":12143,"gebra</w>":12144,"alizable</w>":12145,"Calling</w>":12146,"incr</w>":12147,"Vector3d</w>":12148,"path\"</w>":12149,"automatic</w>":12150,"advanced</w>":12151,"RETURN</w>":12152,"encapsul":12153,"Spa":12154,"Tip":12155,"d.\"</w>":12156,"alter</w>":12157,"voc":12158,"tribs</w>":12159,"Buff</w>":12160,"derive</w>":12161,"cairo</w>":12162,"mutex</w>":12163,"\"Hel":12164,"RECORD</w>":12165,"alternate</w>":12166,"further</w>":12167,"LANGU":12168,"\"z":12169,"Axes</w>":12170,"Please</w>":12171,"ih</w>":12172,"largest</w>":12173,"ps":12174,"ufact":12175,"vn</w>":12176,"inject</w>":12177,"Codec</w>":12178,"parame":12179,"disconnects</w>":12180,"Thumb</w>":12181,"intern</w>":12182,"Curr</w>":12183,"soft</w>":12184,"determinate</w>":12185,"capability</w>":12186,"transparency</w>":12187,"guide</w>":12188,"purpose</w>":12189,"smartgwt</w>":12190,"PACKAGE</w>":12191,"MA</w>":12192,"Way</w>":12193,"iae</w>":12194,"mapp":12195,"pdf":12196,"Prog</w>":12197,"Dice</w>":12198,"checker</w>":12199,"Union</w>":12200,"STR</w>":12201,"ACTION":12202,"Class\"</w>":12203,"STRU":12204,"stitute</w>":12205,"Blocked</w>":12206,"Cross":12207,"eclipse.":12208,"je":12209,"jp</w>":12210,"nx</w>":12211,"remember</w>":12212,"contribute</w>":12213,"shallow</w>":12214,"Die</w>":12215,"STRO":12216,"peg</w>":12217,"VITY</w>":12218,"action\"</w>":12219,"Facility</w>":12220,"classification</w>":12221,"paper</w>":12222,"rang":12223,"slave</w>":12224,"xor</w>":12225,"algorith":12226,"Undefined</w>":12227,"Vect</w>":12228,"stopping</w>":12229,"It":12230,"Sep</w>":12231,"basis</w>":12232,"TYPE":12233,"ADDED</w>":12234,"SUPP":12235,"Managers</w>":12236,"editor":12237,"SCHEM":12238,"Sector</w>":12239,"ical":12240,"urons</w>":12241,"erc":12242,"annot</w>":12243,"Compression</w>":12244,"DISA":12245,"retrieving</w>":12246,"Persist</w>":12247,"others</w>":12248,"')'</w>":12249,"ie":12250,"nxt</w>":12251,"chers</w>":12252,"chmark</w>":12253,"acher</w>":12254,"Overview</w>":12255,"managers</w>":12256,"simulate</w>":12257,"products</w>":12258,"Restore</w>":12259,").\"</w>":12260,"Glass</w>":12261,"TM</w>":12262,"sta</w>":12263,"alised</w>":12264,"Authenti":12265,"RADI":12266,"Problems</w>":12267,"lapsed</w>":12268,"LIMIT</w>":12269,"alibration</w>":12270,"Isol":12271,"Nec":12272,"ides</w>":12273,"left":12274,"locales</w>":12275,"SQL":12276,"Call":12277,"invoking</w>":12278,"0x00":12279,"GET":12280,"SSING</w>":12281,"CONFIG":12282,"AIL":12283,"Igno":12284,"LER</w>":12285,"SH</w>":12286,"oe</w>":12287,"applying</w>":12288,"intersys</w>":12289,"classi":12290,"Vetoable</w>":12291,"quotes</w>":12292,"biz</w>":12293,"updater</w>":12294,"immediate</w>":12295,"BIT</w>":12296,"Hal":12297,"Tol":12298,"pun":12299,"loop":12300,"calend":12301,"ALS</w>":12302,"modul":12303,"axis":12304,"higher</w>":12305,"TREE</w>":12306,"bb":12307,"pstr</w>":12308,"notice</w>":12309,"tolog":12310,"para</w>":12311,"Transformed</w>":12312,"FICATION</w>":12313,"ID3":12314,"mix":12315,"Ticks</w>":12316,"semble</w>":12317,"FB</w>":12318,"Ld":12319,"Less</w>":12320,"email":12321,"sax":12322,"anch":12323,"img":12324,"preset</w>":12325,"gether</w>":12326,"DELIMI":12327,"Hover</w>":12328,"key2</w>":12329,"Occu":12330,"codec</w>":12331,"Requirement</w>":12332,"histogram</w>":12333,"junction</w>":12334,"pen</w>":12335,"remote":12336,"expires</w>":12337,"overl":12338,"schemas</w>":12339,"PROCESS</w>":12340,"file.\"</w>":12341,"Rollover</w>":12342,"INSERT":12343,"chunks</w>":12344,"flatten</w>":12345,"produces</w>":12346,"yield</w>":12347,"dget</w>":12348,"mechanism</w>":12349,"rnd</w>":12350,"sample":12351,"reo":12352,"atten":12353,"devi":12354,"unregisters</w>":12355,"dited</w>":12356,"istream</w>":12357,"name:</w>":12358,"variable":12359,"boot</w>":12360,"ANTIALI":12361,"\"ex":12362,"CY</w>":12363,"Hash":12364,"MCR</w>":12365,"don":12366,"ther":12367,"enab":12368,"anity</w>":12369,"mobile</w>":12370,"Seen</w>":12371,"Timed</w>":12372,"DETA":12373,"LIGHT</w>":12374,"flat</w>":12375,"META</w>":12376,"rtn</w>":12377,"images/":12378,"\"Method</w>":12379,"13":12380,"xm":12381,"strength</w>":12382,"subtype</w>":12383,"Indexer</w>":12384,"Sorting</w>":12385,"CHANN":12386,"cros":12387,"Similarity</w>":12388,"SCREEN</w>":12389,"Doub":12390,"OJ</w>":12391,"house</w>":12392,"ina</w>":12393,"eno":12394,"occurrences</w>":12395,"alise</w>":12396,"mental</w>":12397,"Painted</w>":12398,"Alloc</w>":12399,"level":12400,"initializing</w>":12401,"blk</w>":12402,"lexical</w>":12403,"RESPONSE</w>":12404,"JB":12405,"fits</w>":12406,"office</w>":12407,"coding</w>":12408,"respect</w>":12409,"lects</w>":12410,"credit</w>":12411,"policies</w>":12412,"edits</w>":12413,"key1</w>":12414,"POP":12415,"GL11</w>":12416,"Gadget</w>":12417,"\"Class</w>":12418,"\"Creating</w>":12419,"SLO":12420,"s:\"</w>":12421,"tent\"</w>":12422,"beep</w>":12423,"opc</w>":12424,"Associated</w>":12425,"navigate</w>":12426,"Genre</w>":12427,"followed</w>":12428,"puzzle</w>":12429,"folio</w>":12430,"Point3D</w>":12431,"Greater</w>":12432,"JNDI</w>":12433,"cue</w>":12434,"dash</w>":12435,"yet":12436,"lied</w>":12437,"chro":12438,"occur</w>":12439,"taking</w>":12440,"shut":12441,"sup</w>":12442,"recently</w>":12443,"Timeline</w>":12444,"joins</w>":12445,"epsilon</w>":12446,"Scaling</w>":12447,"EAST</w>":12448,"fk</w>":12449,"mr</w>":12450,"Real":12451,"verbo":12452,"actors</w>":12453,"IND":12454,"login":12455,"DESC":12456,"Containing</w>":12457,"FILE":12458,"tagged</w>":12459,"internal":12460,"Squared</w>":12461,"\"class\"</w>":12462,"('\"</w>":12463,"Os</w>":12464,"\\r\\n\"</w>":12465,"tan":12466,"reconstruct</w>":12467,"trunc":12468,"eral</w>":12469,"Intro":12470,"Relax":12471,"default\"</w>":12472,"JD</w>":12473,"Jas":12474,"cw</w>":12475,"rval</w>":12476,"anonymous</w>":12477,"domain":12478,"bytecode</w>":12479,"Cyc</w>":12480,"magnitude</w>":12481,"99</w>":12482,"lename</w>":12483,"Shapes</w>":12484,"Documentation</w>":12485,"null!\"</w>":12486,"coefficient</w>":12487,"meaning</w>":12488,"VERBOSE</w>":12489,"DU</w>":12490,"SMS</w>":12491,"fps</w>":12492,"right":12493,"Profi":12494,"wraps</w>":12495,"sigma</w>":12496,"xmlns":12497,"ENTITY</w>":12498,"assuming</w>":12499,"',</w>":12500,"Cl":12501,"Gps</w>":12502,"np</w>":12503,"s-":12504,"roid</w>":12505,"trial</w>":12506,"STATI":12507,"Handles</w>":12508,"gov</w>":12509,"Matrix3D</w>":12510,"FILENAME</w>":12511,"SUFFIX</w>":12512,"\"deleting</w>":12513,"Non":12514,"elec":12515,"vote</w>":12516,"Forms</w>":12517,"TERMIN":12518,"STARTED</w>":12519,"ascade</w>":12520,"Retrieve</w>":12521,"decrypt</w>":12522,"\"Server</w>":12523,"Cas</w>":12524,"Hy":12525,"OD":12526,"flash</w>":12527,"removal</w>":12528,"javadoc</w>":12529,"Version":12530,"DAV</w>":12531,"Bund":12532,"Puzzle</w>":12533,"destroyed</w>":12534,"CORBA</w>":12535,"BUNDLE</w>":12536,"aw</w>":12537,"cil</w>":12538,"rev</w>":12539,"contribution</w>":12540,"Protected</w>":12541,"to\"</w>":12542,"Attrib</w>":12543,"SET":12544,"iring</w>":12545,"Dock</w>":12546,"several</w>":12547,"invite</w>":12548,"A'</w>":12549,"BRE":12550,"CV</w>":12551,"Un</w>":12552,"pic</w>":12553,"throwing</w>":12554,"dice</w>":12555,"Deferred</w>":12556,"LET</w>":12557,"iliary</w>":12558,"index2</w>":12559,"management</w>":12560,"widths</w>":12561,
[...]
